{
  "version": "1.0",
  "truncation": null,
  "padding": null,
  "added_tokens": [
    {
      "id": 0,
      "content": "<unk>",
      "single_word": false,
      "lstrip": false,
      "rstrip": false,
      "normalized": false,
      "special": true
    },
    {
      "id": 1,
      "content": "<s>",
      "single_word": false,
      "lstrip": false,
      "rstrip": false,
      "normalized": false,
      "special": true
    },
    {
      "id": 2,
      "content": "</s>",
      "single_word": false,
      "lstrip": false,
      "rstrip": false,
      "normalized": false,
      "special": true
    },
    {
      "id": 3,
      "content": "<pad>",
      "single_word": false,
      "lstrip": false,
      "rstrip": false,
      "normalized": false,
      "special": true
    },
    {
      "id": 4,
      "content": "<mask>",
      "single_word": false,
      "lstrip": false,
      "rstrip": false,
      "normalized": false,
      "special": true
    }
  ],
  "normalizer": {
    "type": "Sequence",
    "normalizers": [
      {
        "type": "NFD"
      },
      {
        "type": "Replace",
        "pattern": {
          "String": "‌"
        },
        "content": " "
      },
      {
        "type": "Replace",
        "pattern": {
          "String": "‌"
        },
        "content": " "
      },
      {
        "type": "StripAccents"
      }
    ]
  },
  "pre_tokenizer": {
    "type": "BertPreTokenizer"
  },
  "post_processor": null,
  "decoder": null,
  "model": {
    "type": "BPE",
    "dropout": null,
    "unk_token": null,
    "continuing_subword_prefix": null,
    "end_of_word_suffix": null,
    "fuse_unk": false,
    "byte_fallback": false,
    "ignore_merges": false,
    "vocab": {
      "<unk>": 0,
      "<s>": 1,
      "</s>": 2,
      "<pad>": 3,
      "<mask>": 4,
      "!": 5,
      "\"": 6,
      "'": 7,
      "(": 8,
      ")": 9,
      "*": 10,
      "+": 11,
      ",": 12,
      "-": 13,
      ".": 14,
      "/": 15,
      "0": 16,
      "1": 17,
      "2": 18,
      "3": 19,
      "4": 20,
      "5": 21,
      "6": 22,
      "7": 23,
      "8": 24,
      "9": 25,
      ":": 26,
      ";": 27,
      "<": 28,
      "=": 29,
      ">": 30,
      "?": 31,
      "A": 32,
      "B": 33,
      "C": 34,
      "D": 35,
      "E": 36,
      "F": 37,
      "G": 38,
      "H": 39,
      "I": 40,
      "J": 41,
      "K": 42,
      "L": 43,
      "M": 44,
      "N": 45,
      "O": 46,
      "P": 47,
      "R": 48,
      "S": 49,
      "T": 50,
      "U": 51,
      "V": 52,
      "W": 53,
      "X": 54,
      "Y": 55,
      "Z": 56,
      "\\": 57,
      "a": 58,
      "b": 59,
      "c": 60,
      "d": 61,
      "e": 62,
      "f": 63,
      "g": 64,
      "h": 65,
      "i": 66,
      "j": 67,
      "k": 68,
      "l": 69,
      "m": 70,
      "n": 71,
      "o": 72,
      "p": 73,
      "q": 74,
      "r": 75,
      "s": 76,
      "t": 77,
      "u": 78,
      "v": 79,
      "w": 80,
      "x": 81,
      "y": 82,
      "z": 83,
      "": 84,
      "": 85,
      "¡": 86,
      "¢": 87,
      "«": 88,
      "¬": 89,
      "­": 90,
      "»": 91,
      "ı": 92,
      "Я": 93,
      "а": 94,
      "б": 95,
      "в": 96,
      "г": 97,
      "д": 98,
      "е": 99,
      "ж": 100,
      "з": 101,
      "и": 102,
      "к": 103,
      "л": 104,
      "м": 105,
      "н": 106,
      "о": 107,
      "п": 108,
      "р": 109,
      "с": 110,
      "т": 111,
      "у": 112,
      "ф": 113,
      "х": 114,
      "ш": 115,
      "щ": 116,
      "я": 117,
      "љ": 118,
      "ћ": 119,
      "Ҏ": 120,
      "ҏ": 121,
      "қ": 122,
      "ҵ": 123,
      "һ": 124,
      "ә": 125,
      "ӡ": 126,
      "،": 127,
      "؛": 128,
      "؟": 129,
      "ء": 130,
      "ا": 131,
      "ب": 132,
      "ة": 133,
      "ت": 134,
      "ث": 135,
      "ج": 136,
      "ح": 137,
      "خ": 138,
      "د": 139,
      "ذ": 140,
      "ر": 141,
      "ز": 142,
      "س": 143,
      "ش": 144,
      "ص": 145,
      "ض": 146,
      "ط": 147,
      "ظ": 148,
      "ع": 149,
      "غ": 150,
      "ؾ": 151,
      "ـ": 152,
      "ف": 153,
      "ق": 154,
      "ك": 155,
      "ل": 156,
      "م": 157,
      "ن": 158,
      "ه": 159,
      "و": 160,
      "ى": 161,
      "ي": 162,
      "١": 163,
      "٢": 164,
      "٣": 165,
      "٤": 166,
      "٥": 167,
      "٦": 168,
      "٫": 169,
      "٬": 170,
      "ٴ": 171,
      "ٹ": 172,
      "پ": 173,
      "ځ": 174,
      "چ": 175,
      "ڌ": 176,
      "ڑ": 177,
      "ڕ": 178,
      "ژ": 179,
      "ک": 180,
      "ګ": 181,
      "ڬ": 182,
      "گ": 183,
      "ڵ": 184,
      "ں": 185,
      "ھ": 186,
      "ہ": 187,
      "ۆ": 188,
      "ی": 189,
      "ێ": 190,
      "ے": 191,
      "۔": 192,
      "ە": 193,
      "۰": 194,
      "۱": 195,
      "۲": 196,
      "۳": 197,
      "۴": 198,
      "۵": 199,
      "۶": 200,
      "۷": 201,
      "۸": 202,
      "۹": 203,
      "स": 204,
      "​": 205,
      "‍": 206,
      "‎": 207,
      "‏": 208,
      "‐": 209,
      "–": 210,
      "—": 211,
      "‘": 212,
      "’": 213,
      "‚": 214,
      "“": 215,
      "”": 216,
      "„": 217,
      "‪": 218,
      "‫": 219,
      "‬": 220,
      "‮": 221,
      "′": 222,
      "‹": 223,
      "›": 224,
      "⁄": 225,
      "�": 226,
      "🌴": 227,
      "🍌": 228,
      "💫": 229,
      "ان": 230,
      "ند": 231,
      "با": 232,
      "می": 233,
      "را": 234,
      "رد": 235,
      "ست": 236,
      "به": 237,
      "ید": 238,
      "رو": 239,
      "کرد": 240,
      "ها": 241,
      "ام": 242,
      "او": 243,
      "ود": 244,
      "در": 245,
      "لی": 246,
      "خو": 247,
      "یک": 248,
      "دا": 249,
      "فت": 250,
      "بود": 251,
      "زی": 252,
      "دو": 253,
      "ای": 254,
      "شت": 255,
      "یم": 256,
      "از": 257,
      "تو": 258,
      "که": 259,
      "ار": 260,
      "شد": 261,
      "بازی": 262,
      "ما": 263,
      "کن": 264,
      "گر": 265,
      "هم": 266,
      "دوست": 267,
      "رگ": 268,
      "است": 269,
      "روز": 270,
      "گفت": 271,
      "بی": 272,
      "اس": 273,
      "ال": 274,
      "انها": 275,
      "اد": 276,
      "داشت": 277,
      "تیم": 278,
      "بز": 279,
      "تر": 280,
      "خی": 281,
      "خوش": 282,
      "کند": 283,
      "نگ": 284,
      "پر": 285,
      "خیلی": 286,
      "ین": 287,
      "بزرگ": 288,
      "دید": 289,
      "تا": 290,
      "های": 291,
      "کردند": 292,
      "اه": 293,
      "حال": 294,
      "سر": 295,
      "زد": 296,
      "من": 297,
      "کو": 298,
      "این": 299,
      "برا": 300,
      "خت": 301,
      "اما": 302,
      "کوچ": 303,
      "مک": 304,
      "اب": 305,
      "لیلی": 306,
      "سی": 307,
      "خوشحال": 308,
      "دی": 309,
      "لو": 310,
      "گی": 311,
      "تی": 312,
      "خواست": 313,
      "نده": 314,
      "توان": 315,
      "مادر": 316,
      "برای": 317,
      "تام": 318,
      "انه": 319,
      "نا": 320,
      "ری": 321,
      "ره": 322,
      "رفت": 323,
      "اش": 324,
      "مو": 325,
      "داد": 326,
      "چه": 327,
      "شان": 328,
      "هر": 329,
      "ات": 330,
      "یه": 331,
      "مام": 332,
      "پید": 333,
      "باب": 334,
      "پیدا": 335,
      "نام": 336,
      "روی": 337,
      "سو": 338,
      "سید": 339,
      "پرنده": 340,
      "نی": 341,
      "کوچک": 342,
      "نمی": 343,
      "کمک": 344,
      "خند": 345,
      "چی": 346,
      "لا": 347,
      "کنند": 348,
      "وق": 349,
      "بر": 350,
      "اشت": 351,
      "خانه": 352,
      "بودند": 353,
      "رم": 354,
      "گرفت": 355,
      "ون": 356,
      "اسباب": 357,
      "گذ": 358,
      "ور": 359,
      "اند": 360,
      "مادرش": 361,
      "بع": 362,
      "مت": 363,
      "وش": 364,
      "بل": 365,
      "سگ": 366,
      "وی": 367,
      "گربه": 368,
      "دیگر": 369,
      "درخت": 370,
      "اح": 371,
      "همه": 372,
      "ده": 373,
      "دوستان": 374,
      "دخ": 375,
      "دختر": 376,
      "برد": 377,
      "کر": 378,
      "توپ": 379,
      "جا": 380,
      "افت": 381,
      "نگاه": 382,
      "نه": 383,
      "بعد": 384,
      "بن": 385,
      "شه": 386,
      "پسر": 387,
      "هی": 388,
      "پار": 389,
      "وقتی": 390,
      "روزی": 391,
      "لب": 392,
      "کردن": 393,
      "کار": 394,
      "مامان": 395,
      "شدند": 396,
      "زند": 397,
      "رون": 398,
      "پس": 399,
      "شرو": 400,
      "شروع": 401,
      "لبخند": 402,
      "الی": 403,
      "ماش": 404,
      "یر": 405,
      "کی": 406,
      "اده": 407,
      "بان": 408,
      "شده": 409,
      "اسم": 410,
      "اون": 411,
      "دست": 412,
      "هست": 413,
      "ساس": 414,
      "پارک": 415,
      "احساس": 416,
      "برگ": 417,
      "خود": 418,
      "چیز": 419,
      "کنم": 420,
      "یدند": 421,
      "اق": 422,
      "ولو": 423,
      "بال": 424,
      "بچه": 425,
      "زندگی": 426,
      "خواه": 427,
      "همی": 428,
      "باید": 429,
      "دان": 430,
      "بیرون": 431,
      "کوچولو": 432,
      "باره": 433,
      "باش": 434,
      "فکر": 435,
      "صدا": 436,
      "خورد": 437,
      "شن": 438,
      "ماشین": 439,
      "مرد": 440,
      "امد": 441,
      "راح": 442,
      "توانست": 443,
      "باز": 444,
      "گو": 445,
      "گه": 446,
      "سا": 447,
      "کش": 448,
      "یی": 449,
      "خر": 450,
      "شک": 451,
      "تمام": 452,
      "سیار": 453,
      "یاد": 454,
      "پی": 455,
      "بهتر": 456,
      "جدید": 457,
      "ادی": 458,
      "کنیم": 459,
      "بسیار": 460,
      "بزرگی": 461,
      "بو": 462,
      "رف": 463,
      "رنگ": 464,
      "مکس": 465,
      "غم": 466,
      "اید": 467,
      "پای": 468,
      "عی": 469,
      "تص": 470,
      "اف": 471,
      "امی": 472,
      "بلند": 473,
      "تاب": 474,
      "راحت": 475,
      "دوستانش": 476,
      "نش": 477,
      "داشتند": 478,
      "دانست": 479,
      "میا": 480,
      "جع": 481,
      "کس": 482,
      "گین": 483,
      "سام": 484,
      "دوباره": 485,
      "جعبه": 486,
      "زیبا": 487,
      "پرسید": 488,
      "غمگین": 489,
      "دار": 490,
      "کرده": 491,
      "نو": 492,
      "بالا": 493,
      "نزد": 494,
      "نج": 495,
      "کنه": 496,
      "زه": 497,
      "اط": 498,
      "اسپ": 499,
      "سمت": 500,
      "خوبی": 501,
      "پرو": 502,
      "دوید": 503,
      "مهر": 504,
      "مان": 505,
      "بار": 506,
      "غذ": 507,
      "حی": 508,
      "کنی": 509,
      "لوسی": 510,
      "اسپات": 511,
      "جان": 512,
      "گوید": 513,
      "وان": 514,
      "رفتند": 515,
      "برو": 516,
      "زده": 517,
      "شود": 518,
      "همیشه": 519,
      "گذاشت": 520,
      "ابی": 521,
      "ترسید": 522,
      "رسید": 523,
      "ناراحت": 524,
      "تک": 525,
      "دهد": 526,
      "تع": 527,
      "ول": 528,
      "سعی": 529,
      "بد": 530,
      "سنگ": 531,
      "قط": 532,
      "داخ": 533,
      "سه": 534,
      "مر": 535,
      "گل": 536,
      "دارد": 537,
      "کل": 538,
      "مهربان": 539,
      "نبود": 540,
      "ناگه": 541,
      "ناگهان": 542,
      "شما": 543,
      "ارد": 544,
      "زیادی": 545,
      "افتاد": 546,
      "باغ": 547,
      "جو": 548,
      "دور": 549,
      "قه": 550,
      "جام": 551,
      "هایش": 552,
      "میم": 553,
      "گرم": 554,
      "باشد": 555,
      "داخل": 556,
      "بیا": 557,
      "اری": 558,
      "تش": 559,
      "ببی": 560,
      "بگی": 561,
      "تصمیم": 562,
      "انجام": 563,
      "نزدیک": 564,
      "زمی": 565,
      "دوستش": 566,
      "ولی": 567,
      "تکان": 568,
      "مه": 569,
      "قرم": 570,
      "ظر": 571,
      "پرواز": 572,
      "اتا": 573,
      "راه": 574,
      "اتاق": 575,
      "قدر": 576,
      "برگشت": 577,
      "گذر": 578,
      "سته": 579,
      "غل": 580,
      "دم": 581,
      "قرمز": 582,
      "دن": 583,
      "تون": 584,
      "برداشت": 585,
      "حالی": 586,
      "توی": 587,
      "نیست": 588,
      "شو": 589,
      "تواند": 590,
      "زمین": 591,
      "درست": 592,
      "مرا": 593,
      "قب": 594,
      "اندند": 595,
      "منت": 596,
      "چون": 597,
      "پدر": 598,
      "سل": 599,
      "دیدند": 600,
      "مد": 601,
      "سری": 602,
      "بله": 603,
      "انی": 604,
      "خوب": 605,
      "ماکس": 606,
      "بهترین": 607,
      "صدای": 608,
      "کت": 609,
      "شیر": 610,
      "نشان": 611,
      "فاق": 612,
      "اتفاق": 613,
      "جود": 614,
      "مع": 615,
      "گوش": 616,
      "بخو": 617,
      "یدن": 618,
      "حش": 619,
      "خان": 620,
      "ماهی": 621,
      "جی": 622,
      "هستند": 623,
      "قی": 624,
      "طور": 625,
      "انا": 626,
      "سریع": 627,
      "وا": 628,
      "پایین": 629,
      "مس": 630,
      "حرف": 631,
      "دنبال": 632,
      "مزه": 633,
      "کوچکی": 634,
      "خرگ": 635,
      "زیر": 636,
      "خرگوش": 637,
      "باد": 638,
      "سلام": 639,
      "میز": 640,
      "مث": 641,
      "چیزی": 642,
      "خرس": 643,
      "جنگ": 644,
      "مثل": 645,
      "قف": 646,
      "جک": 647,
      "گاه": 648,
      "ارا": 649,
      "متو": 650,
      "وجود": 651,
      "اینکه": 652,
      "حیوان": 653,
      "توانم": 654,
      "مح": 655,
      "سم": 656,
      "گرفتند": 657,
      "چر": 658,
      "ازه": 659,
      "ایا": 660,
      "بغل": 661,
      "جال": 662,
      "مراقب": 663,
      "جه": 664,
      "دارم": 665,
      "چیزهای": 666,
      "گرد": 667,
      "سارا": 668,
      "رش": 669,
      "هیجان": 670,
      "موش": 671,
      "لذ": 672,
      "اره": 673,
      "خودش": 674,
      "درخ": 675,
      "نند": 676,
      "یا": 677,
      "پرید": 678,
      "لذت": 679,
      "جای": 680,
      "فقط": 681,
      "بیشت": 682,
      "له": 683,
      "شی": 684,
      "جنگل": 685,
      "فی": 686,
      "کیک": 687,
      "گشت": 688,
      "خندیدند": 689,
      "عص": 690,
      "چرا": 691,
      "خوشمزه": 692,
      "ایده": 693,
      "قدم": 694,
      "کنار": 695,
      "حالا": 696,
      "گذراندند": 697,
      "زدند": 698,
      "ترسیده": 699,
      "نظر": 700,
      "تن": 701,
      "اسمان": 702,
      "تشکر": 703,
      "باری": 704,
      "کمی": 705,
      "سرگرم": 706,
      "قای": 707,
      "جب": 708,
      "اورد": 709,
      "خواستند": 710,
      "پشت": 711,
      "شاد": 712,
      "حیوانات": 713,
      "تل": 714,
      "داشته": 715,
      "حشره": 716,
      "چرخ": 717,
      "گاری": 718,
      "روس": 719,
      "بدی": 720,
      "دادند": 721,
      "فرا": 722,
      "کا": 723,
      "غذا": 724,
      "عه": 725,
      "نگه": 726,
      "فش": 727,
      "فا": 728,
      "خواهد": 729,
      "یکی": 730,
      "دارند": 731,
      "فر": 732,
      "کتاب": 733,
      "کشید": 734,
      "توانی": 735,
      "پا": 736,
      "نق": 737,
      "جادو": 738,
      "زود": 739,
      "اخ": 740,
      "برود": 741,
      "ستان": 742,
      "ظره": 743,
      "عت": 744,
      "عروس": 745,
      "نم": 746,
      "شنید": 747,
      "بانی": 748,
      "وه": 749,
      "پسربچه": 750,
      "توانیم": 751,
      "بخ": 752,
      "لبا": 753,
      "گریه": 754,
      "درخشان": 755,
      "قص": 756,
      "خواب": 757,
      "هایشان": 758,
      "باه": 759,
      "زدن": 760,
      "غیر": 761,
      "کنید": 762,
      "روزگاری": 763,
      "لباس": 764,
      "عصبانی": 765,
      "فار": 766,
      "اندا": 767,
      "منتظره": 768,
      "نگر": 769,
      "مش": 770,
      "ژه": 771,
      "بت": 772,
      "فرو": 773,
      "قایق": 774,
      "مهم": 775,
      "ممن": 776,
      "گفتند": 777,
      "داستان": 778,
      "هایی": 779,
      "وقت": 780,
      "حر": 781,
      "بگیرد": 782,
      "متن": 783,
      "ممنون": 784,
      "خانو": 785,
      "راک": 786,
      "زن": 787,
      "فارسی": 788,
      "نداشت": 789,
      "چو": 790,
      "بش": 791,
      "افتاب": 792,
      "پوش": 793,
      "دختری": 794,
      "صند": 795,
      "خانواده": 796,
      "ترس": 797,
      "استف": 798,
      "مامانش": 799,
      "کم": 800,
      "استفاده": 801,
      "گیر": 802,
      "اشتراک": 803,
      "سخت": 804,
      "مل": 805,
      "تمیز": 806,
      "چطور": 807,
      "صور": 808,
      "بالای": 809,
      "قور": 810,
      "پدرش": 811,
      "کلاه": 812,
      "تعجب": 813,
      "داری": 814,
      "قورباغ": 815,
      "کوچولویی": 816,
      "قورباغه": 817,
      "برگرد": 818,
      "پسری": 819,
      "جادویی": 820,
      "لط": 821,
      "بده": 822,
      "ارز": 823,
      "خوا": 824,
      "غرو": 825,
      "ساخت": 826,
      "حرکت": 827,
      "ماند": 828,
      "باشه": 829,
      "سال": 830,
      "مورد": 831,
      "هرگ": 832,
      "غیرمنتظره": 833,
      "چش": 834,
      "هرگز": 835,
      "شدن": 836,
      "خواهم": 837,
      "زودی": 838,
      "ایی": 839,
      "فری": 840,
      "ویژه": 841,
      "اگر": 842,
      "لطفا": 843,
      "درا": 844,
      "انجا": 845,
      "چوب": 846,
      "سالی": 847,
      "کیتی": 848,
      "درباره": 849,
      "قت": 850,
      "تح": 851,
      "هستی": 852,
      "خواهی": 853,
      "کسی": 854,
      "خوشحالی": 855,
      "چن": 856,
      "خورش": 857,
      "اج": 858,
      "شهر": 859,
      "کننده": 860,
      "اطرا": 861,
      "قل": 862,
      "حتی": 863,
      "شگفت": 864,
      "مند": 865,
      "شاید": 866,
      "بست": 867,
      "شنا": 868,
      "نوز": 869,
      "خورشید": 870,
      "گم": 871,
      "نگران": 872,
      "مردم": 873,
      "ادام": 874,
      "سرش": 875,
      "نشست": 876,
      "ببیند": 877,
      "هیچ": 878,
      "مي": 879,
      "بگذ": 880,
      "تلاش": 881,
      "جمه": 882,
      "بابا": 883,
      "اسف": 884,
      "هوا": 885,
      "پز": 886,
      "جدیدی": 887,
      "بند": 888,
      "طرف": 889,
      "مال": 890,
      "نتوانست": 891,
      "سد": 892,
      "خندید": 893,
      "قوی": 894,
      "شجا": 895,
      "شیرین": 896,
      "شوند": 897,
      "جالب": 898,
      "لکه": 899,
      "دون": 900,
      "په": 901,
      "یکدیگر": 902,
      "بنا": 903,
      "حیاط": 904,
      "کردم": 905,
      "مخ": 906,
      "نیاز": 907,
      "سپس": 908,
      "خونه": 909,
      "انقدر": 910,
      "پایان": 911,
      "ارام": 912,
      "لف": 913,
      "دویدند": 914,
      "نرم": 915,
      "چیست": 916,
      "بیشتر": 917,
      "سبز": 918,
      "ترجمه": 919,
      "ابد": 920,
      "پو": 921,
      "سیب": 922,
      "ایمی": 923,
      "سنج": 924,
      "واق": 925,
      "خسته": 926,
      "قات": 927,
      "افتابی": 928,
      "دع": 929,
      "بنابرا": 930,
      "ریخت": 931,
      "تخت": 932,
      "منتظر": 933,
      "اسی": 934,
      "متوجه": 935,
      "محکم": 936,
      "فهمی": 937,
      "بنابراین": 938,
      "همچن": 939,
      "ادامه": 940,
      "متاسف": 941,
      "کنجک": 942,
      "کنجکاو": 943,
      "بخورد": 944,
      "بردند": 945,
      "خا": 946,
      "رقص": 947,
      "رفتن": 948,
      "هایت": 949,
      "اماده": 950,
      "یده": 951,
      "مز": 952,
      "مار": 953,
      "تق": 954,
      "ویی": 955,
      "دیگه": 956,
      "هستم": 957,
      "زمان": 958,
      "سای": 959,
      "مون": 960,
      "متوقف": 961,
      "جرا": 962,
      "رنگی": 963,
      "رند": 964,
      "کامی": 965,
      "خوردن": 966,
      "بودن": 967,
      "کامیون": 968,
      "فریاد": 969,
      "توانند": 970,
      "افظ": 971,
      "مساب": 972,
      "باشند": 973,
      "چند": 974,
      "سنجاب": 975,
      "شادی": 976,
      "اشپز": 977,
      "مسابقه": 978,
      "دخترک": 979,
      "بخت": 980,
      "بزند": 981,
      "میوه": 982,
      "شب": 983,
      "تماش": 984,
      "دیگری": 985,
      "دیگران": 986,
      "فهمید": 987,
      "طو": 988,
      "دانستند": 989,
      "ماجرا": 990,
      "هنگ": 991,
      "هنوز": 992,
      "ذر": 993,
      "عروسک": 994,
      "مق": 995,
      "شون": 996,
      "تپه": 997,
      "بلندی": 998,
      "امتح": 999,
      "بیند": 1000,
      "شمالو": 1001,
      "امتحان": 1002,
      "بیای": 1003,
      "سب": 1004,
      "ناک": 1005,
      "راب": 1006,
      "پشمالو": 1007,
      "ضی": 1008,
      "نکرد": 1009,
      "پرد": 1010,
      "سرد": 1011,
      "رار": 1012,
      "شجاع": 1013,
      "میر": 1014,
      "بس": 1015,
      "قش": 1016,
      "سره": 1017,
      "غول": 1018,
      "جواب": 1019,
      "شاه": 1020,
      "ایش": 1021,
      "اطر": 1022,
      "بور": 1023,
      "شکل": 1024,
      "سرسره": 1025,
      "اشی": 1026,
      "کاری": 1027,
      "فروش": 1028,
      "گیری": 1029,
      "عالی": 1030,
      "خوشبخت": 1031,
      "اتش": 1032,
      "تونم": 1033,
      "تار": 1034,
      "اطراف": 1035,
      "سیم": 1036,
      "خواند": 1037,
      "بیشتری": 1038,
      "دهند": 1039,
      "برگشتند": 1040,
      "اینجا": 1041,
      "تنها": 1042,
      "سورا": 1043,
      "جن": 1044,
      "مواف": 1045,
      "بلو": 1046,
      "دیدن": 1047,
      "بخش": 1048,
      "علا": 1049,
      "نیم": 1050,
      "پنه": 1051,
      "اغ": 1052,
      "غرور": 1053,
      "صندلی": 1054,
      "جمع": 1055,
      "رچه": 1056,
      "دیو": 1057,
      "همان": 1058,
      "یف": 1059,
      "اونا": 1060,
      "پنج": 1061,
      "تب": 1062,
      "رود": 1063,
      "کث": 1064,
      "اشپزخانه": 1065,
      "کاغذ": 1066,
      "روند": 1067,
      "صح": 1068,
      "رعه": 1069,
      "درس": 1070,
      "نباش": 1071,
      "تماشا": 1072,
      "خواهند": 1073,
      "باران": 1074,
      "علاقه": 1075,
      "اتاقش": 1076,
      "پنهان": 1077,
      "گوی": 1078,
      "ارزو": 1079,
      "عجی": 1080,
      "تخ": 1081,
      "بریم": 1082,
      "مزرعه": 1083,
      "نقاشی": 1084,
      "دک": 1085,
      "دل": 1086,
      "اواز": 1087,
      "خدا": 1088,
      "شر": 1089,
      "افل": 1090,
      "شاخ": 1091,
      "جین": 1092,
      "لمس": 1093,
      "اجازه": 1094,
      "طر": 1095,
      "خوردند": 1096,
      "دری": 1097,
      "فرار": 1098,
      "اردک": 1099,
      "مرتب": 1100,
      "اسیب": 1101,
      "انند": 1102,
      "سف": 1103,
      "وارد": 1104,
      "گاهی": 1105,
      "رز": 1106,
      "دریا": 1107,
      "تند": 1108,
      "مرغ": 1109,
      "کردی": 1110,
      "زیبایی": 1111,
      "مط": 1112,
      "خنده": 1113,
      "تونی": 1114,
      "وض": 1115,
      "موافقت": 1116,
      "خانم": 1117,
      "سوراخ": 1118,
      "همین": 1119,
      "بوبو": 1120,
      "فرد": 1121,
      "وای": 1122,
      "تیمی": 1123,
      "نامه": 1124,
      "چنگ": 1125,
      "نهایت": 1126,
      "خوام": 1127,
      "کثیف": 1128,
      "لح": 1129,
      "دادن": 1130,
      "خاطر": 1131,
      "چقدر": 1132,
      "ترین": 1133,
      "مغ": 1134,
      "دوستاش": 1135,
      "ذه": 1136,
      "غافل": 1137,
      "فین": 1138,
      "گذاشتند": 1139,
      "حافظ": 1140,
      "پرند": 1141,
      "زرد": 1142,
      "پیر": 1143,
      "برمی": 1144,
      "درون": 1145,
      "اغوش": 1146,
      "خداحافظ": 1147,
      "دستش": 1148,
      "شاخه": 1149,
      "خوشش": 1150,
      "پش": 1151,
      "انگی": 1152,
      "هاش": 1153,
      "امو": 1154,
      "جست": 1155,
      "کیسه": 1156,
      "روشن": 1157,
      "اومد": 1158,
      "باهوش": 1159,
      "انداخت": 1160,
      "بوت": 1161,
      "باشی": 1162,
      "کام": 1163,
      "قرار": 1164,
      "امیدو": 1165,
      "لانه": 1166,
      "چیزها": 1167,
      "بینند": 1168,
      "صحبت": 1169,
      "قاب": 1170,
      "گرس": 1171,
      "امیدوار": 1172,
      "تعمیر": 1173,
      "ورد": 1174,
      "شته": 1175,
      "مادربزرگ": 1176,
      "خیس": 1177,
      "ملا": 1178,
      "گرسنه": 1179,
      "باع": 1180,
      "خاک": 1181,
      "باعث": 1182,
      "بساز": 1183,
      "اتفاقی": 1184,
      "دنی": 1185,
      "گویند": 1186,
      "افتاده": 1187,
      "يد": 1188,
      "جدیدش": 1189,
      "عا": 1190,
      "مورچه": 1191,
      "خار": 1192,
      "دراز": 1193,
      "ذهنش": 1194,
      "جاد": 1195,
      "بعدا": 1196,
      "فراموش": 1197,
      "فروشگاه": 1198,
      "ظه": 1199,
      "سوار": 1200,
      "قبل": 1201,
      "داده": 1202,
      "قشنگ": 1203,
      "رسیدند": 1204,
      "درد": 1205,
      "تونست": 1206,
      "لوی": 1207,
      "ایجاد": 1208,
      "بیایید": 1209,
      "گان": 1210,
      "حل": 1211,
      "میمی": 1212,
      "تبدی": 1213,
      "تبدیل": 1214,
      "امن": 1215,
      "خداحافظی": 1216,
      "سط": 1217,
      "نک": 1218,
      "ستاره": 1219,
      "اقای": 1220,
      "چرخه": 1221,
      "ملاقات": 1222,
      "شیرینی": 1223,
      "بدهد": 1224,
      "لي": 1225,
      "سرانجام": 1226,
      "قطار": 1227,
      "تقسیم": 1228,
      "غذای": 1229,
      "مج": 1230,
      "تان": 1231,
      "مشغول": 1232,
      "یخ": 1233,
      "جایی": 1234,
      "پروانه": 1235,
      "یش": 1236,
      "برج": 1237,
      "بستنی": 1238,
      "لیلا": 1239,
      "دویدن": 1240,
      "چسب": 1241,
      "واقعا": 1242,
      "مادرشان": 1243,
      "جویی": 1244,
      "داره": 1245,
      "ابر": 1246,
      "بق": 1247,
      "شدید": 1248,
      "قول": 1249,
      "دعوا": 1250,
      "اول": 1251,
      "بگذار": 1252,
      "دوی": 1253,
      "متشک": 1254,
      "متشکرم": 1255,
      "توانستند": 1256,
      "انگ": 1257,
      "ببینند": 1258,
      "دوچرخه": 1259,
      "غمگینی": 1260,
      "بروند": 1261,
      "پنجره": 1262,
      "گرفته": 1263,
      "رنگار": 1264,
      "پری": 1265,
      "عکس": 1266,
      "هل": 1267,
      "براق": 1268,
      "اض": 1269,
      "بح": 1270,
      "مدتی": 1271,
      "رنگارنگ": 1272,
      "پوشید": 1273,
      "ایست": 1274,
      "داریم": 1275,
      "مهربانی": 1276,
      "امروز": 1277,
      "يک": 1278,
      "دوستی": 1279,
      "بپرد": 1280,
      "صدایی": 1281,
      "طول": 1282,
      "ریف": 1283,
      "متاسفم": 1284,
      "پیچ": 1285,
      "بید": 1286,
      "پرتاب": 1287,
      "طن": 1288,
      "بدون": 1289,
      "سرعت": 1290,
      "خراب": 1291,
      "اشق": 1292,
      "کنن": 1293,
      "مم": 1294,
      "انش": 1295,
      "استراحت": 1296,
      "بقیه": 1297,
      "ساح": 1298,
      "اص": 1299,
      "باشیم": 1300,
      "جغ": 1301,
      "وع": 1302,
      "غافلگیری": 1303,
      "زیاد": 1304,
      "ماجراجویی": 1305,
      "ریم": 1306,
      "برادر": 1307,
      "ظرف": 1308,
      "دود": 1309,
      "صورتی": 1310,
      "زان": 1311,
      "دیده": 1312,
      "زار": 1313,
      "چیزهایی": 1314,
      "ببر": 1315,
      "نقشه": 1316,
      "صندوق": 1317,
      "اموخت": 1318,
      "پرندگان": 1319,
      "جغد": 1320,
      "شکسته": 1321,
      "پیش": 1322,
      "مهمانی": 1323,
      "توپش": 1324,
      "صبر": 1325,
      "ساحل": 1326,
      "دیوار": 1327,
      "همراه": 1328,
      "مطمي": 1329,
      "گاز": 1330,
      "داشتن": 1331,
      "نشد": 1332,
      "پذ": 1333,
      "نباید": 1334,
      "قدی": 1335,
      "گیاه": 1336,
      "لیز": 1337,
      "دختربچه": 1338,
      "امدند": 1339,
      "ين": 1340,
      "همچنان": 1341,
      "فیل": 1342,
      "بهتری": 1343,
      "مکان": 1344,
      "عل": 1345,
      "پیم": 1346,
      "هار": 1347,
      "دیزی": 1348,
      "نجات": 1349,
      "بادی": 1350,
      "کشد": 1351,
      "دخترکی": 1352,
      "سنگین": 1353,
      "رس": 1354,
      "روباه": 1355,
      "شکست": 1356,
      "صورت": 1357,
      "قدیمی": 1358,
      "بهم": 1359,
      "پارس": 1360,
      "قلعه": 1361,
      "دف": 1362,
      "تازه": 1363,
      "اندازه": 1364,
      "گشتند": 1365,
      "چشم": 1366,
      "همچنین": 1367,
      "دونست": 1368,
      "زش": 1369,
      "بیدار": 1370,
      "عذر": 1371,
      "بهش": 1372,
      "زید": 1373,
      "دهم": 1374,
      "حوض": 1375,
      "گاو": 1376,
      "کلید": 1377,
      "هنگامی": 1378,
      "عذرخواهی": 1379,
      "مراقبت": 1380,
      "کفش": 1381,
      "زنبور": 1382,
      "گرفتن": 1383,
      "تامی": 1384,
      "مغازه": 1385,
      "صبح": 1386,
      "ببرد": 1387,
      "اسب": 1388,
      "شیشه": 1389,
      "کشیدند": 1390,
      "ترسناک": 1391,
      "سیر": 1392,
      "بلوک": 1393,
      "شریک": 1394,
      "چمن": 1395,
      "واو": 1396,
      "خرد": 1397,
      "شام": 1398,
      "لاقی": 1399,
      "بری": 1400,
      "بدجن": 1401,
      "کجا": 1402,
      "دمش": 1403,
      "اهر": 1404,
      "سفید": 1405,
      "لحظه": 1406,
      "رفته": 1407,
      "ایمن": 1408,
      "پل": 1409,
      "پول": 1410,
      "خشک": 1411,
      "مدر": 1412,
      "پاس": 1413,
      "حس": 1414,
      "بین": 1415,
      "نشستند": 1416,
      "هدی": 1417,
      "باشید": 1418,
      "احمق": 1419,
      "هدیه": 1420,
      "وت": 1421,
      "مطمين": 1422,
      "بره": 1423,
      "طولانی": 1424,
      "قسمت": 1425,
      "تصوی": 1426,
      "چیه": 1427,
      "طناب": 1428,
      "سگی": 1429,
      "کرم": 1430,
      "تمند": 1431,
      "خوای": 1432,
      "تاریک": 1433,
      "پیاده": 1434,
      "کمکش": 1435,
      "توانید": 1436,
      "قهوه": 1437,
      "اشنا": 1438,
      "سایه": 1439,
      "انگیز": 1440,
      "تونیم": 1441,
      "هواپیم": 1442,
      "ازش": 1443,
      "دوستانه": 1444,
      "شکلی": 1445,
      "رمی": 1446,
      "بدود": 1447,
      "رها": 1448,
      "پرت": 1449,
      "بتی": 1450,
      "تونه": 1451,
      "خره": 1452,
      "سکه": 1453,
      "رض": 1454,
      "سفر": 1455,
      "مخفی": 1456,
      "علف": 1457,
      "غروب": 1458,
      "بتواند": 1459,
      "چال": 1460,
      "حص": 1461,
      "توت": 1462,
      "وحش": 1463,
      "مود": 1464,
      "گذراند": 1465,
      "تکه": 1466,
      "اعت": 1467,
      "زم": 1468,
      "خطر": 1469,
      "بگذارد": 1470,
      "کشف": 1471,
      "بیلی": 1472,
      "الان": 1473,
      "انتخ": 1474,
      "عجیبی": 1475,
      "غر": 1476,
      "وسای": 1477,
      "زمانی": 1478,
      "انتخاب": 1479,
      "جشن": 1480,
      "اخلاقی": 1481,
      "تعریف": 1482,
      "عمی": 1483,
      "زنگ": 1484,
      "نشسته": 1485,
      "ندار": 1486,
      "راحتی": 1487,
      "اوقات": 1488,
      "پاش": 1489,
      "برویم": 1490,
      "عروسکی": 1491,
      "زبان": 1492,
      "نان": 1493,
      "كرد": 1494,
      "مخت": 1495,
      "موسی": 1496,
      "فق": 1497,
      "خرچنگ": 1498,
      "هنگام": 1499,
      "دکمه": 1500,
      "برایش": 1501,
      "دام": 1502,
      "فن": 1503,
      "تول": 1504,
      "خجال": 1505,
      "مدت": 1506,
      "دراورد": 1507,
      "وسایل": 1508,
      "جستجو": 1509,
      "بالاتر": 1510,
      "مداد": 1511,
      "برف": 1512,
      "وح": 1513,
      "چشمان": 1514,
      "عزی": 1515,
      "بلا": 1516,
      "بوده": 1517,
      "بات": 1518,
      "موسیقی": 1519,
      "وحشت": 1520,
      "نور": 1521,
      "سیاه": 1522,
      "نشون": 1523,
      "بخواند": 1524,
      "چراغ": 1525,
      "مشکلی": 1526,
      "پریدند": 1527,
      "دوند": 1528,
      "صاح": 1529,
      "حق": 1530,
      "بدجنس": 1531,
      "بردارد": 1532,
      "شنیدند": 1533,
      "واقعی": 1534,
      "حمام": 1535,
      "زنند": 1536,
      "برخورد": 1537,
      "ببین": 1538,
      "دانم": 1539,
      "ساله": 1540,
      "کیف": 1541,
      "چا": 1542,
      "بعضی": 1543,
      "خواهش": 1544,
      "فاو": 1545,
      "غلت": 1546,
      "اوی": 1547,
      "پاک": 1548,
      "جالبی": 1549,
      "دوستت": 1550,
      "بشه": 1551,
      "an": 1552,
      "وال": 1553,
      "چاق": 1554,
      "اژ": 1555,
      "برنده": 1556,
      "وم": 1557,
      "فه": 1558,
      "سان": 1559,
      "پنی": 1560,
      "بط": 1561,
      "بیاید": 1562,
      "گذروند": 1563,
      "ماد": 1564,
      "لاق": 1565,
      "برگشتن": 1566,
      "بوته": 1567,
      "اوه": 1568,
      "بخشید": 1569,
      "طی": 1570,
      "بینی": 1571,
      "حوضچه": 1572,
      "هستید": 1573,
      "برگرداند": 1574,
      "امده": 1575,
      "جیغ": 1576,
      "ایم": 1577,
      "رودخانه": 1578,
      "سین": 1579,
      "کمان": 1580,
      "نداد": 1581,
      "میان": 1582,
      "قفسه": 1583,
      "بوی": 1584,
      "انگشت": 1585,
      "بمان": 1586,
      "جر": 1587,
      "بماند": 1588,
      "اتو": 1589,
      "گذاشتن": 1590,
      "دریاچه": 1591,
      "صف": 1592,
      "بگیرند": 1593,
      "ممکن": 1594,
      "نخ": 1595,
      "ساعت": 1596,
      "ترا": 1597,
      "باهاش": 1598,
      "درختی": 1599,
      "باشم": 1600,
      "يم": 1601,
      "مردی": 1602,
      "وند": 1603,
      "وص": 1604,
      "بون": 1605,
      "تز": 1606,
      "دین": 1607,
      "نوبتی": 1608,
      "تصویر": 1609,
      "پشیم": 1610,
      "شم": 1611,
      "ریختگی": 1612,
      "لیوان": 1613,
      "شتی": 1614,
      "میمون": 1615,
      "پرسد": 1616,
      "گنج": 1617,
      "پذی": 1618,
      "مسیر": 1619,
      "اشک": 1620,
      "پدید": 1621,
      "اخت": 1622,
      "سطل": 1623,
      "رسی": 1624,
      "سوپ": 1625,
      "دهانش": 1626,
      "تور": 1627,
      "مدرسه": 1628,
      "موشک": 1629,
      "بسازد": 1630,
      "رات": 1631,
      "خوشی": 1632,
      "بامزه": 1633,
      "دفت": 1634,
      "he": 1635,
      "متفاو": 1636,
      "داغ": 1637,
      "بسته": 1638,
      "مخلو": 1639,
      "بزرگش": 1640,
      "دنیا": 1641,
      "دند": 1642,
      "مشکل": 1643,
      "راکی": 1644,
      "زمینی": 1645,
      "مخلوط": 1646,
      "والدین": 1647,
      "گیرد": 1648,
      "جوی": 1649,
      "فرنگی": 1650,
      "بوس": 1651,
      "خیاب": 1652,
      "حف": 1653,
      "سرا": 1654,
      "تخم": 1655,
      "فس": 1656,
      "جاست": 1657,
      "افی": 1658,
      "ترک": 1659,
      "معل": 1660,
      "ندیده": 1661,
      "عجیب": 1662,
      "مولی": 1663,
      "درختان": 1664,
      "صدف": 1665,
      "ar": 1666,
      "درخش": 1667,
      "دکتر": 1668,
      "عط": 1669,
      "قاشق": 1670,
      "خواندن": 1671,
      "کاو": 1672,
      "يك": 1673,
      "اعتماد": 1674,
      "وزید": 1675,
      "کمکت": 1676,
      "روم": 1677,
      "رفتار": 1678,
      "ماس": 1679,
      "گیرند": 1680,
      "روح": 1681,
      "بکشد": 1682,
      "ذوق": 1683,
      "پست": 1684,
      "فان": 1685,
      "عنک": 1686,
      "لوله": 1687,
      "تنهایی": 1688,
      "نمایش": 1689,
      "حد": 1690,
      "خرید": 1691,
      "سالم": 1692,
      "ببخشید": 1693,
      "بیل": 1694,
      "اشتباه": 1695,
      "اژد": 1696,
      "تال": 1697,
      "خوان": 1698,
      "دقی": 1699,
      "پارچه": 1700,
      "مهربون": 1701,
      "موفق": 1702,
      "لرز": 1703,
      "ظاهر": 1704,
      "خواهیم": 1705,
      "کاوش": 1706,
      "بخورند": 1707,
      "جیل": 1708,
      "خاص": 1709,
      "اور": 1710,
      "بنفش": 1711,
      "ناپدید": 1712,
      "ذرت": 1713,
      "حلقه": 1714,
      "بسیاری": 1715,
      "متعل": 1716,
      "متعلق": 1717,
      "کاس": 1718,
      "خش": 1719,
      "خطرناک": 1720,
      "رمرد": 1721,
      "پاد": 1722,
      "مشت": 1723,
      "ساختن": 1724,
      "ببینیم": 1725,
      "ناه": 1726,
      "ولا": 1727,
      "خواندند": 1728,
      "مختلف": 1729,
      "خوراکی": 1730,
      "هوی": 1731,
      "پادشاه": 1732,
      "کارت": 1733,
      "اشاره": 1734,
      "خاکست": 1735,
      "خیابان": 1736,
      "پیرمرد": 1737,
      "کمد": 1738,
      "دوق": 1739,
      "بادباد": 1740,
      "موز": 1741,
      "وعده": 1742,
      "پلی": 1743,
      "کلو": 1744,
      "دقت": 1745,
      "محبو": 1746,
      "رنگین": 1747,
      "توانسته": 1748,
      "بته": 1749,
      "هیولا": 1750,
      "قا": 1751,
      "امید": 1752,
      "غی": 1753,
      "البته": 1754,
      "اوری": 1755,
      "ماه": 1756,
      "خردمند": 1757,
      "لیمو": 1758,
      "نوشته": 1759,
      "قفل": 1760,
      "کاسه": 1761,
      "دوقلو": 1762,
      "میکرد": 1763,
      "تالاب": 1764,
      "مفت": 1765,
      "تعقی": 1766,
      "طوفان": 1767,
      "بشن": 1768,
      "رشد": 1769,
      "ندارد": 1770,
      "ران": 1771,
      "موا": 1772,
      "افتد": 1773,
      "نتوانستند": 1774,
      "خودشان": 1775,
      "عنکبوت": 1776,
      "خندیدن": 1777,
      "تعقیب": 1778,
      "شانه": 1779,
      "دانه": 1780,
      "قطع": 1781,
      "برقص": 1782,
      "هویج": 1783,
      "اهمی": 1784,
      "ازم": 1785,
      "دارید": 1786,
      "مرسی": 1787,
      "بیم": 1788,
      "بپر": 1789,
      "رسد": 1790,
      "چیک": 1791,
      "زاده": 1792,
      "تولد": 1793,
      "لاک": 1794,
      "راحی": 1795,
      "روست": 1796,
      "عزیزم": 1797,
      "چیکار": 1798,
      "انت": 1799,
      "گفته": 1800,
      "پریدن": 1801,
      "گرمی": 1802,
      "ازاد": 1803,
      "ارامی": 1804,
      "دای": 1805,
      "بطری": 1806,
      "ماندند": 1807,
      "مفتخر": 1808,
      "شاهزاده": 1809,
      "اهنگ": 1810,
      "سوت": 1811,
      "مارک": 1812,
      "ثرو": 1813,
      "دوستانشان": 1814,
      "قایم": 1815,
      "کدام": 1816,
      "يه": 1817,
      "بیه": 1818,
      "موهای": 1819,
      "نار": 1820,
      "خواستم": 1821,
      "صورتش": 1822,
      "نوش": 1823,
      "افه": 1824,
      "دزد": 1825,
      "وده": 1826,
      "نبودند": 1827,
      "تابید": 1828,
      "شویم": 1829,
      "هواپیما": 1830,
      "کون": 1831,
      "پخت": 1832,
      "نجی": 1833,
      "پنیر": 1834,
      "راهی": 1835,
      "چنگال": 1836,
      "دیر": 1837,
      "خوشحالم": 1838,
      "برسد": 1839,
      "معلم": 1840,
      "خاکستری": 1841,
      "کلوچه": 1842,
      "ثروتمند": 1843,
      "نوزاد": 1844,
      "استخر": 1845,
      "کامل": 1846,
      "تلفن": 1847,
      "طوری": 1848,
      "قو": 1849,
      "بگیری": 1850,
      "زنده": 1851,
      "عقب": 1852,
      "کشیدن": 1853,
      "داشتنی": 1854,
      "ترش": 1855,
      "خواهر": 1856,
      "خوشگل": 1857,
      "متفاوت": 1858,
      "غار": 1859,
      "بادبادک": 1860,
      "قد": 1861,
      "گردن": 1862,
      "سبد": 1863,
      "اینه": 1864,
      "امنی": 1865,
      "اورز": 1866,
      "طراحی": 1867,
      "ونی": 1868,
      "کف": 1869,
      "سواری": 1870,
      "انجامش": 1871,
      "نوان": 1872,
      "کاملا": 1873,
      "لیزا": 1874,
      "بالش": 1875,
      "زیبای": 1876,
      "کلی": 1877,
      "کوچکش": 1878,
      "کشاورز": 1879,
      "عنوان": 1880,
      "خالی": 1881,
      "دریایی": 1882,
      "جلو": 1883,
      "بادکن": 1884,
      "اتوبوس": 1885,
      "درخشانی": 1886,
      "مجب": 1887,
      "صاحب": 1888,
      "مجبور": 1889,
      "اضافه": 1890,
      "قیم": 1891,
      "کارهای": 1892,
      "تری": 1893,
      "مواظ": 1894,
      "برفی": 1895,
      "عمیق": 1896,
      "رقصیدن": 1897,
      "بخر": 1898,
      "ساختند": 1899,
      "ملایم": 1900,
      "تصاو": 1901,
      "محافظ": 1902,
      "نیستند": 1903,
      "حباب": 1904,
      "ایستاد": 1905,
      "خوبه": 1906,
      "خوک": 1907,
      "رانند": 1908,
      "جلوی": 1909,
      "مست": 1910,
      "بشقاب": 1911,
      "شدیدی": 1912,
      "صمیمی": 1913,
      "پیراه": 1914,
      "خارج": 1915,
      "شلو": 1916,
      "باغچه": 1917,
      "حفره": 1918,
      "جیک": 1919,
      "مبل": 1920,
      "مشتاق": 1921,
      "عد": 1922,
      "بازیش": 1923,
      "نفس": 1924,
      "حصار": 1925,
      "تصاویر": 1926,
      "ناراحتی": 1927,
      "سگش": 1928,
      "نارنجی": 1929,
      "سپاس": 1930,
      "فل": 1931,
      "گذرانند": 1932,
      "ساندوی": 1933,
      "شست": 1934,
      "تخته": 1935,
      "یافت": 1936,
      "فشار": 1937,
      "الود": 1938,
      "بردار": 1939,
      "خنک": 1940,
      "بپو": 1941,
      "شوی": 1942,
      "زیباست": 1943,
      "دعوت": 1944,
      "میو": 1945,
      "رقصیدند": 1946,
      "باور": 1947,
      "تکون": 1948,
      "خم": 1949,
      "گری": 1950,
      "درو": 1951,
      "جری": 1952,
      "کوچیک": 1953,
      "چم": 1954,
      "ایت": 1955,
      "ازد": 1956,
      "تلوی": 1957,
      "لغ": 1958,
      "کمکم": 1959,
      "تلویزی": 1960,
      "مواظب": 1961,
      "تشوی": 1962,
      "کردید": 1963,
      "بادکنک": 1964,
      "جوان": 1965,
      "فنج": 1966,
      "بیاورد": 1967,
      "کوتا": 1968,
      "احتی": 1969,
      "ضر": 1970,
      "برگردد": 1971,
      "کوکی": 1972,
      "زیم": 1973,
      "خي": 1974,
      "چرخید": 1975,
      "تلویزیون": 1976,
      "کشتی": 1977,
      "کلما": 1978,
      "بیمار": 1979,
      "اژدها": 1980,
      "حالش": 1981,
      "بگیرم": 1982,
      "عسل": 1983,
      "شوم": 1984,
      "وحشی": 1985,
      "غذاهای": 1986,
      "احمقانه": 1987,
      "کبو": 1988,
      "بزنند": 1989,
      "رانندگی": 1990,
      "پاره": 1991,
      "کوچولوی": 1992,
      "نمود": 1993,
      "توضی": 1994,
      "توضیح": 1995,
      "ونه": 1996,
      "جاده": 1997,
      "کافی": 1998,
      "استیک": 1999,
      "راننده": 2000,
      "خجالتی": 2001,
      "ملحق": 2002,
      "بگیریم": 2003,
      "میشه": 2004,
      "فته": 2005,
      "بابی": 2006,
      "لای": 2007,
      "نیمکت": 2008,
      "دادی": 2009,
      "منم": 2010,
      "موم": 2011,
      "صفح": 2012,
      "گذار": 2013,
      "ندید": 2014,
      "برس": 2015,
      "ساکت": 2016,
      "ببینم": 2017,
      "عرض": 2018,
      "همدیگر": 2019,
      "ابت": 2020,
      "استخوان": 2021,
      "بودم": 2022,
      "کبوتر": 2023,
      "رایی": 2024,
      "مالی": 2025,
      "امت": 2026,
      "زشت": 2027,
      "دندان": 2028,
      "پیک": 2029,
      "بذ": 2030,
      "گرگ": 2031,
      "پوست": 2032,
      "رقصید": 2033,
      "اسان": 2034,
      "خوششان": 2035,
      "جیمی": 2036,
      "مومو": 2037,
      "ليو": 2038,
      "تم": 2039,
      "منه": 2040,
      "نرد": 2041,
      "روش": 2042,
      "نداشتند": 2043,
      "اخر": 2044,
      "موق": 2045,
      "شنها": 2046,
      "کدو": 2047,
      "جاق": 2048,
      "بخوریم": 2049,
      "پشتی": 2050,
      "مض": 2051,
      "دوان": 2052,
      "ناهار": 2053,
      "پایش": 2054,
      "قبلا": 2055,
      "شمرد": 2056,
      "منو": 2057,
      "میک": 2058,
      "پدرشان": 2059,
      "دستکش": 2060,
      "شکر": 2061,
      "وله": 2062,
      "قار": 2063,
      "نکن": 2064,
      "بالو": 2065,
      "پرا": 2066,
      "پیشنها": 2067,
      "بلکه": 2068,
      "راز": 2069,
      "لیسی": 2070,
      "فض": 2071,
      "غری": 2072,
      "یخچال": 2073,
      "همانطور": 2074,
      "گرو": 2075,
      "عاشق": 2076,
      "کلمات": 2077,
      "پتو": 2078,
      "قهر": 2079,
      "ویس": 2080,
      "حشرات": 2081,
      "ملکه": 2082,
      "انگلیسی": 2083,
      "شرم": 2084,
      "چک": 2085,
      "بگیر": 2086,
      "ناامید": 2087,
      "ترسیدند": 2088,
      "صداهای": 2089,
      "تمر": 2090,
      "ادم": 2091,
      "مغرور": 2092,
      "گردد": 2093,
      "ساخته": 2094,
      "زو": 2095,
      "گزار": 2096,
      "ندارم": 2097,
      "بوق": 2098,
      "واره": 2099,
      "انچه": 2100,
      "گذشت": 2101,
      "درخواست": 2102,
      "بگذارند": 2103,
      "قدرت": 2104,
      "ارایش": 2105,
      "فردا": 2106,
      "بسازند": 2107,
      "ساندویچ": 2108,
      "اقا": 2109,
      "حالت": 2110,
      "ماسه": 2111,
      "موجود": 2112,
      "قهرمان": 2113,
      "قفس": 2114,
      "تيم": 2115,
      "خودت": 2116,
      "پیشنهاد": 2117,
      "ببند": 2118,
      "پذیرایی": 2119,
      "تختش": 2120,
      "افتخار": 2121,
      "بخورم": 2122,
      "برق": 2123,
      "نوازش": 2124,
      "تیز": 2125,
      "شوخی": 2126,
      "فنجان": 2127,
      "تمس": 2128,
      "لونا": 2129,
      "اطرافش": 2130,
      "میاد": 2131,
      "چشمانش": 2132,
      "توجه": 2133,
      "کارش": 2134,
      "موج": 2135,
      "نکردند": 2136,
      "کمر": 2137,
      "زیپ": 2138,
      "معمولی": 2139,
      "ابمیوه": 2140,
      "نوشت": 2141,
      "خط": 2142,
      "توده": 2143,
      "عبور": 2144,
      "پشیمان": 2145,
      "پوشیده": 2146,
      "بکش": 2147,
      "حوله": 2148,
      "تصور": 2149,
      "دلش": 2150,
      "شع": 2151,
      "تمساح": 2152,
      "محبوب": 2153,
      "عوض": 2154,
      "خندند": 2155,
      "صاف": 2156,
      "كه": 2157,
      "یو": 2158,
      "دستمال": 2159,
      "بپوشد": 2160,
      "فرش": 2161,
      "the": 2162,
      "شبیه": 2163,
      "ستانی": 2164,
      "رویا": 2165,
      "انگیزی": 2166,
      "قابل": 2167,
      "پخش": 2168,
      "موقع": 2169,
      "ديد": 2170,
      "پیو": 2171,
      "غذایی": 2172,
      "اهمیت": 2173,
      "بداند": 2174,
      "سفند": 2175,
      "محافظت": 2176,
      "مکع": 2177,
      "گوسفند": 2178,
      "نوار": 2179,
      "پلیس": 2180,
      "چاپ": 2181,
      "پیراهن": 2182,
      "گردند": 2183,
      "اگه": 2184,
      "هایم": 2185,
      "ازی": 2186,
      "باباش": 2187,
      "گذاشته": 2188,
      "خام": 2189,
      "حت": 2190,
      "افتادند": 2191,
      "on": 2192,
      "خودخواه": 2193,
      "روزها": 2194,
      "تمرین": 2195,
      "نترس": 2196,
      "صخره": 2197,
      "اصلا": 2198,
      "کردیم": 2199,
      "بخوره": 2200,
      "تغی": 2201,
      "فید": 2202,
      "تغییر": 2203,
      "ماست": 2204,
      "جیم": 2205,
      "راست": 2206,
      "شانس": 2207,
      "یت": 2208,
      "بول": 2209,
      "at": 2210,
      "ویل": 2211,
      "ارامش": 2212,
      "تشویق": 2213,
      "خوشبختانه": 2214,
      "همگی": 2215,
      "مودب": 2216,
      "بگوید": 2217,
      "طبل": 2218,
      "بدهی": 2219,
      "بگیره": 2220,
      "برداشتند": 2221,
      "er": 2222,
      "بزنه": 2223,
      "تابلو": 2224,
      "دایره": 2225,
      "لک": 2226,
      "ماشینش": 2227,
      "بزرگتر": 2228,
      "لگ": 2229,
      "حین": 2230,
      "دهیم": 2231,
      "بنی": 2232,
      "سرخ": 2233,
      "انو": 2234,
      "انگار": 2235,
      "بدو": 2236,
      "ابتدا": 2237,
      "فرم": 2238,
      "سن": 2239,
      "دنبالش": 2240,
      "نواخت": 2241,
      "نردبان": 2242,
      "عمل": 2243,
      "شلوار": 2244,
      "فیلم": 2245,
      "تیره": 2246,
      "لگد": 2247,
      "ادب": 2248,
      "جایزه": 2249,
      "فهمیدند": 2250,
      "ارزش": 2251,
      "بالون": 2252,
      "شناخت": 2253,
      "هستیم": 2254,
      "بازي": 2255,
      "کرز": 2256,
      "پیتز": 2257,
      "اونجا": 2258,
      "پرس": 2259,
      "ویسکرز": 2260,
      "دریافت": 2261,
      "مکعب": 2262,
      "پاز": 2263,
      "عطسه": 2264,
      "صفحه": 2265,
      "قلب": 2266,
      "نکند": 2267,
      "سرگرمی": 2268,
      "باله": 2269,
      "ربات": 2270,
      "چهره": 2271,
      "بردن": 2272,
      "مفید": 2273,
      "خیره": 2274,
      "احتیاط": 2275,
      "پیدایش": 2276,
      "ترام": 2277,
      "گران": 2278,
      "شیط": 2279,
      "بهت": 2280,
      "بخرد": 2281,
      "برم": 2282,
      "نوبت": 2283,
      "کلا": 2284,
      "اولی": 2285,
      "جوراب": 2286,
      "سبزی": 2287,
      "چای": 2288,
      "دستی": 2289,
      "اورده": 2290,
      "سوال": 2291,
      "والدینش": 2292,
      "جیبش": 2293,
      "شیند": 2294,
      "ادت": 2295,
      "پازل": 2296,
      "گود": 2297,
      "داین": 2298,
      "خواهید": 2299,
      "تنه": 2300,
      "هوش": 2301,
      "درمی": 2302,
      "خورده": 2303,
      "چنین": 2304,
      "تنگ": 2305,
      "حمل": 2306,
      "گذشته": 2307,
      "برایت": 2308,
      "اسپا": 2309,
      "بي": 2310,
      "عش": 2311,
      "فهم": 2312,
      "اندی": 2313,
      "اموختند": 2314,
      "اشکال": 2315,
      "امنیت": 2316,
      "پله": 2317,
      "نر": 2318,
      "برنامه": 2319,
      "بنشیند": 2320,
      "خص": 2321,
      "دفترچه": 2322,
      "طع": 2323,
      "يی": 2324,
      "چهار": 2325,
      "نیک": 2326,
      "ببرند": 2327,
      "اين": 2328,
      "حک": 2329,
      "خمیر": 2330,
      "بای": 2331,
      "شکلات": 2332,
      "ویش": 2333,
      "سپاسگزار": 2334,
      "ضعی": 2335,
      "غال": 2336,
      "بررسی": 2337,
      "خوابید": 2338,
      "گودال": 2339,
      "بپوش": 2340,
      "صبور": 2341,
      "احترام": 2342,
      "فرود": 2343,
      "پي": 2344,
      "کجاست": 2345,
      "ایند": 2346,
      "اسمش": 2347,
      "یادداشت": 2348,
      "سراسر": 2349,
      "بزار": 2350,
      "بکند": 2351,
      "مص": 2352,
      "کوه": 2353,
      "بخوابد": 2354,
      "خجالت": 2355,
      "توش": 2356,
      "مغز": 2357,
      "سلی": 2358,
      "هرد": 2359,
      "خاموش": 2360,
      "قدرتمند": 2361,
      "جم": 2362,
      "میتونم": 2363,
      "شدم": 2364,
      "دیگ": 2365,
      "قطعات": 2366,
      "حصر": 2367,
      "منحصر": 2368,
      "بخوری": 2369,
      "فلف": 2370,
      "بنوی": 2371,
      "چید": 2372,
      "مادربزرگش": 2373,
      "ساز": 2374,
      "یع": 2375,
      "هات": 2376,
      "سوزی": 2377,
      "برند": 2378,
      "پوزش": 2379,
      "حسادت": 2380,
      "بسا": 2381,
      "قرض": 2382,
      "مجروح": 2383,
      "دلی": 2384,
      "نهنگ": 2385,
      "گوشه": 2386,
      "بیفت": 2387,
      "متع": 2388,
      "پیام": 2389,
      "چرت": 2390,
      "دایناس": 2391,
      "تموم": 2392,
      "جدیدشان": 2393,
      "بلی": 2394,
      "غرش": 2395,
      "مفه": 2396,
      "خلاق": 2397,
      "نکرده": 2398,
      "تست": 2399,
      "بروم": 2400,
      "فشرد": 2401,
      "گوشت": 2402,
      "پسرکی": 2403,
      "مفهوم": 2404,
      "کنارش": 2405,
      "کوتاه": 2406,
      "چادر": 2407,
      "گیاهان": 2408,
      "هیچوقت": 2409,
      "صاب": 2410,
      "کوسه": 2411,
      "موض": 2412,
      "پذیر": 2413,
      "موضوع": 2414,
      "اع": 2415,
      "نیامد": 2416,
      "دهی": 2417,
      "گذروندن": 2418,
      "میخواست": 2419,
      "ببینه": 2420,
      "مهره": 2421,
      "زیرا": 2422,
      "اونو": 2423,
      "ترساند": 2424,
      "is": 2425,
      "نتونست": 2426,
      "جدا": 2427,
      "فلا": 2428,
      "يین": 2429,
      "اوم": 2430,
      "دلق": 2431,
      "امان": 2432,
      "ادل": 2433,
      "گذروندند": 2434,
      "موهایش": 2435,
      "بدهند": 2436,
      "میله": 2437,
      "الا": 2438,
      "دایناسور": 2439,
      "بدهم": 2440,
      "قرمزش": 2441,
      "برگردان": 2442,
      "ته": 2443,
      "عادی": 2444,
      "حتما": 2445,
      "پرش": 2446,
      "سور": 2447,
      "باند": 2448,
      "ساختمان": 2449,
      "پنجه": 2450,
      "بذار": 2451,
      "موتور": 2452,
      "کمربند": 2453,
      "بچ": 2454,
      "جنی": 2455,
      "ضعیف": 2456,
      "قرمزی": 2457,
      "صابون": 2458,
      "ریل": 2459,
      "گناه": 2460,
      "بلندتر": 2461,
      "جادوگر": 2462,
      "لبخندی": 2463,
      "ریخته": 2464,
      "عشق": 2465,
      "بنام": 2466,
      "هاشون": 2467,
      "قیمت": 2468,
      "همسایه": 2469,
      "شوید": 2470,
      "دلقک": 2471,
      "دوستای": 2472,
      "فرست": 2473,
      "تزيین": 2474,
      "اي": 2475,
      "قشنگه": 2476,
      "شنود": 2477,
      "پتوی": 2478,
      "زباله": 2479,
      "گلی": 2480,
      "روف": 2481,
      "اهسته": 2482,
      "پولی": 2483,
      "اسلح": 2484,
      "درخشید": 2485,
      "اسلحه": 2486,
      "گونه": 2487,
      "تاج": 2488,
      "چاله": 2489,
      "برچسب": 2490,
      "سهیم": 2491,
      "قشنگی": 2492,
      "بدهیم": 2493,
      "کلاس": 2494,
      "رای": 2495,
      "شدی": 2496,
      "دانند": 2497,
      "عروسکش": 2498,
      "پرسیدند": 2499,
      "هیول": 2500,
      "اوردند": 2501,
      "دنیای": 2502,
      "چرخاند": 2503,
      "نگاهی": 2504,
      "فلفل": 2505,
      "قیچی": 2506,
      "کلمه": 2507,
      "شجاعت": 2508,
      "تنبل": 2509,
      "جواهر": 2510,
      "سمه": 2511,
      "براورد": 2512,
      "باریدن": 2513,
      "تسلی": 2514,
      "خوابش": 2515,
      "شل": 2516,
      "دروازه": 2517,
      "رژه": 2518,
      "ردست": 2519,
      "امیدوارم": 2520,
      "دفتر": 2521,
      "ادامس": 2522,
      "گوزن": 2523,
      "بنو": 2524,
      "نوشید": 2525,
      "مجسمه": 2526,
      "رکس": 2527,
      "مری": 2528,
      "شوق": 2529,
      "معذرت": 2530,
      "گذاری": 2531,
      "ورا": 2532,
      "پناه": 2533,
      "پیداش": 2534,
      "بوسید": 2535,
      "براورده": 2536,
      "فلافی": 2537,
      "تسلیم": 2538,
      "برقصد": 2539,
      "وفا": 2540,
      "هش": 2541,
      "مقداری": 2542,
      "دوردست": 2543,
      "فروشنده": 2544,
      "اگرچه": 2545,
      "دخت": 2546,
      "برایشان": 2547,
      "حدس": 2548,
      "وو": 2549,
      "دونم": 2550,
      "روستا": 2551,
      "عمو": 2552,
      "مهمی": 2553,
      "پرتق": 2554,
      "هرچه": 2555,
      "هواپیمای": 2556,
      "گروه": 2557,
      "اویزان": 2558,
      "tr": 2559,
      "ضربه": 2560,
      "کره": 2561,
      "اجاق": 2562,
      "ظیم": 2563,
      "انگور": 2564,
      "ابزار": 2565,
      "طعم": 2566,
      "وسط": 2567,
      "ینند": 2568,
      "مریم": 2569,
      "جذ": 2570,
      "دسته": 2571,
      "شاهدخت": 2572,
      "بزن": 2573,
      "دي": 2574,
      "گردان": 2575,
      "خانگی": 2576,
      "کادو": 2577,
      "پیتزا": 2578,
      "اورند": 2579,
      "توپی": 2580,
      "بدوند": 2581,
      "پهن": 2582,
      "پرچم": 2583,
      "علامت": 2584,
      "کاغذی": 2585,
      "بلوط": 2586,
      "شمشیر": 2587,
      "متاسفانه": 2588,
      "بتوانیم": 2589,
      "کود": 2590,
      "شمع": 2591,
      "کچ": 2592,
      "توقف": 2593,
      "کلم": 2594,
      "مواد": 2595,
      "مندی": 2596,
      "تاریکی": 2597,
      "بارها": 2598,
      "اروم": 2599,
      "هشدار": 2600,
      "روسری": 2601,
      "داند": 2602,
      "کهنه": 2603,
      "شنبه": 2604,
      "as": 2605,
      "پزشک": 2606,
      "موع": 2607,
      "پاسخ": 2608,
      "چکمه": 2609,
      "شادمان": 2610,
      "کان": 2611,
      "مناسب": 2612,
      "طل": 2613,
      "مگ": 2614,
      "برگزار": 2615,
      "کلبه": 2616,
      "سرباز": 2617,
      "ودی": 2618,
      "زي": 2619,
      "جوجه": 2620,
      "بنش": 2621,
      "غافلگیر": 2622,
      "بسازیم": 2623,
      "مربا": 2624,
      "ورزش": 2625,
      "مرده": 2626,
      "گیل": 2627,
      "ندی": 2628,
      "برادرش": 2629,
      "lat": 2630,
      "گذارد": 2631,
      "تعادل": 2632,
      "جت": 2633,
      "خندد": 2634,
      "ایستاده": 2635,
      "بگذاریم": 2636,
      "کارو": 2637,
      "موعظه": 2638,
      "ظریف": 2639,
      "بمانند": 2640,
      "مهمونی": 2641,
      "خورند": 2642,
      "درسی": 2643,
      "تحسین": 2644,
      "اسمون": 2645,
      "شخص": 2646,
      "باهی": 2647,
      "پت": 2648,
      "روزهای": 2649,
      "ans": 2650,
      "ترتی": 2651,
      "ینا": 2652,
      "غاز": 2653,
      "ازدو": 2654,
      "پاشید": 2655,
      "anslat": 2656,
      "حم": 2657,
      "سختی": 2658,
      "ازدواج": 2659,
      "ere": 2660,
      "گردنبند": 2661,
      "بودی": 2662,
      "ترتیب": 2663,
      "سوخت": 2664,
      "بابایش": 2665,
      "جدی": 2666,
      "توست": 2667,
      "to": 2668,
      "بخاطر": 2669,
      "خبر": 2670,
      "متعجب": 2671,
      "کشند": 2672,
      "ارايه": 2673,
      "عین": 2674,
      "عمیقی": 2675,
      "اذ": 2676,
      "عمه": 2677,
      "دال": 2678,
      "بازار": 2679,
      "لرزیدن": 2680,
      "بعدش": 2681,
      "بداخ": 2682,
      "translat": 2683,
      "بالشت": 2684,
      "پدربزرگ": 2685,
      "خودم": 2686,
      "چطوری": 2687,
      "جستجوی": 2688,
      "تیر": 2689,
      "جنگلی": 2690,
      "تماشای": 2691,
      "جیپ": 2692,
      "بخرند": 2693,
      "جلی": 2694,
      "وید": 2695,
      "الو": 2696,
      "ممنونم": 2697,
      "پین": 2698,
      "گرما": 2699,
      "برید": 2700,
      "ion": 2701,
      "موند": 2702,
      "بزنم": 2703,
      "کشیده": 2704,
      "گذارند": 2705,
      "in": 2706,
      "ناد": 2707,
      "سرشان": 2708,
      "برخی": 2709,
      "بخور": 2710,
      "فوت": 2711,
      "یکل": 2712,
      "پوشان": 2713,
      "دوستشان": 2714,
      "کاب": 2715,
      "دستبند": 2716,
      "اوو": 2717,
      "انعط": 2718,
      "کیفش": 2719,
      "مانده": 2720,
      "پشم": 2721,
      "خاصی": 2722,
      "انعطاف": 2723,
      "داخلش": 2724,
      "هیولای": 2725,
      "گلدان": 2726,
      "ریس": 2727,
      "پیاز": 2728,
      "فلو": 2729,
      "لات": 2730,
      "وصل": 2731,
      "براش": 2732,
      "سراغ": 2733,
      "دعا": 2734,
      "روصدا": 2735,
      "کسل": 2736,
      "شکننده": 2737,
      "متاسفیم": 2738,
      "گره": 2739,
      "نادر": 2740,
      "گوجه": 2741,
      "غلتید": 2742,
      "شویی": 2743,
      "نخورد": 2744,
      "پرتقال": 2745,
      "دسترسی": 2746,
      "دقیقا": 2747,
      "خوند": 2748,
      "بخشی": 2749,
      "ماهر": 2750,
      "دلف": 2751,
      "نرمی": 2752,
      "انس": 2753,
      "ظار": 2754,
      "میتونی": 2755,
      "منظره": 2756,
      "سقف": 2757,
      "نت": 2758,
      "چس": 2759,
      "عالیه": 2760,
      "تاکسی": 2761,
      "باشگاه": 2762,
      "دلفین": 2763,
      "پشیمانی": 2764,
      "یکبار": 2765,
      "تابه": 2766,
      "درک": 2767,
      "شناور": 2768,
      "گفتن": 2769,
      "دوستا": 2770,
      "خاطرا": 2771,
      "قطعه": 2772,
      "نشده": 2773,
      "نزدیکی": 2774,
      "هردو": 2775,
      "کتی": 2776,
      "نگو": 2777,
      "یادش": 2778,
      "translation": 2779,
      "صله": 2780,
      "فاصله": 2781,
      "ببریم": 2782,
      "بفهم": 2783,
      "گند": 2784,
      "ابری": 2785,
      "ناکی": 2786,
      "بتوانند": 2787,
      "تشنه": 2788,
      "نیستم": 2789,
      "کلاهش": 2790,
      "سالاد": 2791,
      "برده": 2792,
      "خواهرش": 2793,
      "صبحانه": 2794,
      "روبان": 2795,
      "بالن": 2796,
      "وانمود": 2797,
      "وسی": 2798,
      "پزی": 2799,
      "مکانی": 2800,
      "میخ": 2801,
      "چیند": 2802,
      "خودکار": 2803,
      "ببینی": 2804,
      "مگس": 2805,
      "si": 2806,
      "مدام": 2807,
      "جزی": 2808,
      "فک": 2809,
      "انبار": 2810,
      "نگی": 2811,
      "قلاب": 2812,
      "تشک": 2813,
      "چکش": 2814,
      "دقیقه": 2815,
      "سس": 2816,
      "جزیره": 2817,
      "کیکی": 2818,
      "صحنه": 2819,
      "کلاغ": 2820,
      "ستار": 2821,
      "کرا": 2822,
      "ارزوی": 2823,
      "عدد": 2824,
      "اوست": 2825,
      "تکرار": 2826,
      "جویبار": 2827,
      "مسا": 2828,
      "بدم": 2829,
      "مارمو": 2830,
      "بیایند": 2831,
      "پاهای": 2832,
      "صاحبش": 2833,
      "انتظار": 2834,
      "جالبه": 2835,
      "توله": 2836,
      "سوزن": 2837,
      "بیندازد": 2838,
      "بشنود": 2839,
      "جات": 2840,
      "صوص": 2841,
      "سرزمین": 2842,
      "بالاخره": 2843,
      "ازمایش": 2844,
      "قبول": 2845,
      "هاي": 2846,
      "اسکو": 2847,
      "پاهایش": 2848,
      "كند": 2849,
      "طلو": 2850,
      "برداشتن": 2851,
      "مسخره": 2852,
      "طلوع": 2853,
      "اخم": 2854,
      "پيدا": 2855,
      "بیفتد": 2856,
      "مخصوص": 2857,
      "امیلی": 2858,
      "مرغابی": 2859,
      "جذاب": 2860,
      "بروکلی": 2861,
      "مثلث": 2862,
      "پلنگ": 2863,
      "زرا": 2864,
      "خیر": 2865,
      "لرزید": 2866,
      "رخت": 2867,
      "موتو": 2868,
      "بزنی": 2869,
      "گیره": 2870,
      "Here": 2871,
      "کارشان": 2872,
      "همزمان": 2873,
      "بخریم": 2874,
      "مستقل": 2875,
      "ha": 2876,
      "نبات": 2877,
      "انیم": 2878,
      "گي": 2879,
      "اشپزی": 2880,
      "تولید": 2881,
      "بزنیم": 2882,
      "ندارند": 2883,
      "عج": 2884,
      "دنباله": 2885,
      "چاقو": 2886,
      "اسیاب": 2887,
      "بداخلاق": 2888,
      "کتابخانه": 2889,
      "ایمنی": 2890,
      "عصای": 2891,
      "شرح": 2892,
      "دهید": 2893,
      "مارمولک": 2894,
      "یادگیری": 2895,
      "قصر": 2896,
      "فشان": 2897,
      "چتر": 2898,
      "شنوند": 2899,
      "شکار": 2900,
      "بتوانم": 2901,
      "اولین": 2902,
      "and": 2903,
      "اجرا": 2904,
      "مربع": 2905,
      "وفادار": 2906,
      "جلیقه": 2907,
      "ابرها": 2908,
      "شناخته": 2909,
      "بچیند": 2910,
      "پن": 2911,
      "بادام": 2912,
      "گیتار": 2913,
      "روستای": 2914,
      "بوقل": 2915,
      "عینک": 2916,
      "وران": 2917,
      "افرا": 2918,
      "بدن": 2919,
      "تقری": 2920,
      "قان": 2921,
      "الماس": 2922,
      "دریای": 2923,
      "تاسف": 2924,
      "دهان": 2925,
      "دیدم": 2926,
      "چشمک": 2927,
      "سبزیجات": 2928,
      "تمبر": 2929,
      "شدت": 2930,
      "جفت": 2931,
      "نباشد": 2932,
      "رسیده": 2933,
      "طوطی": 2934,
      "بدیم": 2935,
      "عصا": 2936,
      "زرافه": 2937,
      "شنی": 2938,
      "لابی": 2939,
      "کنجکاوی": 2940,
      "خریدند": 2941,
      "غریبه": 2942,
      "زنج": 2943,
      "دوری": 2944,
      "شنیده": 2945,
      "فواره": 2946,
      "رگی": 2947,
      "بالگرد": 2948,
      "مانند": 2949,
      "ببندد": 2950,
      "باحال": 2951,
      "دانش": 2952,
      "خلا": 2953,
      "کرگ": 2954,
      "خون": 2955,
      "ریختند": 2956,
      "لولو": 2957,
      "برداشته": 2958,
      "arsi": 2959,
      "دوستانی": 2960,
      "طبی": 2961,
      "رخ": 2962,
      "شال": 2963,
      "تقریبا": 2964,
      "برش": 2965,
      "اویز": 2966,
      "پسرک": 2967,
      "Farsi": 2968,
      "لازم": 2969,
      "پوشه": 2970,
      "ریزه": 2971,
      "نگرانی": 2972,
      "سوراخی": 2973,
      "خيلي": 2974,
      "اووکادو": 2975,
      "بگذرانند": 2976,
      "فرشته": 2977,
      "مسافر": 2978,
      "بوقلمون": 2979,
      "حقی": 2980,
      "چندتا": 2981,
      "اتشفشان": 2982,
      "لاستیک": 2983,
      "مشه": 2984,
      "جربه": 2985,
      "مای": 2986,
      "شرکت": 2987,
      "گندم": 2988,
      "مرک": 2989,
      "کاکا": 2990,
      "بروی": 2991,
      "بگذارید": 2992,
      "منقار": 2993,
      "برنگ": 2994,
      "خيلی": 2995,
      "کرگدن": 2996,
      "دانی": 2997,
      "دردسر": 2998,
      "راضی": 2999,
      "اینی": 3000,
      "گیج": 3001,
      "لیسید": 3002,
      "ماکارو": 3003,
      "چرخد": 3004,
      "یوگ": 3005,
      "کچل": 3006,
      "ماکارونی": 3007,
      "قر": 3008,
      "بگیرید": 3009,
      "اذیت": 3010,
      "بایست": 3011,
      "اک": 3012,
      "حفر": 3013,
      "گتی": 3014,
      "کراو": 3015,
      "خرا": 3016,
      "اشتباهی": 3017,
      "پرده": 3018,
      "غرید": 3019,
      "کاکاي": 3020,
      "مانه": 3021,
      "اسپاگتی": 3022,
      "اتاقشان": 3023,
      "تلخ": 3024,
      "یعنی": 3025,
      "بپرند": 3026,
      "عاد": 3027,
      "اقی": 3028,
      "کودک": 3029,
      "زنجیر": 3030,
      "كو": 3031,
      "ریسمان": 3032,
      "جون": 3033,
      "سیاره": 3034,
      "كردند": 3035,
      "بپ": 3036,
      "بیس": 3037,
      "نیستی": 3038,
      "گیلاس": 3039,
      "پنگو": 3040,
      "استیکی": 3041,
      "تونل": 3042,
      "انتهای": 3043,
      "بمو": 3044,
      "انوا": 3045,
      "لوبیا": 3046,
      "مختل": 3047,
      "نترسید": 3048,
      "جواه": 3049,
      "مالید": 3050,
      "بپی": 3051,
      "قارچ": 3052,
      "بیش": 3053,
      "خیل": 3054,
      "بستند": 3055,
      "صی": 3056,
      "براون": 3057,
      "جمجمه": 3058,
      "عجله": 3059,
      "تروم": 3060,
      "لج": 3061,
      "تاینی": 3062,
      "اقیانو": 3063,
      "روزنامه": 3064,
      "پختن": 3065,
      "انواع": 3066,
      "پیچید": 3067,
      "حقیقت": 3068,
      "تي": 3069,
      "زر": 3070,
      "مسی": 3071,
      "گلابی": 3072,
      "درامد": 3073,
      "تابی": 3074,
      "برنداشت": 3075,
      "حرک": 3076,
      "اله": 3077,
      "نوعی": 3078,
      "فقی": 3079,
      "فضای": 3080,
      "دلیل": 3081,
      "فوتبال": 3082,
      "ضبط": 3083,
      "نشدند": 3084,
      "بغلش": 3085,
      "نقط": 3086,
      "نقطه": 3087,
      "قوه": 3088,
      "لر": 3089,
      "برت": 3090,
      "ارزان": 3091,
      "اموخته": 3092,
      "اقیانوس": 3093,
      "تونن": 3094,
      "ایستگاه": 3095,
      "فند": 3096,
      "رقاب": 3097,
      "هفته": 3098,
      "میکنه": 3099,
      "مختلفی": 3100,
      "تینا": 3101,
      "پاندا": 3102,
      "الیس": 3103,
      "بارید": 3104,
      "چرخیدن": 3105,
      "خواد": 3106,
      "پنگوين": 3107,
      "برنج": 3108,
      "رسیدن": 3109,
      "گویی": 3110,
      "باهات": 3111,
      "زیتون": 3112,
      "بشکه": 3113,
      "کنده": 3114,
      "ریشه": 3115,
      "ندیدند": 3116,
      "فردی": 3117,
      "لق": 3118,
      "ناشن": 3119,
      "تعطی": 3120,
      "پاپی": 3121,
      "سک": 3122,
      "ینی": 3123,
      "خور": 3124,
      "توبی": 3125,
      "بعدی": 3126,
      "موافق": 3127,
      "صدایش": 3128,
      "اتی": 3129,
      "دوقلوهایی": 3130,
      "مهار": 3131,
      "پیتر": 3132,
      "شیطن": 3133,
      "عادلانه": 3134,
      "اسد": 3135,
      "کارها": 3136,
      "همکاری": 3137,
      "برات": 3138,
      "اصلی": 3139,
      "درحالی": 3140,
      "نشانه": 3141,
      "اشپزخونه": 3142,
      "سینی": 3143,
      "اهی": 3144,
      "پادا": 3145,
      "وزن": 3146,
      "خوابیدن": 3147,
      "بکنیم": 3148,
      "الت": 3149,
      "سوی": 3150,
      "مدرن": 3151,
      "متواض": 3152,
      "افتابگردان": 3153,
      "صد": 3154,
      "انداختند": 3155,
      "داستانی": 3156,
      "صه": 3157,
      "مکث": 3158,
      "خواستن": 3159,
      "دارن": 3160,
      "گمشده": 3161,
      "پرداخت": 3162,
      "خیز": 3163,
      "بفهمد": 3164,
      "بازیگوش": 3165,
      "کبری": 3166,
      "سبک": 3167,
      "نادیده": 3168,
      "کراوات": 3169,
      "بخواب": 3170,
      "مشاه": 3171,
      "قدیم": 3172,
      "فلوت": 3173,
      "وگر": 3174,
      "منظ": 3175,
      "انگشتش": 3176,
      "شعله": 3177,
      "پیوست": 3178,
      "کردنش": 3179,
      "زانو": 3180,
      "چي": 3181,
      "خوری": 3182,
      "دارو": 3183,
      "مشاهده": 3184,
      "زوم": 3185,
      "نکنید": 3186,
      "ترسو": 3187,
      "ماسک": 3188,
      "دمی": 3189,
      "هلو": 3190,
      "خوشحالند": 3191,
      "دوربین": 3192,
      "چوبدستی": 3193,
      "هایمان": 3194,
      "شیطنت": 3195,
      "جاب": 3196,
      "گارا": 3197,
      "تف": 3198,
      "نیفت": 3199,
      "بدبو": 3200,
      "بلافاصله": 3201,
      "یوگا": 3202,
      "گاراژ": 3203,
      "زنی": 3204,
      "شیطان": 3205,
      "گار": 3206,
      "نشانی": 3207,
      "كوچ": 3208,
      "خشن": 3209,
      "پرستار": 3210,
      "باقی": 3211,
      "جرقه": 3212,
      "پرسروصدا": 3213,
      "بنویسد": 3214,
      "خمی": 3215,
      "رختخواب": 3216,
      "تجربه": 3217,
      "شادمانه": 3218,
      "پیت": 3219,
      "وسیله": 3220,
      "هتل": 3221,
      "مسن": 3222,
      "بگذراند": 3223,
      "وصله": 3224,
      "اسانسور": 3225,
      "ینه": 3226,
      "احم": 3227,
      "سنگی": 3228,
      "پاکت": 3229,
      "دیوانه": 3230,
      "شمردن": 3231,
      "حوصله": 3232,
      "رساند": 3233,
      "مهارت": 3234,
      "وگرنه": 3235,
      "بذر": 3236,
      "بوسه": 3237,
      "انم": 3238,
      "بهشون": 3239,
      "ناشناخته": 3240,
      "تنقل": 3241,
      "پاپ": 3242,
      "قصد": 3243,
      "فراوان": 3244,
      "صاد": 3245,
      "رادیو": 3246,
      "نیازی": 3247,
      "امتحانش": 3248,
      "وس": 3249,
      "میکنم": 3250,
      "پیانو": 3251,
      "تفری": 3252,
      "شور": 3253,
      "دفن": 3254,
      "چگونه": 3255,
      "بیمارستان": 3256,
      "یکلت": 3257,
      "کبریت": 3258,
      "تظاهر": 3259,
      "بارون": 3260,
      "ازمون": 3261,
      "مرموز": 3262,
      "کاک": 3263,
      "زودتر": 3264,
      "لجباز": 3265,
      "خرگوشی": 3266,
      "لباسش": 3267,
      "رسند": 3268,
      "نمک": 3269,
      "موتورس": 3270,
      "دما": 3271,
      "زیدن": 3272,
      "نفر": 3273,
      "بازگشت": 3274,
      "پشه": 3275,
      "کامپیو": 3276,
      "خاطرات": 3277,
      "مضطر": 3278,
      "همون": 3279,
      "کاکتو": 3280,
      "میومد": 3281,
      "مشهور": 3282,
      "زین": 3283,
      "پوشیدند": 3284,
      "فقیر": 3285,
      "سوسک": 3286,
      "داشتم": 3287,
      "سرزمینی": 3288,
      "خوبیه": 3289,
      "ببرم": 3290,
      "ارایشگر": 3291,
      "خنداند": 3292,
      "سپری": 3293,
      "بزودی": 3294,
      "بپره": 3295,
      "ماجراجو": 3296,
      "برساند": 3297,
      "محتا": 3298,
      "سازند": 3299,
      "برگردند": 3300,
      "رعد": 3301,
      "قلم": 3302,
      "ابرهای": 3303,
      "کاکتوس": 3304,
      "سمی": 3305,
      "گفتم": 3306,
      "شهرک": 3307,
      "اتوم": 3308,
      "بپیوند": 3309,
      "va": 3310,
      "سرگی": 3311,
      "سرگیجه": 3312,
      "اموا": 3313,
      "ظرفشویی": 3314,
      "پال": 3315,
      "زانویش": 3316,
      "محتاط": 3317,
      "پود": 3318,
      "خیم": 3319,
      "یاداوری": 3320,
      "نشود": 3321,
      "ed": 3322,
      "اسکل": 3323,
      "ریا": 3324,
      "معبد": 3325,
      "گردو": 3326,
      "موزه": 3327,
      "مطال": 3328,
      "خرو": 3329,
      "ناز": 3330,
      "کور": 3331,
      "بحث": 3332,
      "زغال": 3333,
      "ماجراهای": 3334,
      "اسبی": 3335,
      "چوبی": 3336,
      "تنقلات": 3337,
      "ژی": 3338,
      "بیاد": 3339,
      "بخوانند": 3340,
      "سنجاق": 3341,
      "گچ": 3342,
      "بخشنده": 3343,
      "خلاصه": 3344,
      "مضطرب": 3345,
      "زنبورها": 3346,
      "متحد": 3347,
      "اصرار": 3348,
      "منقارش": 3349,
      "سپر": 3350,
      "نس": 3351,
      "سرما": 3352,
      "موفقی": 3353,
      "اتومبیل": 3354,
      "وایی": 3355,
      "چاه": 3356,
      "بلندش": 3357,
      "یار": 3358,
      "انشان": 3359,
      "امبول": 3360,
      "شوکه": 3361,
      "تله": 3362,
      "چکار": 3363,
      "زیباترین": 3364,
      "بدهید": 3365,
      "شرمنده": 3366,
      "پاداش": 3367,
      "نیزه": 3368,
      "امواج": 3369,
      "خواستیم": 3370,
      "ترومپت": 3371,
      "خلب": 3372,
      "اهنر": 3373,
      "مور": 3374,
      "تحویل": 3375,
      "سردش": 3376,
      "کنون": 3377,
      "گلف": 3378,
      "لبه": 3379,
      "شادمانی": 3380,
      "راند": 3381,
      "ترسم": 3382,
      "رست": 3383,
      "صادق": 3384,
      "بزرگه": 3385,
      "باهوشی": 3386,
      "جواهرات": 3387,
      "ضخیم": 3388,
      "روغ": 3389,
      "اهن": 3390,
      "بشم": 3391,
      "بابای": 3392,
      "مجله": 3393,
      "جاز": 3394,
      "میلی": 3395,
      "برنگشت": 3396,
      "بزه": 3397,
      "ریزی": 3398,
      "متشکر": 3399,
      "پراکنده": 3400,
      "نیز": 3401,
      "همینطور": 3402,
      "جل": 3403,
      "خب": 3404,
      "داکی": 3405,
      "خربزه": 3406,
      "سوزان": 3407,
      "محبت": 3408,
      "پشمک": 3409,
      "متواضع": 3410,
      "تخیل": 3411,
      "صرف": 3412,
      "نظ": 3413,
      "چار": 3414,
      "معن": 3415,
      "چمدان": 3416,
      "امبولانس": 3417,
      "am": 3418,
      "اکنون": 3419,
      "شا": 3420,
      "شلنگ": 3421,
      "سوز": 3422,
      "برپا": 3423,
      "نوکش": 3424,
      "باغش": 3425,
      "هایتان": 3426,
      "فرمان": 3427,
      "اعداد": 3428,
      "نوشیدنی": 3429,
      "اهمیتی": 3430,
      "شلی": 3431,
      "عظیم": 3432,
      "بازو": 3433,
      "نوک": 3434,
      "نکنند": 3435,
      "تاث": 3436,
      "نیرو": 3437,
      "جارو": 3438,
      "بلور": 3439,
      "افراد": 3440,
      "چیزای": 3441,
      "هوشمند": 3442,
      "بتونه": 3443,
      "مودار": 3444,
      "اردو": 3445,
      "قابلمه": 3446,
      "پودر": 3447,
      "بخیر": 3448,
      "فره": 3449,
      "زیباتر": 3450,
      "موتورسیکلت": 3451,
      "بابت": 3452,
      "جاش": 3453,
      "افتادن": 3454,
      "دامپزشک": 3455,
      "طلا": 3456,
      "باستانی": 3457,
      "خوشایند": 3458,
      "بسی": 3459,
      "تبر": 3460,
      "سردرگ": 3461,
      "برسند": 3462,
      "رمان": 3463,
      "طرنج": 3464,
      "عبرت": 3465,
      "سینک": 3466,
      "دامن": 3467,
      "شعر": 3468,
      "چیدن": 3469,
      "سایر": 3470,
      "حرکات": 3471,
      "گز": 3472,
      "کارتون": 3473,
      "لنگر": 3474,
      "محل": 3475,
      "تعطیلات": 3476,
      "کامپیوتر": 3477,
      "بردی": 3478,
      "شکارچی": 3479,
      "کیل": 3480,
      "کوتاهی": 3481,
      "ریاضی": 3482,
      "کابی": 3483,
      "خوابیدند": 3484,
      "خارش": 3485,
      "تفریح": 3486,
      "شطرنج": 3487,
      "هوای": 3488,
      "استع": 3489,
      "بنده": 3490,
      "ترو": 3491,
      "دوستانت": 3492,
      "دودکش": 3493,
      "متفاوتی": 3494,
      "فاسد": 3495,
      "رنگش": 3496,
      "دانستم": 3497,
      "بینم": 3498,
      "الیه": 3499,
      "جانی": 3500,
      "نشستن": 3501,
      "دقیق": 3502,
      "اسکوتر": 3503,
      "کیم": 3504,
      "بشیم": 3505,
      "لغزید": 3506,
      "میکسر": 3507,
      "قرص": 3508,
      "خلبان": 3509,
      "دوستم": 3510,
      "اشکالی": 3511,
      "محبوبش": 3512,
      "بگرد": 3513,
      "هورا": 3514,
      "توسط": 3515,
      "ببری": 3516,
      "دروغ": 3517,
      "شوالیه": 3518,
      "اسپایک": 3519,
      "چایی": 3520,
      "نگهبان": 3521,
      "ببینید": 3522,
      "پوشاند": 3523,
      "نقاش": 3524,
      "بخواهد": 3525,
      "غذایش": 3526,
      "تکیه": 3527,
      "مطالعه": 3528,
      "بگردد": 3529,
      "بچرخد": 3530,
      "نخواهد": 3531,
      "متنفر": 3532,
      "لیزر": 3533,
      "غریب": 3534,
      "sh": 3535,
      "شیرجه": 3536,
      "be": 3537,
      "کتابی": 3538,
      "طبیعت": 3539,
      "اپرا": 3540,
      "وری": 3541,
      "امتی": 3542,
      "چیر": 3543,
      "کارخانه": 3544,
      "اخرین": 3545,
      "ویم": 3546,
      "شکایت": 3547,
      "نوع": 3548,
      "نع": 3549,
      "دلتنگ": 3550,
      "ببره": 3551,
      "قایقش": 3552,
      "پوشیدن": 3553,
      "ابنبات": 3554,
      "اسیبی": 3555,
      "چیرپی": 3556,
      "قرا": 3557,
      "میکردند": 3558,
      "گرمش": 3559,
      "مجمو": 3560,
      "کابینت": 3561,
      "اهو": 3562,
      "مضحک": 3563,
      "بک": 3564,
      "ترسناکی": 3565,
      "بدجنسی": 3566,
      "دوستتان": 3567,
      "نسبت": 3568,
      "لول": 3569,
      "بازوی": 3570,
      "شکمش": 3571,
      "مجموعه": 3572,
      "بیاورند": 3573,
      "قوطی": 3574,
      "روغن": 3575,
      "بکشند": 3576,
      "جابجا": 3577,
      "لجن": 3578,
      "داگی": 3579,
      "مخرو": 3580,
      "ليلي": 3581,
      "خوشم": 3582,
      "کوپ": 3583,
      "قلبی": 3584,
      "اسکلت": 3585,
      "سمور": 3586,
      "لز": 3587,
      "کاشت": 3588,
      "میزی": 3589,
      "کاکايو": 3590,
      "تویی": 3591,
      "بیایی": 3592,
      "راهش": 3593,
      "نواختن": 3594,
      "راکت": 3595,
      "پریده": 3596,
      "ظهر": 3597,
      "ستگی": 3598,
      "بروید": 3599,
      "کمتر": 3600,
      "مصنوعی": 3601,
      "اتفاقات": 3602,
      "شمار": 3603,
      "بام": 3604,
      "لیه": 3605,
      "دستگیره": 3606,
      "ou": 3607,
      "زمز": 3608,
      "دادم": 3609,
      "درستش": 3610,
      "موفقیت": 3611,
      "زمزمه": 3612,
      "دره": 3613,
      "گروهی": 3614,
      "پشتش": 3615,
      "رویای": 3616,
      "حمایت": 3617,
      "انورد": 3618,
      "باشن": 3619,
      "بندر": 3620,
      "تانک": 3621,
      "تيا": 3622,
      "اث": 3623,
      "نگفت": 3624,
      "بازیچه": 3625,
      "کوله": 3626,
      "مشکی": 3627,
      "ba": 3628,
      "مبار": 3629,
      "وافل": 3630,
      "گذرانی": 3631,
      "تحت": 3632,
      "تصویری": 3633,
      "تولدش": 3634,
      "ندگی": 3635,
      "میزد": 3636,
      "اینقدر": 3637,
      "خرگوشه": 3638,
      "صل": 3639,
      "هدای": 3640,
      "باتری": 3641,
      "زنه": 3642,
      "نوی": 3643,
      "ستون": 3644,
      "ویول": 3645,
      "جوک": 3646,
      "مسافرت": 3647,
      "شلیک": 3648,
      "or": 3649,
      "ابه": 3650,
      "بشی": 3651,
      "رق": 3652,
      "ارت": 3653,
      "برکه": 3654,
      "زیبایش": 3655,
      "بریزد": 3656,
      "اژدهای": 3657,
      "مستبد": 3658,
      "قوان": 3659,
      "مى": 3660,
      "پسرها": 3661,
      "نقره": 3662,
      "رستوران": 3663,
      "تدی": 3664,
      "بدبخت": 3665,
      "مهربانانه": 3666,
      "گردش": 3667,
      "موردعلاقه": 3668,
      "يدند": 3669,
      "تیغ": 3670,
      "زندان": 3671,
      "خودمان": 3672,
      "کاج": 3673,
      "نباشید": 3674,
      "ساده": 3675,
      "ینم": 3676,
      "تونسته": 3677,
      "اغلب": 3678,
      "اضافی": 3679,
      "هشت": 3680,
      "نگذ": 3681,
      "امیدوارند": 3682,
      "بینکی": 3683,
      "حفظ": 3684,
      "تياتر": 3685,
      "خندان": 3686,
      "گشتن": 3687,
      "کاخ": 3688,
      "هاکی": 3689,
      "دالی": 3690,
      "کوزه": 3691,
      "چسباند": 3692,
      "رنگارنگی": 3693,
      "تاثیر": 3694,
      "شانسی": 3695,
      "بمانی": 3696,
      "میگو": 3697,
      "بزرگترین": 3698,
      "درستی": 3699,
      "کثی": 3700,
      "یافتن": 3701,
      "ير": 3702,
      "ایگ": 3703,
      "طرح": 3704,
      "بکنند": 3705,
      "کرفس": 3706,
      "قوانین": 3707,
      "جیب": 3708,
      "پونی": 3709,
      "ضرر": 3710,
      "باورش": 3711,
      "سنجا": 3712,
      "دخترش": 3713,
      "درخشش": 3714,
      "پارکی": 3715,
      "کنارشان": 3716,
      "فلزی": 3717,
      "مدال": 3718,
      "نیش": 3719,
      "زنش": 3720,
      "انر": 3721,
      "نگری": 3722,
      "وسایلش": 3723,
      "خستگی": 3724,
      "امیز": 3725,
      "مرکز": 3726,
      "هرجا": 3727,
      "برگردیم": 3728,
      "بتوانی": 3729,
      "امدن": 3730,
      "اوردن": 3731,
      "رقابتی": 3732,
      "چیدند": 3733,
      "برن": 3734,
      "افش": 3735,
      "جهید": 3736,
      "چرخیدند": 3737,
      "بگذاری": 3738,
      "مناسبی": 3739,
      "قاضی": 3740,
      "نیرومند": 3741,
      "ممکنه": 3742,
      "انرژی": 3743,
      "ديگر": 3744,
      "خراش": 3745,
      "مینه": 3746,
      "ایوان": 3747,
      "شکم": 3748,
      "یون": 3749,
      "اورم": 3750,
      "ابگیر": 3751,
      "شومینه": 3752,
      "چندان": 3753,
      "صلی": 3754,
      "نشنید": 3755,
      "یك": 3756,
      "چیزا": 3757,
      "ad": 3758,
      "سفار": 3759,
      "گن": 3760,
      "براي": 3761,
      "بایستد": 3762,
      "سفارش": 3763,
      "تاری": 3764,
      "اجر": 3765,
      "میکروس": 3766,
      "پیروی": 3767,
      "جویدن": 3768,
      "کانگو": 3769,
      "تفنگ": 3770,
      "id": 3771,
      "شف": 3772,
      "کاش": 3773,
      "دوس": 3774,
      "اهنربا": 3775,
      "وحشتناک": 3776,
      "بنوازد": 3777,
      "دسر": 3778,
      "فرودگاه": 3779,
      "فضا": 3780,
      "انداز": 3781,
      "بازیم": 3782,
      "برداری": 3783,
      "گوریل": 3784,
      "ترسد": 3785,
      "روید": 3786,
      "بازش": 3787,
      "کتابش": 3788,
      "اضط": 3789,
      "بشکند": 3790,
      "سي": 3791,
      "میگه": 3792,
      "بونی": 3793,
      "وکیل": 3794,
      "هاست": 3795,
      "پیری": 3796,
      "بخار": 3797,
      "قانون": 3798,
      "حیر": 3799,
      "پاست": 3800,
      "نداره": 3801,
      "یکس": 3802,
      "مافین": 3803,
      "جوهر": 3804,
      "عزیز": 3805,
      "دوخت": 3806,
      "توانایی": 3807,
      "پیپین": 3808,
      "وب": 3809,
      "روبرو": 3810,
      "مایک": 3811,
      "نشینند": 3812,
      "بادبان": 3813,
      "بنوشد": 3814,
      "انجاست": 3815,
      "روانی": 3816,
      "اسپید": 3817,
      "مقاو": 3818,
      "بسکت": 3819,
      "دیوارها": 3820,
      "بفرست": 3821,
      "سنگری": 3822,
      "سرسبز": 3823,
      "ماجرای": 3824,
      "نوشتن": 3825,
      "استعداد": 3826,
      "سنگریزه": 3827,
      "بینه": 3828,
      "اتاقی": 3829,
      "گیرم": 3830,
      "خرطو": 3831,
      "نگهداری": 3832,
      "نری": 3833,
      "سیگاری": 3834,
      "رمر": 3835,
      "طلایی": 3836,
      "نکنی": 3837,
      "وفل": 3838,
      "کارل": 3839,
      "خودتان": 3840,
      "فریزر": 3841,
      "oo": 3842,
      "جاهای": 3843,
      "پذیرفت": 3844,
      "هری": 3845,
      "دوشون": 3846,
      "مطیع": 3847,
      "اینها": 3848,
      "تونید": 3849,
      "دوقلوها": 3850,
      "گردنش": 3851,
      "مقاومت": 3852,
      "دوتا": 3853,
      "سوسی": 3854,
      "شنیدن": 3855,
      "خن": 3856,
      "سامی": 3857,
      "مك": 3858,
      "یقه": 3859,
      "دستانش": 3860,
      "بندی": 3861,
      "تقویم": 3862,
      "کشو": 3863,
      "بخشد": 3864,
      "خزید": 3865,
      "شش": 3866,
      "ماری": 3867,
      "پافش": 3868,
      "دیدی": 3869,
      "دونستن": 3870,
      "هوشیار": 3871,
      "بلیت": 3872,
      "تد": 3873,
      "مقدار": 3874,
      "پلیور": 3875,
      "پنکه": 3876,
      "بیسبال": 3877,
      "سلول": 3878,
      "اشتی": 3879,
      "دوستانم": 3880,
      "هستن": 3881,
      "عصبانیت": 3882,
      "روشنی": 3883,
      "سردرگم": 3884,
      "اسپیدی": 3885,
      "گرداند": 3886,
      "کابل": 3887,
      "حاض": 3888,
      "لیزی": 3889,
      "نابود": 3890,
      "پدال": 3891,
      "شدیم": 3892,
      "کیت": 3893,
      "تعداد": 3894,
      "پستی": 3895,
      "شستن": 3896,
      "بشود": 3897,
      "شیک": 3898,
      "روزگار": 3899,
      "ترسی": 3900,
      "خوابیده": 3901,
      "متشکریم": 3902,
      "ماندن": 3903,
      "بمونه": 3904,
      "شمارد": 3905,
      "گردباد": 3906,
      "شیطون": 3907,
      "نخور": 3908,
      "غلات": 3909,
      "فروخت": 3910,
      "رع": 3911,
      "اصطبل": 3912,
      "شماره": 3913,
      "زومی": 3914,
      "مصمم": 3915,
      "شکو": 3916,
      "موی": 3917,
      "مشکلات": 3918,
      "کلیسا": 3919,
      "بگذر": 3920,
      "تابلوی": 3921,
      "بخشم": 3922,
      "شامپو": 3923,
      "طلسم": 3924,
      "صدمه": 3925,
      "معدن": 3926,
      "تنبیه": 3927,
      "نقلیه": 3928,
      "جور": 3929,
      "سفری": 3930,
      "وار": 3931,
      "گون": 3932,
      "مادرانشان": 3933,
      "غذاها": 3934,
      "بدنش": 3935,
      "رفی": 3936,
      "مرطو": 3937,
      "فرستاد": 3938,
      "عطر": 3939,
      "ني": 3940,
      "انسان": 3941,
      "کندن": 3942,
      "گذرانده": 3943,
      "فکری": 3944,
      "علی": 3945,
      "مهمه": 3946,
      "جایش": 3947,
      "مزاحم": 3948,
      "لغزنده": 3949,
      "پیکر": 3950,
      "معنای": 3951,
      "برابر": 3952,
      "تختخواب": 3953,
      "لوسیون": 3954,
      "نگهش": 3955,
      "اومده": 3956,
      "ویدیو": 3957,
      "نگاهش": 3958,
      "شیروانی": 3959,
      "زانوی": 3960,
      "جشنواره": 3961,
      "احتیاج": 3962,
      "ملو": 3963,
      "واح": 3964,
      "بمانیم": 3965,
      "om": 3966,
      "ناشی": 3967,
      "سنجابی": 3968,
      "مدا": 3969,
      "فرص": 3970,
      "حکمت": 3971,
      "صلیب": 3972,
      "خدان": 3973,
      "عصبی": 3974,
      "نوشیدن": 3975,
      "خدانگه": 3976,
      "دریانورد": 3977,
      "چمنزار": 3978,
      "ویولن": 3979,
      "خدانگهدار": 3980,
      "il": 3981,
      "ینیم": 3982,
      "حاضر": 3983,
      "میشد": 3984,
      "مامانم": 3985,
      "فرض": 3986,
      "عزیزان": 3987,
      "بردارند": 3988,
      "en": 3989,
      "پیچی": 3990,
      "عیت": 3991,
      "برداریم": 3992,
      "فرهنگ": 3993,
      "چپ": 3994,
      "لاغر": 3995,
      "مترو": 3996,
      "شراب": 3997,
      "یذ": 3998,
      "بزرگسال": 3999,
      "تیزی": 4000,
      "هرکدام": 4001,
      "مهربونی": 4002,
      "اندازد": 4003,
      "ببرید": 4004,
      "دراوردند": 4005,
      "فندق": 4006,
      "تماس": 4007,
      "بنوش": 4008,
      "گریس": 4009,
      "میخوام": 4010,
      "بهار": 4011,
      "اتاقت": 4012,
      "پیرزن": 4013,
      "اژیر": 4014,
      "مخروط": 4015,
      "یمن": 4016,
      "صداهایی": 4017,
      "پاکی": 4018,
      "ترازو": 4019,
      "پخته": 4020,
      "بپزد": 4021,
      "ماسا": 4022,
      "کوبید": 4023,
      "زبرا": 4024,
      "یخی": 4025,
      "ye": 4026,
      "بگو": 4027,
      "غلی": 4028,
      "توپم": 4029,
      "ازمایشگاه": 4030,
      "شغل": 4031,
      "کایا": 4032,
      "میخوای": 4033,
      "پرهای": 4034,
      "لذیذ": 4035,
      "میکروسکوپ": 4036,
      "بهبود": 4037,
      "بخونه": 4038,
      "نازک": 4039,
      "کورن": 4040,
      "واحه": 4041,
      "پندی": 4042,
      "نرمش": 4043,
      "لولا": 4044,
      "ard": 4045,
      "مرطوب": 4046,
      "بترساند": 4047,
      "نزن": 4048,
      "کوکو": 4049,
      "مسي": 4050,
      "اموزش": 4051,
      "حموم": 4052,
      "پاشی": 4053,
      "گردم": 4054,
      "تهیه": 4055,
      "رشته": 4056,
      "شترمر": 4057,
      "خرم": 4058,
      "میدم": 4059,
      "میتونیم": 4060,
      "اینجاست": 4061,
      "کسانی": 4062,
      "معنی": 4063,
      "شادتر": 4064,
      "طوره": 4065,
      "شرمندگی": 4066,
      "بارانی": 4067,
      "دز": 4068,
      "ماهیگیر": 4069,
      "برگردوند": 4070,
      "‫یک": 4071,
      "دوه": 4072,
      "سرزنده": 4073,
      "بسازم": 4074,
      "بپرم": 4075,
      "اساس": 4076,
      "زخمی": 4077,
      "نداری": 4078,
      "اومدن": 4079,
      "کثیفی": 4080,
      "ارم": 4081,
      "سمتش": 4082,
      "بازویش": 4083,
      "کاپ": 4084,
      "نیفتاد": 4085,
      "یونجه": 4086,
      "میل": 4087,
      "امه": 4088,
      "خواسته": 4089,
      "بشوی": 4090,
      "حسود": 4091,
      "ماساژ": 4092,
      "سازی": 4093,
      "معما": 4094,
      "زیرسیگاری": 4095,
      "غیرم": 4096,
      "ملای": 4097,
      "ميا": 4098,
      "چيز": 4099,
      "kh": 4100,
      "بفرو": 4101,
      "روي": 4102,
      "ازند": 4103,
      "اینطوری": 4104,
      "بدزد": 4105,
      "شماست": 4106,
      "جوری": 4107,
      "ایستادند": 4108,
      "ملوان": 4109,
      "وازه": 4110,
      "خوانند": 4111,
      "ریز": 4112,
      "بنزین": 4113,
      "فروتن": 4114,
      "پوستش": 4115,
      "بخورید": 4116,
      "قراره": 4117,
      "تاریخ": 4118,
      "مدادر": 4119,
      "قامت": 4120,
      "گلوله": 4121,
      "میکنی": 4122,
      "بریدن": 4123,
      "منظم": 4124,
      "بیاره": 4125,
      "داشتیم": 4126,
      "برگشته": 4127,
      "دانشگاه": 4128,
      "بسکتبال": 4129,
      "بدانند": 4130,
      "هو": 4131,
      "مامور": 4132,
      "والدینشان": 4133,
      "کانگورو": 4134,
      "ازار": 4135,
      "اونم": 4136,
      "عزیزانم": 4137,
      "اطاعت": 4138,
      "شجاعی": 4139,
      "پلاستیکی": 4140,
      "ورزشگاه": 4141,
      "سوسیس": 4142,
      "خد": 4143,
      "لام": 4144,
      "توپت": 4145,
      "خرسی": 4146,
      "دزدان": 4147,
      "بکشیم": 4148,
      "جلسه": 4149,
      "نعنا": 4150,
      "بگردند": 4151,
      "لغت": 4152,
      "میتونه": 4153,
      "تعظیم": 4154,
      "بيرون": 4155,
      "شترمرغ": 4156,
      "وظ": 4157,
      "ریق": 4158,
      "بخوانیم": 4159,
      "سریعا": 4160,
      "نمای": 4161,
      "مکانیک": 4162,
      "پاشیدند": 4163,
      "سخ": 4164,
      "پرین": 4165,
      "واژ": 4166,
      "چشید": 4167,
      "پاشیدن": 4168,
      "گرفتم": 4169,
      "بیایم": 4170,
      "نرو": 4171,
      "مخال": 4172,
      "موجودات": 4173,
      "روبی": 4174,
      "تويه": 4175,
      "داشتی": 4176,
      "اینو": 4177,
      "تلف": 4178,
      "نداریم": 4179,
      "دماسنج": 4180,
      "پاکیزه": 4181,
      "کلاهی": 4182,
      "دادید": 4183,
      "دوم": 4184,
      "پرونده": 4185,
      "گردی": 4186,
      "مدادرنگی": 4187,
      "چطوره": 4188,
      "توالت": 4189,
      "جوید": 4190,
      "لنگ": 4191,
      "ومد": 4192,
      "نمي": 4193,
      "غلتاند": 4194,
      "رعایت": 4195,
      "تیک": 4196,
      "تزی": 4197,
      "میدان": 4198,
      "اسمی": 4199,
      "اسپری": 4200,
      "یادت": 4201,
      "کایاک": 4202,
      "شمام": 4203,
      "یز": 4204,
      "الکس": 4205,
      "رویی": 4206,
      "کارهایی": 4207,
      "نشی": 4208,
      "محض": 4209,
      "مودبانه": 4210,
      "بپیوندد": 4211,
      "شفاف": 4212,
      "جوش": 4213,
      "استشمام": 4214,
      "اوازهای": 4215,
      "بشمارد": 4216,
      "ke": 4217,
      "لاستیکی": 4218,
      "دستگاه": 4219,
      "چنگالش": 4220,
      "بگویند": 4221,
      "بدوه": 4222,
      "بنشینند": 4223,
      "کابوس": 4224,
      "واژگون": 4225,
      "كن": 4226,
      "برایم": 4227,
      "جابه": 4228,
      "بازى": 4229,
      "مدل": 4230,
      "تونستن": 4231,
      "الوچه": 4232,
      "توییت": 4233,
      "ثقی": 4234,
      "غذایشان": 4235,
      "مستقیم": 4236,
      "لى": 4237,
      "نامش": 4238,
      "جرثقی": 4239,
      "اصلاح": 4240,
      "پناهگاه": 4241,
      "شهری": 4242,
      "جادوی": 4243,
      "معلمش": 4244,
      "it": 4245,
      "عاق": 4246,
      "يل": 4247,
      "براقی": 4248,
      "ناها": 4249,
      "امیزی": 4250,
      "فیفی": 4251,
      "لباسی": 4252,
      "چسبنا": 4253,
      "ذوب": 4254,
      "زبر": 4255,
      "ملایمت": 4256,
      "بتونیم": 4257,
      "تای": 4258,
      "سکو": 4259,
      "طوق": 4260,
      "عض": 4261,
      "ژله": 4262,
      "باهاشون": 4263,
      "سوفی": 4264,
      "برگه": 4265,
      "ترسیدن": 4266,
      "جرثقیل": 4267,
      "کدوی": 4268,
      "سیل": 4269,
      "ملت": 4270,
      "جرات": 4271,
      "چارلی": 4272,
      "فول": 4273,
      "حیوو": 4274,
      "خلاقانه": 4275,
      "حیوونا": 4276,
      "كمك": 4277,
      "مرو": 4278,
      "ياد": 4279,
      "دهنش": 4280,
      "وادار": 4281,
      "بشمار": 4282,
      "سورپرا": 4283,
      "سالن": 4284,
      "بکنم": 4285,
      "بکنی": 4286,
      "رابی": 4287,
      "کنتر": 4288,
      "پستچی": 4289,
      "بپوشه": 4290,
      "جز": 4291,
      "متر": 4292,
      "نماد": 4293,
      "گرمای": 4294,
      "واقع": 4295,
      "گاوها": 4296,
      "بردارم": 4297,
      "سوزاند": 4298,
      "غبار": 4299,
      "يشه": 4300,
      "گهواره": 4301,
      "شلوغ": 4302,
      "im": 4303,
      "میرفت": 4304,
      "میکردن": 4305,
      "هام": 4306,
      "تاک": 4307,
      "نشیمن": 4308,
      "نفسش": 4309,
      "ایکس": 4310,
      "بشوید": 4311,
      "زنم": 4312,
      "نص": 4313,
      "يار": 4314,
      "ابل": 4315,
      "پیروزی": 4316,
      "ملخ": 4317,
      "ابرقهرمان": 4318,
      "حری": 4319,
      "لاله": 4320,
      "اینده": 4321,
      "کنان": 4322,
      "موزی": 4323,
      "جهان": 4324,
      "حلز": 4325,
      "نرفت": 4326,
      "یخت": 4327,
      "دادیم": 4328,
      "نشو": 4329,
      "برگرداندند": 4330,
      "درحالیکه": 4331,
      "بگردیم": 4332,
      "رقاص": 4333,
      "کنترل": 4334,
      "سرو": 4335,
      "ماشين": 4336,
      "یفه": 4337,
      "برداره": 4338,
      "درخشیدن": 4339,
      "ایگلو": 4340,
      "جهش": 4341,
      "قوط": 4342,
      "سقوط": 4343,
      "سرزنش": 4344,
      "رویش": 4345,
      "براند": 4346,
      "كوچك": 4347,
      "كوچولو": 4348,
      "شمارش": 4349,
      "اجیل": 4350,
      "بدر": 4351,
      "بايد": 4352,
      "تمیزش": 4353,
      "شمردند": 4354,
      "راستگو": 4355,
      "پالتوی": 4356,
      "ببخشد": 4357,
      "هي": 4358,
      "دستور": 4359,
      "ماشینت": 4360,
      "دورتر": 4361,
      "شستند": 4362,
      "ارید": 4363,
      "فینی": 4364,
      "بچر": 4365,
      "وروم": 4366,
      "کتش": 4367,
      "شتاب": 4368,
      "کندو": 4369,
      "احساسات": 4370,
      "شبکه": 4371,
      "بسيار": 4372,
      "صداها": 4373,
      "ردیف": 4374,
      "غرق": 4375,
      "پهناور": 4376,
      "صلح": 4377,
      "کیست": 4378,
      "ماشینی": 4379,
      "گذرنامه": 4380,
      "خردمندی": 4381,
      "ra": 4382,
      "اکسی": 4383,
      "سلا": 4384,
      "باهم": 4385,
      "الگو": 4386,
      "چسبناک": 4387,
      "تگ": 4388,
      "ملی": 4389,
      "مادرهایشان": 4390,
      "شگفتی": 4391,
      "سوالات": 4392,
      "بخنداند": 4393,
      "روبات": 4394,
      "کشور": 4395,
      "مرت": 4396,
      "مقوایی": 4397,
      "هربار": 4398,
      "گنجینه": 4399,
      "غاله": 4400,
      "رانی": 4401,
      "غوا": 4402,
      "نرفته": 4403,
      "میتوانم": 4404,
      "منی": 4405,
      "چشماش": 4406,
      "دهک": 4407,
      "قلاده": 4408,
      "حي": 4409,
      "مدو": 4410,
      "دوستانمان": 4411,
      "بهتره": 4412,
      "واگن": 4413,
      "هدایت": 4414,
      "دهکده": 4415,
      "همدیگه": 4416,
      "بزغاله": 4417,
      "بوم": 4418,
      "بخرم": 4419,
      "تندی": 4420,
      "چسبیده": 4421,
      "اثر": 4422,
      "اگ": 4423,
      "بپیچ": 4424,
      "عتش": 4425,
      "قدرتش": 4426,
      "غلتیدن": 4427,
      "مسیری": 4428,
      "دمید": 4429,
      "فرصت": 4430,
      "سرت": 4431,
      "نبوده": 4432,
      "معرفی": 4433,
      "پولش": 4434,
      "دزدی": 4435,
      "عمویش": 4436,
      "میده": 4437,
      "زیست": 4438,
      "مجد": 4439,
      "دوسش": 4440,
      "بدزدد": 4441,
      "فیک": 4442,
      "بیپ": 4443,
      "فریب": 4444,
      "انقدرها": 4445,
      "دنیاست": 4446,
      "ash": 4447,
      "برایتان": 4448,
      "اشعه": 4449,
      "اشغال": 4450,
      "حکیم": 4451,
      "کک": 4452,
      "لوبیای": 4453,
      "جوانی": 4454,
      "غواصی": 4455,
      "رویم": 4456,
      "دربیاورد": 4457,
      "ناکه": 4458,
      "نمایی": 4459,
      "میکروف": 4460,
      "چهارشنبه": 4461,
      "خنکی": 4462,
      "نشیند": 4463,
      "دوش": 4464,
      "ازرد": 4465,
      "شاند": 4466,
      "برسه": 4467,
      "بذاره": 4468,
      "مضح": 4469,
      "بکشم": 4470,
      "اردوگاه": 4471,
      "رنج": 4472,
      "نصف": 4473,
      "کمکی": 4474,
      "متحیر": 4475,
      "بخوانم": 4476,
      "سفرش": 4477,
      "کاملی": 4478,
      "طریق": 4479,
      "نتی": 4480,
      "یکشنبه": 4481,
      "ازادی": 4482,
      "خوشگلی": 4483,
      "ریزد": 4484,
      "بشنوند": 4485,
      "بفروشد": 4486,
      "le": 4487,
      "ot": 4488,
      "بپرسد": 4489,
      "تفاو": 4490,
      "نگرفت": 4491,
      "هنری": 4492,
      "والی": 4493,
      "کارا": 4494,
      "خورم": 4495,
      "دفعه": 4496,
      "صفحات": 4497,
      "خوندن": 4498,
      "حلزون": 4499,
      "واس": 4500,
      "باشک": 4501,
      "پنهانی": 4502,
      "بمون": 4503,
      "افتند": 4504,
      "رازالود": 4505,
      "لامپ": 4506,
      "غش": 4507,
      "همسرش": 4508,
      "بازیک": 4509,
      "معروف": 4510,
      "پیچیده": 4511,
      "بافت": 4512,
      "روزشان": 4513,
      "اضطراب": 4514,
      "نما": 4515,
      "پور": 4516,
      "بودیم": 4517,
      "زیگز": 4518,
      "فروشی": 4519,
      "دعوای": 4520,
      "کامیونش": 4521,
      "دلم": 4522,
      "افق": 4523,
      "یونی": 4524,
      "ازت": 4525,
      "ترمیم": 4526,
      "بازم": 4527,
      "نیمکتی": 4528,
      "پادشاهی": 4529,
      "پیراهنش": 4530,
      "صفر": 4531,
      "کوچکتر": 4532,
      "چرخش": 4533,
      "ترافیک": 4534,
      "جلوگیری": 4535,
      "چسبی": 4536,
      "زخم": 4537,
      "روسی": 4538,
      "هاپی": 4539,
      "فاع": 4540,
      "دستشویی": 4541,
      "mi": 4542,
      "بگوی": 4543,
      "مبه": 4544,
      "روبنده": 4545,
      "پرپشت": 4546,
      "پاي": 4547,
      "گذراندن": 4548,
      "تخیلی": 4549,
      "حبس": 4550,
      "کیه": 4551,
      "وقتش": 4552,
      "ولوت": 4553,
      "قطعا": 4554,
      "دردناک": 4555,
      "سنگینی": 4556,
      "گریان": 4557,
      "اکسیژ": 4558,
      "بخندد": 4559,
      "عروسی": 4560,
      "مسو": 4561,
      "هند": 4562,
      "کری": 4563,
      "هميشه": 4564,
      "تربچه": 4565,
      "کوب": 4566,
      "گوشی": 4567,
      "خرسش": 4568,
      "طرفش": 4569,
      "ليلی": 4570,
      "بکشه": 4571,
      "اینجام": 4572,
      "جعلی": 4573,
      "درخشد": 4574,
      "چندین": 4575,
      "پرسند": 4576,
      "خروس": 4577,
      "انباری": 4578,
      "لوس": 4579,
      "دوستاشون": 4580,
      "زمستان": 4581,
      "بترس": 4582,
      "سبیل": 4583,
      "كر": 4584,
      "رونه": 4585,
      "ریتم": 4586,
      "ناشنوا": 4587,
      "شیپور": 4588,
      "مجاز": 4589,
      "تولدت": 4590,
      "میداد": 4591,
      "ینامه": 4592,
      "اهینامه": 4593,
      "گواهینامه": 4594,
      "پارو": 4595,
      "زوزه": 4596,
      "مروارید": 4597,
      "سورپرایز": 4598,
      "شلاق": 4599,
      "نصی": 4600,
      "میتن": 4601,
      "تره": 4602,
      "رویایش": 4603,
      "پدربزرگش": 4604,
      "متنفرم": 4605,
      "همراهش": 4606,
      "شکستن": 4607,
      "تابلویی": 4608,
      "دشو": 4609,
      "فتگی": 4610,
      "اشیا": 4611,
      "نترسیده": 4612,
      "خودخواهی": 4613,
      "تصاوی": 4614,
      "مطمينم": 4615,
      "صندوقچه": 4616,
      "یافته": 4617,
      "بزنید": 4618,
      "re": 4619,
      "شقایق": 4620,
      "كنند": 4621,
      "ماهیگیری": 4622,
      "تشویقش": 4623,
      "منجر": 4624,
      "لاتی": 4625,
      "اغاز": 4626,
      "پینکی": 4627,
      "عاقل": 4628,
      "te": 4629,
      "دانید": 4630,
      "kard": 4631,
      "بخندند": 4632,
      "فصل": 4633,
      "اوا": 4634,
      "حیوانی": 4635,
      "بیماری": 4636,
      "وظیفه": 4637,
      "میدونست": 4638,
      "معمو": 4639,
      "برگرده": 4640,
      "لمسش": 4641,
      "ببینن": 4642,
      "مبهوت": 4643,
      "بکنه": 4644,
      "دیدار": 4645,
      "اشفتگی": 4646,
      "نداشته": 4647,
      "بپریم": 4648,
      "خدمت": 4649,
      "بجود": 4650,
      "سفت": 4651,
      "خوشحالانه": 4652,
      "نیروی": 4653,
      "اونجاست": 4654,
      "پیپ": 4655,
      "زیرشیروانی": 4656,
      "قلقل": 4657,
      "کاغذها": 4658,
      "ترکید": 4659,
      "عنکبو": 4660,
      "بگذرانیم": 4661,
      "لیسد": 4662,
      "مانع": 4663,
      "گلها": 4664,
      "خاکستر": 4665,
      "ببخش": 4666,
      "طه": 4667,
      "مگی": 4668,
      "اندوه": 4669,
      "کوس": 4670,
      "تیلی": 4671,
      "دوستانتان": 4672,
      "ماشینم": 4673,
      "رفه": 4674,
      "بخوابه": 4675,
      "زيبا": 4676,
      "نتیجه": 4677,
      "اکسیژن": 4678,
      "زندگي": 4679,
      "هیچکس": 4680,
      "تصاویری": 4681,
      "وانه": 4682,
      "تازی": 4683,
      "سرک": 4684,
      "تابستان": 4685,
      "پیتزای": 4686,
      "خروج": 4687,
      "رویداد": 4688,
      "مسواک": 4689,
      "بپری": 4690,
      "وزیدن": 4691,
      "دوستام": 4692,
      "راهرو": 4693,
      "گذران": 4694,
      "محله": 4695,
      "نیمه": 4696,
      "تزيینات": 4697,
      "ناشناس": 4698,
      "سازه": 4699,
      "طب": 4700,
      "عمر": 4701,
      "اوض": 4702,
      "موها": 4703,
      "جوابی": 4704,
      "بستن": 4705,
      "جیمز": 4706,
      "بدرفت": 4707,
      "تقلبی": 4708,
      "رزی": 4709,
      "الیو": 4710,
      "چیزایی": 4711,
      "خورشیدی": 4712,
      "غلیظ": 4713,
      "طوقه": 4714,
      "ریش": 4715,
      "شکفت": 4716,
      "توتو": 4717,
      "روزي": 4718,
      "تصاد": 4719,
      "بپوشی": 4720,
      "اشتیاق": 4721,
      "مردمی": 4722,
      "شکفته": 4723,
      "نوشیدند": 4724,
      "ابریشم": 4725,
      "لقمه": 4726,
      "جديد": 4727,
      "کوچکشان": 4728,
      "کمکشان": 4729,
      "اخلاق": 4730,
      "ریختن": 4731,
      "کاغذهای": 4732,
      "مبارزه": 4733,
      "دنده": 4734,
      "خوشگذرانی": 4735,
      "دیروز": 4736,
      "بمانم": 4737,
      "ووف": 4738,
      "ثه": 4739,
      "زرنگ": 4740,
      "توم": 4741,
      "پسرش": 4742,
      "تپ": 4743,
      "گين": 4744,
      "توپشان": 4745,
      "دانیم": 4746,
      "مالش": 4747,
      "بسازه": 4748,
      "ing": 4749,
      "مضحکی": 4750,
      "عبوس": 4751,
      "امدید": 4752,
      "خوشت": 4753,
      "دهقان": 4754,
      "غمگين": 4755,
      "خودشون": 4756,
      "پدیدار": 4757,
      "پافشار": 4758,
      "خشم": 4759,
      "سندی": 4760,
      "شپش": 4761,
      "هامون": 4762,
      "امشب": 4763,
      "برام": 4764,
      "امتیاز": 4765,
      "سازد": 4766,
      "ایل": 4767,
      "ترانه": 4768,
      "فران": 4769,
      "ميم": 4770,
      "پشمالویی": 4771,
      "بعداز": 4772,
      "سلاح": 4773,
      "بدرفتاری": 4774,
      "زل": 4775,
      "ظاه": 4776,
      "درب": 4777,
      "چرمی": 4778,
      "بخواهیم": 4779,
      "ربا": 4780,
      "فوق": 4781,
      "کاه": 4782,
      "قالی": 4783,
      "مچ": 4784,
      "بلد": 4785,
      "تصميم": 4786,
      "ماجراجوی": 4787,
      "ماریا": 4788,
      "تفاوت": 4789,
      "یونیفرم": 4790,
      "دشوار": 4791,
      "روزش": 4792,
      "نواز": 4793,
      "جانوران": 4794,
      "بخوانی": 4795,
      "شیلنگ": 4796,
      "پیمایی": 4797,
      "میتنز": 4798,
      "طبقه": 4799,
      "of": 4800,
      "يي": 4801,
      "چاره": 4802,
      "روپوش": 4803,
      "درام": 4804,
      "خردسال": 4805,
      "اویخت": 4806,
      "میکرو": 4807,
      "خروجی": 4808,
      "خرطوم": 4809,
      "عنکبوتی": 4810,
      "جیر": 4811,
      "همراهی": 4812,
      "بیاورم": 4813,
      "افته": 4814,
      "توانستم": 4815,
      "شکاف": 4816,
      "خانواد": 4817,
      "مقابل": 4818,
      "پختند": 4819,
      "ثروتمندی": 4820,
      "قیمتی": 4821,
      "شخصی": 4822,
      "میکروفون": 4823,
      "un": 4824,
      "داو": 4825,
      "شناس": 4826,
      "بگذرون": 4827,
      "گنجی": 4828,
      "ay": 4829,
      "کانی": 4830,
      "نداده": 4831,
      "برگی": 4832,
      "اطلا": 4833,
      "لحظ": 4834,
      "فورا": 4835,
      "امکان": 4836,
      "اینبار": 4837,
      "برسم": 4838,
      "کلیدی": 4839,
      "پاشنه": 4840,
      "قلبش": 4841,
      "هندوانه": 4842,
      "غرفه": 4843,
      "نتواند": 4844,
      "بودنش": 4845,
      "اشفته": 4846,
      "شیطانی": 4847,
      "یادداشتی": 4848,
      "بچرخاند": 4849,
      "معکوس": 4850,
      "چسبید": 4851,
      "چشمانشان": 4852,
      "بعدازظهر": 4853,
      "خاط": 4854,
      "شکند": 4855,
      "نکنیم": 4856,
      "اوریم": 4857,
      "سون": 4858,
      "سويی": 4859,
      "نزدیکش": 4860,
      "حیواناتی": 4861,
      "جرج": 4862,
      "ارزشمند": 4863,
      "تزیین": 4864,
      "جلب": 4865,
      "ساختم": 4866,
      "مارپیچ": 4867,
      "سکوت": 4868,
      "سروصدا": 4869,
      "رودی": 4870,
      "ازشون": 4871,
      "منتقل": 4872,
      "ندادند": 4873,
      "فلز": 4874,
      "ظروف": 4875,
      "انهاست": 4876,
      "بمانید": 4877,
      "بگه": 4878,
      "ورز": 4879,
      "وانت": 4880,
      "برقصند": 4881,
      "جلوتر": 4882,
      "نمودند": 4883,
      "گذشتند": 4884,
      "مخالفت": 4885,
      "خز": 4886,
      "خف": 4887,
      "گانه": 4888,
      "میکند": 4889,
      "دیدنش": 4890,
      "جنب": 4891,
      "کلارا": 4892,
      "حیوونات": 4893,
      "ازیم": 4894,
      "خفن": 4895,
      "قاطر": 4896,
      "شیری": 4897,
      "سرده": 4898,
      "انداختن": 4899,
      "li": 4900,
      "st": 4901,
      "ريی": 4902,
      "خریده": 4903,
      "امیدی": 4904,
      "راهپیمایی": 4905,
      "ماهیتابه": 4906,
      "شهرکی": 4907,
      "نیازمند": 4908,
      "پردازی": 4909,
      "بلوز": 4910,
      "خاطره": 4911,
      "گشاد": 4912,
      "توافق": 4913,
      "لوم": 4914,
      "برنمی": 4915,
      "پیروز": 4916,
      "خاکی": 4917,
      "مجازات": 4918,
      "قلقلک": 4919,
      "تازیانه": 4920,
      "خلاقی": 4921,
      "مامانشان": 4922,
      "پاشد": 4923,
      "نورانی": 4924,
      "ارتفاع": 4925,
      "گلب": 4926,
      "گلهای": 4927,
      "خانمی": 4928,
      "شید": 4929,
      "حالم": 4930,
      "اشون": 4931,
      "دانا": 4932,
      "وقتي": 4933,
      "مواجه": 4934,
      "رقابت": 4935,
      "خاش": 4936,
      "زاری": 4937,
      "سانی": 4938,
      "درسته": 4939,
      "اردکی": 4940,
      "نقش": 4941,
      "سالش": 4942,
      "یافتند": 4943,
      "نون": 4944,
      "ابدار": 4945,
      "مادرت": 4946,
      "گرفتی": 4947,
      "ورت": 4948,
      "خوبم": 4949,
      "انداخته": 4950,
      "حمله": 4951,
      "کال": 4952,
      "بزرگشان": 4953,
      "انده": 4954,
      "ترسند": 4955,
      "دلسوزی": 4956,
      "كردن": 4957,
      "تعادلش": 4958,
      "اسمیت": 4959,
      "نصیحت": 4960,
      "کجایی": 4961,
      "گفتی": 4962,
      "لاف": 4963,
      "اونقدر": 4964,
      "اطمی": 4965,
      "طوط": 4966,
      "گلبرگ": 4967,
      "حاوی": 4968,
      "وشون": 4969,
      "راهنمایی": 4970,
      "پوشند": 4971,
      "تندتر": 4972,
      "گریل": 4973,
      "بکشی": 4974,
      "مبارک": 4975,
      "بازیکن": 4976,
      "اطلاع": 4977,
      "بتوانید": 4978,
      "رگاه": 4979,
      "خیال": 4980,
      "هرچقدر": 4981,
      "ارایشگاه": 4982,
      "میکروفن": 4983,
      "بوسد": 4984,
      "بدتر": 4985,
      "بوسند": 4986,
      "حریص": 4987,
      "مجدد": 4988,
      "خلق": 4989,
      "بوری": 4990,
      "نوری": 4991,
      "مربای": 4992,
      "شجاعانه": 4993,
      "بخوابم": 4994,
      "سوالی": 4995,
      "وانی": 4996,
      "فرزند": 4997,
      "برگردون": 4998,
      "بندد": 4999,
      "بدویم": 5000,
      "مرکب": 5001,
      "ناهارش": 5002,
      "مونی": 5003,
      "هرچیزی": 5004,
      "بازدید": 5005,
      "محو": 5006,
      "نواختند": 5007,
      "پرسيد": 5008,
      "مریض": 5009,
      "زیگزاگ": 5010,
      "يده": 5011,
      "میره": 5012,
      "وقتشه": 5013,
      "بالشش": 5014,
      "بجنگ": 5015,
      "زا": 5016,
      "قند": 5017,
      "بارد": 5018,
      "ایید": 5019,
      "اسمت": 5020,
      "پرسی": 5021,
      "سگشان": 5022,
      "چشمه": 5023,
      "نکردنی": 5024,
      "قدرد": 5025,
      "نکنه": 5026,
      "میگوی": 5027,
      "رادی": 5028,
      "روباهی": 5029,
      "فراهم": 5030,
      "ذهنشان": 5031,
      "شرمس": 5032,
      "عکسی": 5033,
      "قض": 5034,
      "نح": 5035,
      "نبرد": 5036,
      "پند": 5037,
      "مرداب": 5038,
      "بندند": 5039,
      "پاشیده": 5040,
      "بسازی": 5041,
      "كس": 5042,
      "بیان": 5043,
      "بیام": 5044,
      "نامی": 5045,
      "اونها": 5046,
      "انگشتانش": 5047,
      "بپرسیم": 5048,
      "بیسکو": 5049,
      "التماس": 5050,
      "گزاری": 5051,
      "تیکه": 5052,
      "دسترس": 5053,
      "چاقوی": 5054,
      "کریست": 5055,
      "ارو": 5056,
      "طنا": 5057,
      "پچ": 5058,
      "امدی": 5059,
      "اوت": 5060,
      "استی": 5061,
      "بیار": 5062,
      "خودروی": 5063,
      "جایگ": 5064,
      "خوشحالیم": 5065,
      "انگشتان": 5066,
      "اطمینان": 5067,
      "گام": 5068,
      "بودید": 5069,
      "الع": 5070,
      "ناامیدی": 5071,
      "متصل": 5072,
      "درخشانش": 5073,
      "پوسید": 5074,
      "بذاریم": 5075,
      "مقصد": 5076,
      "بنف": 5077,
      "نوه": 5078,
      "درازی": 5079,
      "بگذارم": 5080,
      "رضایت": 5081,
      "پالتو": 5082,
      "خزیدن": 5083,
      "هنر": 5084,
      "دستشان": 5085,
      "معلوم": 5086,
      "محکمی": 5087,
      "جایشان": 5088,
      "سینه": 5089,
      "فلس": 5090,
      "al": 5091,
      "يع": 5092,
      "توص": 5093,
      "التی": 5094,
      "دختره": 5095,
      "شیرها": 5096,
      "باحاله": 5097,
      "شادا": 5098,
      "نعناع": 5099,
      "th": 5100,
      "درها": 5101,
      "دارویی": 5102,
      "ماده": 5103,
      "خوششون": 5104,
      "بچشد": 5105,
      "ne": 5106,
      "نکردم": 5107,
      "انبو": 5108,
      "اوازی": 5109,
      "دارای": 5110,
      "برانگیز": 5111,
      "سالمی": 5112,
      "تنهاست": 5113,
      "برجش": 5114,
      "باورنکردنی": 5115,
      "احمقی": 5116,
      "نگذاشت": 5117,
      "سويیچ": 5118,
      "ir": 5119,
      "بشو": 5120,
      "حروف": 5121,
      "زارا": 5122,
      "میتوانی": 5123,
      "ویران": 5124,
      "نقل": 5125,
      "بیندازند": 5126,
      "تندرو": 5127,
      "سفرشان": 5128,
      "بپوشم": 5129,
      "افرادی": 5130,
      "جهی": 5131,
      "شیم": 5132,
      "قال": 5133,
      "ادبی": 5134,
      "مادرم": 5135,
      "بخوابی": 5136,
      "اوردی": 5137,
      "بینمت": 5138,
      "طنابی": 5139,
      "شناسم": 5140,
      "یاداور": 5141,
      "شنیدم": 5142,
      "اعتق": 5143,
      "مشتر": 5144,
      "هردوشون": 5145,
      "شکی": 5146,
      "خوره": 5147,
      "ابش": 5148,
      "پاهایشان": 5149,
      "برگردم": 5150,
      "دیوید": 5151,
      "قطارها": 5152,
      "فضایی": 5153,
      "نرانی": 5154,
      "سخنرانی": 5155,
      "bu": 5156,
      "پالی": 5157,
      "چهچه": 5158,
      "اندازند": 5159,
      "پوسته": 5160,
      "خاطراتش": 5161,
      "فرمانبردار": 5162,
      "اعتقاد": 5163,
      "was": 5164,
      "يدن": 5165,
      "راجع": 5166,
      "نیومد": 5167,
      "مالد": 5168,
      "غرغر": 5169,
      "حيوان": 5170,
      "لحظات": 5171,
      "ورود": 5172,
      "انید": 5173,
      "توری": 5174,
      "پارگی": 5175,
      "نتوانسته": 5176,
      "مقوا": 5177,
      "دوقلوهای": 5178,
      "بپوشاند": 5179,
      "دلیر": 5180,
      "قطعاتی": 5181,
      "حض": 5182,
      "یابد": 5183,
      "سرعتش": 5184,
      "هیزم": 5185,
      "اموزد": 5186,
      "انگشتر": 5187,
      "az": 5188,
      "عظ": 5189,
      "مدی": 5190,
      "بیاوری": 5191,
      "بالاترین": 5192,
      "ارزویی": 5193,
      "بيا": 5194,
      "العاده": 5195,
      "عوع": 5196,
      "بودار": 5197,
      "سیلی": 5198,
      "شکلاتی": 5199,
      "بهترين": 5200,
      "کلنگ": 5201,
      "نشانش": 5202,
      "صورتشان": 5203,
      "خصوص": 5204,
      "کاکايوی": 5205,
      "نظم": 5206,
      "توصیه": 5207,
      "خطوط": 5208,
      "هدف": 5209,
      "کولر": 5210,
      "بلندترین": 5211,
      "بادبزن": 5212,
      "عصایش": 5213,
      "عموی": 5214,
      "جس": 5215,
      "حالشان": 5216,
      "سگک": 5217,
      "دونستم": 5218,
      "خامه": 5219,
      "طعمش": 5220,
      "بخورن": 5221,
      "پیوستند": 5222,
      "بخند": 5223,
      "چیکی": 5224,
      "نشینی": 5225,
      "معدنی": 5226,
      "محدود": 5227,
      "وضعیت": 5228,
      "سبدش": 5229,
      "ريیس": 5230,
      "حضور": 5231,
      "gh": 5232,
      "اها": 5233,
      "زلز": 5234,
      "رومیزی": 5235,
      "لیا": 5236,
      "بیاوریم": 5237,
      "نظرش": 5238,
      "تنبلی": 5239,
      "قصه": 5240,
      "رقصنده": 5241,
      "ذهن": 5242,
      "پتویش": 5243,
      "بوسیدند": 5244,
      "لرزه": 5245,
      "جایگزین": 5246,
      "التیام": 5247,
      "يو": 5248,
      "هاها": 5249,
      "دونی": 5250,
      "بیاین": 5251,
      "باریک": 5252,
      "شیوه": 5253,
      "خشکی": 5254,
      "بریدگی": 5255,
      "بخواهی": 5256,
      "جزر": 5257,
      "دکه": 5258,
      "نسیم": 5259,
      "وزش": 5260,
      "میام": 5261,
      "قطره": 5262,
      "صدایشان": 5263,
      "سردی": 5264,
      "مبلمان": 5265,
      "کچلی": 5266,
      "ستارگان": 5267,
      "يت": 5268,
      "لاید": 5269,
      "صداش": 5270,
      "خوشبختی": 5271,
      "بریزیم": 5272,
      "وسایلشان": 5273,
      "ظری": 5274,
      "پم": 5275,
      "نگیر": 5276,
      "زدی": 5277,
      "دهنده": 5278,
      "بخری": 5279,
      "دردی": 5280,
      "پلک": 5281,
      "غرب": 5282,
      "لیموی": 5283,
      "بالشتک": 5284,
      "شکوفا": 5285,
      "ذاشت": 5286,
      "سبدی": 5287,
      "غو": 5288,
      "نشتی": 5289,
      "وي": 5290,
      "کوبد": 5291,
      "مونه": 5292,
      "ماموری": 5293,
      "برجی": 5294,
      "لبورد": 5295,
      "زیرزمین": 5296,
      "چرپی": 5297,
      "فرق": 5298,
      "پوشد": 5299,
      "بگیرن": 5300,
      "بپیچد": 5301,
      "بکار": 5302,
      "ري": 5303,
      "گیگی": 5304,
      "پایی": 5305,
      "شیء": 5306,
      "اومدند": 5307,
      "برفک": 5308,
      "سیاهی": 5309,
      "بگویم": 5310,
      "طبق": 5311,
      "بیچاره": 5312,
      "بردم": 5313,
      "گوگو": 5314,
      "پیپا": 5315,
      "غلتاندند": 5316,
      "بلیط": 5317,
      "نادان": 5318,
      "بذرها": 5319,
      "کریستال": 5320,
      "dar": 5321,
      "فكر": 5322,
      "خونشون": 5323,
      "موهایشان": 5324,
      "دیگرش": 5325,
      "بدمزه": 5326,
      "بخره": 5327,
      "ملایمی": 5328,
      "اموز": 5329,
      "الودگی": 5330,
      "پرینت": 5331,
      "The": 5332,
      "بگي": 5333,
      "توماس": 5334,
      "اسلاید": 5335,
      "چشمش": 5336,
      "مزار": 5337,
      "نوشتند": 5338,
      "فرمایید": 5339,
      "سع": 5340,
      "نکردن": 5341,
      "درنده": 5342,
      "ایه": 5343,
      "بیلبورد": 5344,
      "اسوده": 5345,
      "سرفه": 5346,
      "زدنش": 5347,
      "غمگینم": 5348,
      "جهیدن": 5349,
      "بفرستد": 5350,
      "باس": 5351,
      "بازیت": 5352,
      "مویی": 5353,
      "هرچند": 5354,
      "تکمیل": 5355,
      "مهمان": 5356,
      "بپوشند": 5357,
      "بچینم": 5358,
      "ماجراجویانه": 5359,
      "مزارع": 5360,
      "ساق": 5361,
      "يا": 5362,
      "مربی": 5363,
      "موشی": 5364,
      "طوف": 5365,
      "رسيد": 5366,
      "لاکپشت": 5367,
      "کدوم": 5368,
      "شلوارش": 5369,
      "مترجم": 5370,
      "بتونی": 5371,
      "تنی": 5372,
      "دش": 5373,
      "اسکلی": 5374,
      "سريع": 5375,
      "ارابه": 5376,
      "شیطو": 5377,
      "دکان": 5378,
      "گذارم": 5379,
      "وفاداری": 5380,
      "شیطونی": 5381,
      "نرود": 5382,
      "درمان": 5383,
      "متنی": 5384,
      "بیاییم": 5385,
      "مادربزرگشان": 5386,
      "خطرناکی": 5387,
      "سپاسگزاری": 5388,
      "شمشیرش": 5389,
      "بخوابند": 5390,
      "نمایشی": 5391,
      "نصب": 5392,
      "بدرخشد": 5393,
      "عمق": 5394,
      "فهمه": 5395,
      "كل": 5396,
      "میکنند": 5397,
      "هاپ": 5398,
      "استخو": 5399,
      "اینا": 5400,
      "ورق": 5401,
      "گویم": 5402,
      "دنبالشان": 5403,
      "خطرناکه": 5404,
      "مدادهای": 5405,
      "برقصه": 5406,
      "بنویسم": 5407,
      "فرمانرو": 5408,
      "بفروش": 5409,
      "طلب": 5410,
      "میشن": 5411,
      "میگوید": 5412,
      "عروسکت": 5413,
      "خانوادش": 5414,
      "مشترک": 5415,
      "ro": 5416,
      "بویی": 5417,
      "كنه": 5418,
      "ترفند": 5419,
      "کرمی": 5420,
      "دانستیم": 5421,
      "زردرنگ": 5422,
      "درونش": 5423,
      "بادبادکش": 5424,
      "برقصم": 5425,
      "ساقه": 5426,
      "sa": 5427,
      "دويد": 5428,
      "کهن": 5429,
      "روزى": 5430,
      "بیاور": 5431,
      "کشی": 5432,
      "نشوند": 5433,
      "تعمی": 5434,
      "تیرک": 5435,
      "مایه": 5436,
      "شاداب": 5437,
      "Lil": 5438,
      "خریدن": 5439,
      "شمالی": 5440,
      "فهمیدن": 5441,
      "تونستند": 5442,
      "حساب": 5443,
      "برقصیم": 5444,
      "اهنگی": 5445,
      "تستی": 5446,
      "طبیعی": 5447,
      "تصادف": 5448,
      "قالب": 5449,
      "كار": 5450,
      "اهوی": 5451,
      "خوردنی": 5452,
      "پرسیدن": 5453,
      "اتاقم": 5454,
      "گوشش": 5455,
      "باتلاق": 5456,
      "بدونه": 5457,
      "زير": 5458,
      "فولادی": 5459,
      "کالباس": 5460,
      "بچرخ": 5461,
      "زشتی": 5462,
      "ضای": 5463,
      "روقت": 5464,
      "ریه": 5465,
      "احوال": 5466,
      "کیپ": 5467,
      "سخته": 5468,
      "مزاح": 5469,
      "قادر": 5470,
      "رایانه": 5471,
      "زياد": 5472,
      "پافشاری": 5473,
      "yek": 5474,
      "داوودی": 5475,
      "استیچ": 5476,
      "es": 5477,
      "كنم": 5478,
      "نخواهم": 5479,
      "پیان": 5480,
      "جدیدم": 5481,
      "ناراحته": 5482,
      "سردشان": 5483,
      "تصویرش": 5484,
      "بمونی": 5485,
      "پاسپ": 5486,
      "اینچ": 5487,
      "ساکن": 5488,
      "سلامتی": 5489,
      "درخشیدند": 5490,
      "لیموها": 5491,
      "زلزله": 5492,
      "دونه": 5493,
      "لوکس": 5494,
      "درختش": 5495,
      "جانور": 5496,
      "معاوض": 5497,
      "گیریم": 5498,
      "معاوضه": 5499,
      "نخورده": 5500,
      "یمی": 5501,
      "زینه": 5502,
      "بلنده": 5503,
      "ملاح": 5504,
      "پذیری": 5505,
      "نوارچسب": 5506,
      "اتیش": 5507,
      "عظیمی": 5508,
      "تقل": 5509,
      "زمي": 5510,
      "عتی": 5511,
      "هد": 5512,
      "ورودی": 5513,
      "مامی": 5514,
      "کندوی": 5515,
      "پريد": 5516,
      "خنديدند": 5517,
      "برگردی": 5518,
      "غریبی": 5519,
      "بابایشان": 5520,
      "تپانچه": 5521,
      "خزیدند": 5522,
      "طوفانی": 5523,
      "ch": 5524,
      "اغل": 5525,
      "ممو": 5526,
      "بازیگاه": 5527,
      "الگوی": 5528,
      "حیو": 5529,
      "فهمیده": 5530,
      "سفیدی": 5531,
      "خوایم": 5532,
      "ببندند": 5533,
      "میرا": 5534,
      "کاغذش": 5535,
      "کمرش": 5536,
      "احوالپرسی": 5537,
      "el": 5538,
      "تمیزی": 5539,
      "میشم": 5540,
      "درحال": 5541,
      "بازیشان": 5542,
      "علامتی": 5543,
      "خیابون": 5544,
      "قدمی": 5545,
      "لجنزار": 5546,
      "کردین": 5547,
      "گرسنگی": 5548,
      "افز": 5549,
      "میزش": 5550,
      "بخزد": 5551,
      "مخزن": 5552,
      "سوارش": 5553,
      "ملاحظه": 5554,
      "چجوری": 5555,
      "سرخوردن": 5556,
      "رهبر": 5557,
      "نمیاد": 5558,
      "خوردنش": 5559,
      "تعوی": 5560,
      "کادوی": 5561,
      "زردش": 5562,
      "شکستند": 5563,
      "شامل": 5564,
      "کمانی": 5565,
      "بدوم": 5566,
      "عوعو": 5567,
      "حسی": 5568,
      "وزنه": 5569,
      "ماق": 5570,
      "غلط": 5571,
      "غلطی": 5572,
      "تارعنکبوت": 5573,
      "شرق": 5574,
      "پیرمردی": 5575,
      "ببندیم": 5576,
      "هايش": 5577,
      "قدردانی": 5578,
      "ترد": 5579,
      "ختیم": 5580,
      "قله": 5581,
      "‎یک": 5582,
      "تابان": 5583,
      "پیتان": 5584,
      "تابستانی": 5585,
      "اتاقک": 5586,
      "حالیکه": 5587,
      "کاپیتان": 5588,
      "ارزویش": 5589,
      "شکستی": 5590,
      "پاندای": 5591,
      "خبره": 5592,
      "صاع": 5593,
      "نایی": 5594,
      "نخواهند": 5595,
      "نشنیدند": 5596,
      "میاو": 5597,
      "پارك": 5598,
      "مامانی": 5599,
      "اقسام": 5600,
      "گردوی": 5601,
      "اوردم": 5602,
      "چرخاندند": 5603,
      "بشینه": 5604,
      "نویسد": 5605,
      "کاپشن": 5606,
      "چیده": 5607,
      "کدر": 5608,
      "یل": 5609,
      "برچسبی": 5610,
      "گذرد": 5611,
      "کیفی": 5612,
      "نکردی": 5613,
      "بلوی": 5614,
      "دونستند": 5615,
      "چاقی": 5616,
      "لیموترش": 5617,
      "نتونستن": 5618,
      "شکفتن": 5619,
      "فرانک": 5620,
      "حيوانات": 5621,
      "دمه": 5622,
      "سند": 5623,
      "ماهنگ": 5624,
      "بیفته": 5625,
      "اتشی": 5626,
      "کشوی": 5627,
      "اختلاف": 5628,
      "استیکر": 5629,
      "برسانند": 5630,
      "ديدند": 5631,
      "بزنن": 5632,
      "بنشینم": 5633,
      "بگویی": 5634,
      "كان": 5635,
      "هروقت": 5636,
      "میکنن": 5637,
      "کوچیکی": 5638,
      "ریزند": 5639,
      "کشم": 5640,
      "مزخر": 5641,
      "صاعقه": 5642,
      "جسی": 5643,
      "طوی": 5644,
      "علو": 5645,
      "شتر": 5646,
      "استق": 5647,
      "سرهایشان": 5648,
      "گرده": 5649,
      "مقدمه": 5650,
      "بخشش": 5651,
      "مضمون": 5652,
      "ابزارهای": 5653,
      "دریانوردی": 5654,
      "بزرگسالان": 5655,
      "قضاوت": 5656,
      "جمد": 5657,
      "وین": 5658,
      "گرا": 5659,
      "چرخان": 5660,
      "زنان": 5661,
      "هواپیماهای": 5662,
      "رویاهای": 5663,
      "هوشمندی": 5664,
      "هردوی": 5665,
      "خرطومش": 5666,
      "do": 5667,
      "غولی": 5668,
      "یکباری": 5669,
      "روزانه": 5670,
      "خوشگذران": 5671,
      "لاکی": 5672,
      "دستاش": 5673,
      "گوهر": 5674,
      "چرتی": 5675,
      "پاها": 5676,
      "تندترین": 5677,
      "زبانش": 5678,
      "رگیری": 5679,
      "فراوانی": 5680,
      "ازرده": 5681,
      "ببي": 5682,
      "عقاب": 5683,
      "بارگیری": 5684,
      "راری": 5685,
      "ماكس": 5686,
      "کناره": 5687,
      "کندند": 5688,
      "منجمد": 5689,
      "نمیخواست": 5690,
      "برقرار": 5691,
      "ویگلی": 5692,
      "تابیدن": 5693,
      "گذاشتم": 5694,
      "نمایشگاه": 5695,
      "عددی": 5696,
      "پوستی": 5697,
      "اسکوترش": 5698,
      "بتونم": 5699,
      "محی": 5700,
      "نبیند": 5701,
      "بیاب": 5702,
      "پرست": 5703,
      "ندهد": 5704,
      "متنوع": 5705,
      "حرفی": 5706,
      "مطاب": 5707,
      "کفشش": 5708,
      "دراوردن": 5709,
      "مفیدی": 5710,
      "فشردند": 5711,
      "پرتقالی": 5712,
      "برنگرد": 5713,
      "منظور": 5714,
      "بنوشند": 5715,
      "استقبال": 5716,
      "ab": 5717,
      "حواس": 5718,
      "نخود": 5719,
      "پرجنب": 5720,
      "منف": 5721,
      "تیزش": 5722,
      "قشنگش": 5723,
      "چالش": 5724,
      "ندارید": 5725,
      "كرده": 5726,
      "ايا": 5727,
      "هيجان": 5728,
      "زمين": 5729,
      "علوفه": 5730,
      "سهم": 5731,
      "چین": 5732,
      "درشت": 5733,
      "لیمون": 5734,
      "براشون": 5735,
      "تختی": 5736,
      "فهمد": 5737,
      "بیفتی": 5738,
      "نظاره": 5739,
      "محدودیت": 5740,
      "افزایش": 5741,
      "بخواهند": 5742,
      "ذخیره": 5743,
      "کپی": 5744,
      "اینطور": 5745,
      "لوسي": 5746,
      "مادری": 5747,
      "مراسم": 5748,
      "ببندی": 5749,
      "روزگاران": 5750,
      "Tim": 5751,
      "عمولی": 5752,
      "لع": 5753,
      "باحکمت": 5754,
      "پرسه": 5755,
      "لبخندهای": 5756,
      "تکب": 5757,
      "مرتکب": 5758,
      "معت": 5759,
      "خرگوشش": 5760,
      "سیرک": 5761,
      "خرده": 5762,
      "دعوتنامه": 5763,
      "موندن": 5764,
      "لرزد": 5765,
      "تقلید": 5766,
      "od": 5767,
      "اگاه": 5768,
      "غاری": 5769,
      "تونا": 5770,
      "بازیه": 5771,
      "ابلیمو": 5772,
      "بلغ": 5773,
      "هیچی": 5774,
      "افسر": 5775,
      "نیستن": 5776,
      "نقاب": 5777,
      "رسان": 5778,
      "ساندویچش": 5779,
      "دستکشش": 5780,
      "بچینند": 5781,
      "محیط": 5782,
      "هاتون": 5783,
      "خوریم": 5784,
      "یکسان": 5785,
      "ماپ": 5786,
      "کندی": 5787,
      "بران": 5788,
      "خودداری": 5789,
      "قبلی": 5790,
      "بهترینش": 5791,
      "بندم": 5792,
      "پشمی": 5793,
      "زنگی": 5794,
      "her": 5795,
      "خواننده": 5796,
      "گریست": 5797,
      "ادبانه": 5798,
      "عضلات": 5799,
      "گمش": 5800,
      "استیو": 5801,
      "بریدند": 5802,
      "سمتشان": 5803,
      "رقصد": 5804,
      "تقاض": 5805,
      "بیندازیم": 5806,
      "اشیای": 5807,
      "پولک": 5808,
      "وحشتناکی": 5809,
      "حیوون": 5810,
      "بفهمه": 5811,
      "جرعه": 5812,
      "طلای": 5813,
      "زیورا": 5814,
      "ماژ": 5815,
      "بیگانه": 5816,
      "زدم": 5817,
      "پسرم": 5818,
      "نشوید": 5819,
      "تعلق": 5820,
      "باغی": 5821,
      "جنگیدن": 5822,
      "رودخونه": 5823,
      "دندانها": 5824,
      "مسافران": 5825,
      "ایگلوی": 5826,
      "مدوسا": 5827,
      "بگوییم": 5828,
      "پیانوی": 5829,
      "لیموناد": 5830,
      "هدر": 5831,
      "کنيم": 5832,
      "رگه": 5833,
      "بیگی": 5834,
      "ترب": 5835,
      "خواستی": 5836,
      "بردارید": 5837,
      "ویسند": 5838,
      "بنشین": 5839,
      "فولاد": 5840,
      "جلا": 5841,
      "حاد": 5842,
      "مگر": 5843,
      "ستی": 5844,
      "دوستات": 5845,
      "ابرو": 5846,
      "خوشحاله": 5847,
      "کوچولوش": 5848,
      "تعدادی": 5849,
      "بیشترین": 5850,
      "منتظرشان": 5851,
      "پیشخوان": 5852,
      "چشمهایش": 5853,
      "امتداد": 5854,
      "بچینیم": 5855,
      "هیولایی": 5856,
      "بنشینی": 5857,
      "مسيول": 5858,
      "مسيولی": 5859,
      "غیرمعمولی": 5860,
      "ورزشی": 5861,
      "شرمساری": 5862,
      "كش": 5863,
      "نخی": 5864,
      "درش": 5865,
      "ارغ": 5866,
      "نبودن": 5867,
      "نیستید": 5868,
      "عروسکم": 5869,
      "سطلش": 5870,
      "ارزشمندی": 5871,
      "شخصیت": 5872,
      "وسیع": 5873,
      "بکارد": 5874,
      "نوازنده": 5875,
      "دژ": 5876,
      "عال": 5877,
      "نزند": 5878,
      "نینا": 5879,
      "سویی": 5880,
      "متنوعی": 5881,
      "گونی": 5882,
      "قوس": 5883,
      "قدرتمندی": 5884,
      "حیرت": 5885,
      "غیرمعمو": 5886,
      "غوطه": 5887,
      "kon": 5888,
      "میای": 5889,
      "کوچه": 5890,
      "نادری": 5891,
      "اندن": 5892,
      "جدیدشون": 5893,
      "برداشتم": 5894,
      "معاینه": 5895,
      "تلخی": 5896,
      "اجرای": 5897,
      "هویجی": 5898,
      "پاستا": 5899,
      "تنو": 5900,
      "ذار": 5901,
      "نباشند": 5902,
      "هفت": 5903,
      "خوابی": 5904,
      "بینش": 5905,
      "دستت": 5906,
      "شوت": 5907,
      "بشین": 5908,
      "شونه": 5909,
      "قولش": 5910,
      "پیچیدند": 5911,
      "دیم": 5912,
      "اسن": 5913,
      "جیلی": 5914,
      "باهوشانه": 5915,
      "شدیدتر": 5916,
      "بذاری": 5917,
      "شناختند": 5918,
      "متعادل": 5919,
      "کمربندش": 5920,
      "ايده": 5921,
      "انگورها": 5922,
      "ast": 5923,
      "جورج": 5924,
      "شير": 5925,
      "نفهمید": 5926,
      "هیکل": 5927,
      "پرپشم": 5928,
      "سرسخت": 5929,
      "برسیم": 5930,
      "برسان": 5931,
      "گرفتنش": 5932,
      "خودرو": 5933,
      "هنوزم": 5934,
      "عجیبه": 5935,
      "یخبند": 5936,
      "حسودی": 5937,
      "کودکان": 5938,
      "پوشاندند": 5939,
      "خوشایندی": 5940,
      "بگویید": 5941,
      "ماژیک": 5942,
      "بپاش": 5943,
      "جراحی": 5944,
      "عود": 5945,
      "باسی": 5946,
      "میدانست": 5947,
      "رالی": 5948,
      "لوفر": 5949,
      "اتاقتان": 5950,
      "بادبانی": 5951,
      "مثبت": 5952,
      "عصر": 5953,
      "بیلچه": 5954,
      "لغزیدن": 5955,
      "خيلى": 5956,
      "پرسرو": 5957,
      "بنشینیم": 5958,
      "سوخته": 5959,
      "بفهمند": 5960,
      "اکتش": 5961,
      "شکوفه": 5962,
      "پايين": 5963,
      "me": 5964,
      "ناله": 5965,
      "میپرید": 5966,
      "بزرگي": 5967,
      "نیلوفر": 5968,
      "نشونش": 5969,
      "روستایی": 5970,
      "دریافتند": 5971,
      "پارکینگ": 5972,
      "پاسپورت": 5973,
      "شبی": 5974,
      "عق": 5975,
      "قاش": 5976,
      "کرو": 5977,
      "مین": 5978,
      "امي": 5979,
      "بیب": 5980,
      "اسر": 5981,
      "پرخاش": 5982,
      "برعکس": 5983,
      "اسیبت": 5984,
      "قطارهای": 5985,
      "خیلى": 5986,
      "سرتاسر": 5987,
      "غیرمعمول": 5988,
      "بدست": 5989,
      "خاله": 5990,
      "سازم": 5991,
      "هق": 5992,
      "داگ": 5993,
      "روزهایش": 5994,
      "نمیدونست": 5995,
      "کشش": 5996,
      "جدیدت": 5997,
      "افتادم": 5998,
      "بشور": 5999,
      "ماجرایی": 6000,
      "خوانده": 6001,
      "تمایل": 6002,
      "زیورالات": 6003,
      "بخی": 6004,
      "صعود": 6005,
      "لجو": 6006,
      "نای": 6007,
      "هلی": 6008,
      "دوز": 6009,
      "سرم": 6010,
      "موهاش": 6011,
      "نمیدونم": 6012,
      "برسی": 6013,
      "دورش": 6014,
      "دوربینش": 6015,
      "زیرزمینی": 6016,
      "چشیدند": 6017,
      "فیلمی": 6018,
      "پشیمون": 6019,
      "دندانش": 6020,
      "جمله": 6021,
      "نيست": 6022,
      "اندوهگین": 6023,
      "طویله": 6024,
      "حادثه": 6025,
      "نکشید": 6026,
      "هماهنگ": 6027,
      "همانی": 6028,
      "ابیاری": 6029,
      "زنبوری": 6030,
      "برگردانند": 6031,
      "برقصی": 6032,
      "تاجش": 6033,
      "انسانی": 6034,
      "عمرش": 6035,
      "خشمگین": 6036,
      "مزخرف": 6037,
      "ارغوانی": 6038,
      "عبی": 6039,
      "مجو": 6040,
      "کواک": 6041,
      "رویایی": 6042,
      "پسره": 6043,
      "ابیگیل": 6044,
      "پشمالوی": 6045,
      "سطح": 6046,
      "اصیل": 6047,
      "چالاب": 6048,
      "غلتیدند": 6049,
      "ارزشش": 6050,
      "تلفنش": 6051,
      "ماموریت": 6052,
      "for": 6053,
      "دق": 6054,
      "فایده": 6055,
      "توي": 6056,
      "ارسال": 6057,
      "خوابم": 6058,
      "ملال": 6059,
      "تلاشش": 6060,
      "مخملی": 6061,
      "خوشبختم": 6062,
      "فرمانروا": 6063,
      "نباشه": 6064,
      "نگرفته": 6065,
      "یکا": 6066,
      "کناری": 6067,
      "تاحالا": 6068,
      "بازگرداند": 6069,
      "گويد": 6070,
      "بخونم": 6071,
      "بندرگاه": 6072,
      "معلمشان": 6073,
      "راستین": 6074,
      "اومدی": 6075,
      "بپزیم": 6076,
      "موزیسین": 6077,
      "مرتبی": 6078,
      "اکو": 6079,
      "بم": 6080,
      "بمالد": 6081,
      "غير": 6082,
      "بالی": 6083,
      "میتونست": 6084,
      "راشل": 6085,
      "ایشان": 6086,
      "خوشبو": 6087,
      "دیدمش": 6088,
      "سیندی": 6089,
      "خودمون": 6090,
      "تابد": 6091,
      "مانم": 6092,
      "ترسیدم": 6093,
      "حیواناتش": 6094,
      "روشنش": 6095,
      "دودی": 6096,
      "بریزند": 6097,
      "are": 6098,
      "ماهي": 6099,
      "بشقابش": 6100,
      "نرده": 6101,
      "گیتارش": 6102,
      "بازوهایش": 6103,
      "خفنه": 6104,
      "جبران": 6105,
      "هانا": 6106,
      "کنین": 6107,
      "داشتید": 6108,
      "ترحم": 6109,
      "براونی": 6110,
      "ویلی": 6111,
      "سریعی": 6112,
      "گردنی": 6113,
      "شجاعتش": 6114,
      "هواپیماها": 6115,
      "مربعی": 6116,
      "خصوصی": 6117,
      "سعي": 6118,
      "Lily": 6119,
      "ah": 6120,
      "نپذیرفت": 6121,
      "‫‪": 6122,
      "خوانی": 6123,
      "گرفتیم": 6124,
      "کارمند": 6125,
      "دستان": 6126,
      "خرما": 6127,
      "نشاط": 6128,
      "نجاتش": 6129,
      "دوستشون": 6130,
      "برداشتی": 6131,
      "سریال": 6132,
      "گمشو": 6133,
      "بگذرونه": 6134,
      "مالیدند": 6135,
      "داغه": 6136,
      "فنجون": 6137,
      "فرستاده": 6138,
      "نیفتد": 6139,
      "اکتشاف": 6140,
      "لجوج": 6141,
      "شگی": 6142,
      "ورم": 6143,
      "باخت": 6144,
      "میشود": 6145,
      "خونش": 6146,
      "بینیم": 6147,
      "ترکی": 6148,
      "مونده": 6149,
      "شانی": 6150,
      "لبش": 6151,
      "بانو": 6152,
      "مطمينی": 6153,
      "علفزار": 6154,
      "لرزان": 6155,
      "گذاریم": 6156,
      "چاپگر": 6157,
      "ظریفی": 6158,
      "یخبندان": 6159,
      "بفهمی": 6160,
      "فرف": 6161,
      "فیا": 6162,
      "گور": 6163,
      "ترشی": 6164,
      "شرور": 6165,
      "بخونیم": 6166,
      "شادشان": 6167,
      "نمانده": 6168,
      "انگیزش": 6169,
      "فلفلی": 6170,
      "کاشتند": 6171,
      "فضاپیم": 6172,
      "نماید": 6173,
      "دعوایشان": 6174,
      "خلاقیت": 6175,
      "اى": 6176,
      "جاری": 6177,
      "نفری": 6178,
      "میدوید": 6179,
      "اسکیپ": 6180,
      "پرپر": 6181,
      "کارهایش": 6182,
      "خودمه": 6183,
      "همیشگی": 6184,
      "خوردم": 6185,
      "تکالی": 6186,
      "اندازی": 6187,
      "داستانش": 6188,
      "دردش": 6189,
      "گاوی": 6190,
      "انتها": 6191,
      "ترومپ": 6192,
      "پاستل": 6193,
      "معمولا": 6194,
      "ويژه": 6195,
      "معتمد": 6196,
      "ve": 6197,
      "بگ": 6198,
      "بفرمایید": 6199,
      "راندند": 6200,
      "رازی": 6201,
      "الوده": 6202,
      "تاخیر": 6203,
      "پایه": 6204,
      "نشین": 6205,
      "جولی": 6206,
      "جالباسی": 6207,
      "مهمتر": 6208,
      "شهرش": 6209,
      "محبوبی": 6210,
      "اویزون": 6211,
      "بپاشد": 6212,
      "خال": 6213,
      "زوی": 6214,
      "چاب": 6215,
      "میرسید": 6216,
      "میتوانیم": 6217,
      "ایام": 6218,
      "تیپ": 6219,
      "مامانت": 6220,
      "چیزهایش": 6221,
      "افر": 6222,
      "نزديک": 6223,
      "سریعتر": 6224,
      "بشکنند": 6225,
      "لرزیدند": 6226,
      "ver": 6227,
      "xt": 6228,
      "ابز": 6229,
      "ببنده": 6230,
      "پانس": 6231,
      "میشی": 6232,
      "بها": 6233,
      "پرشی": 6234,
      "منا": 6235,
      "برقی": 6236,
      "خوابشان": 6237,
      "قویش": 6238,
      "سردم": 6239,
      "امیدواریم": 6240,
      "دیوارهای": 6241,
      "تالار": 6242,
      "کلماتی": 6243,
      "جلد": 6244,
      "سردرگمی": 6245,
      "اضطراری": 6246,
      "هوف": 6247,
      "پانسمان": 6248,
      "Tom": 6249,
      "طمع": 6250,
      "فکور": 6251,
      "خوشتی": 6252,
      "یکجا": 6253,
      "کوهی": 6254,
      "ساختیم": 6255,
      "ممنوع": 6256,
      "بشکنم": 6257,
      "بلویی": 6258,
      "ناهارشان": 6259,
      "رویاپردازی": 6260,
      "مشهوری": 6261,
      "اهنربای": 6262,
      "بشویند": 6263,
      "تنومند": 6264,
      "zi": 6265,
      "عف": 6266,
      "پرچ": 6267,
      "پیامی": 6268,
      "غله": 6269,
      "خوبش": 6270,
      "نوشند": 6271,
      "خوشگله": 6272,
      "رویاهایش": 6273,
      "ویدی": 6274,
      "مخالف": 6275,
      "مسيولیت": 6276,
      "رر": 6277,
      "مرم": 6278,
      "هاى": 6279,
      "هموار": 6280,
      "اهنی": 6281,
      "بابلز": 6282,
      "لباست": 6283,
      "نخل": 6284,
      "کمدش": 6285,
      "زيادی": 6286,
      "سوختن": 6287,
      "بداخلاقی": 6288,
      "دهانشان": 6289,
      "پیوستن": 6290,
      "سيب": 6291,
      "دزدید": 6292,
      "دزدیده": 6293,
      "جادوییه": 6294,
      "اداره": 6295,
      "ببخشی": 6296,
      "حه": 6297,
      "پف": 6298,
      "گرون": 6299,
      "رونی": 6300,
      "درگیر": 6301,
      "ترجی": 6302,
      "حالتان": 6303,
      "زدنی": 6304,
      "منط": 6305,
      "مراقبش": 6306,
      "گردون": 6307,
      "ميز": 6308,
      "بندازه": 6309,
      "شرط": 6310,
      "زويی": 6311,
      "پیوسته": 6312,
      "پنکیک": 6313,
      "بگرده": 6314,
      "بشوییم": 6315,
      "منفجر": 6316,
      "ow": 6317,
      "تراک": 6318,
      "جف": 6319,
      "شسته": 6320,
      "كي": 6321,
      "نشنیده": 6322,
      "یکم": 6323,
      "اسپارک": 6324,
      "ناخدا": 6325,
      "موهایت": 6326,
      "نمیتونست": 6327,
      "کارتی": 6328,
      "کتابدار": 6329,
      "رقصند": 6330,
      "مغزها": 6331,
      "دماغش": 6332,
      "بازوهای": 6333,
      "بیسکویت": 6334,
      "بنفشی": 6335,
      "bud": 6336,
      "مجوز": 6337,
      "ترجیح": 6338,
      "ft": 6339,
      "ادو": 6340,
      "انع": 6341,
      "درنا": 6342,
      "توجهی": 6343,
      "بالشتی": 6344,
      "بشکنه": 6345,
      "کلاهت": 6346,
      "کثافت": 6347,
      "ببینمش": 6348,
      "همونطور": 6349,
      "مخروطی": 6350,
      "جیرجیر": 6351,
      "زيادي": 6352,
      "ld": 6353,
      "صافی": 6354,
      "مایا": 6355,
      "گست": 6356,
      "گازی": 6357,
      "‏‏": 6358,
      "ردی": 6359,
      "زیپی": 6360,
      "همشون": 6361,
      "تاجی": 6362,
      "براى": 6363,
      "خواستش": 6364,
      "سوپر": 6365,
      "مهربانش": 6366,
      "عصبان": 6367,
      "تقلب": 6368,
      "اطرافشان": 6369,
      "عمیقا": 6370,
      "گوسفندها": 6371,
      "چرخاندن": 6372,
      "شغلش": 6373,
      "خوشتیپ": 6374,
      "se": 6375,
      "جثه": 6376,
      "ضا": 6377,
      "یاری": 6378,
      "استادی": 6379,
      "استخون": 6380,
      "سیری": 6381,
      "لورا": 6382,
      "هرچی": 6383,
      "سوتی": 6384,
      "نیند": 6385,
      "کمکتان": 6386,
      "توانستی": 6387,
      "تعجبش": 6388,
      "ارزوها": 6389,
      "خواهرت": 6390,
      "بلینک": 6391,
      "ham": 6392,
      "شاگرد": 6393,
      "بشماریم": 6394,
      "معمول": 6395,
      "not": 6396,
      "بفر": 6397,
      "سپرش": 6398,
      "صید": 6399,
      "درهم": 6400,
      "بیابد": 6401,
      "گذاشتی": 6402,
      "شادانه": 6403,
      "ترسيده": 6404,
      "برگردانی": 6405,
      "سبزش": 6406,
      "بسازید": 6407,
      "قشنگیه": 6408,
      "صفاری": 6409,
      "اذی": 6410,
      "شناسند": 6411,
      "ig": 6412,
      "بترسو": 6413,
      "يش": 6414,
      "راور": 6415,
      "دونده": 6416,
      "مادی": 6417,
      "خیسی": 6418,
      "پراند": 6419,
      "سرمای": 6420,
      "منصف": 6421,
      "خودرای": 6422,
      "شناسد": 6423,
      "گرمشان": 6424,
      "سلری": 6425,
      "چرخوند": 6426,
      "کشیدم": 6427,
      "قایقرانی": 6428,
      "مطب": 6429,
      "موجودی": 6430,
      "یوز": 6431,
      "فلوتش": 6432,
      "لوبیاها": 6433,
      "خمیری": 6434,
      "دماغ": 6435,
      "انبوه": 6436,
      "سوییچ": 6437,
      "بخواهید": 6438,
      "زهر": 6439,
      "طاق": 6440,
      "نحی": 6441,
      "منزل": 6442,
      "اشتباهات": 6443,
      "گذره": 6444,
      "خودکارش": 6445,
      "گوشتی": 6446,
      "نشوی": 6447,
      "کمتری": 6448,
      "بالایی": 6449,
      "تحمل": 6450,
      "جینا": 6451,
      "جریان": 6452,
      "ببندم": 6453,
      "طبلش": 6454,
      "بنویسه": 6455,
      "ویديو": 6456,
      "خرابش": 6457,
      "لزج": 6458,
      "ood": 6459,
      "تلفنی": 6460,
      "نحوه": 6461,
      "تعمیرش": 6462,
      "مزاحمت": 6463,
      "یوزپلنگ": 6464,
      "ue": 6465,
      "جنا": 6466,
      "هوت": 6467,
      "يب": 6468,
      "میتواند": 6469,
      "میکسی": 6470,
      "دستم": 6471,
      "توانستید": 6472,
      "مسنی": 6473,
      "محتر": 6474,
      "فروغ": 6475,
      "نداشتن": 6476,
      "سرشار": 6477,
      "مرغی": 6478,
      "زردی": 6479,
      "ببرن": 6480,
      "کلیدها": 6481,
      "تمشک": 6482,
      "بنویسی": 6483,
      "پناهی": 6484,
      "فوتبالش": 6485,
      "مایل": 6486,
      "فقیری": 6487,
      "پاستلی": 6488,
      "دوختن": 6489,
      "استادیوم": 6490,
      "khe": 6491,
      "la": 6492,
      "میسی": 6493,
      "روان": 6494,
      "ابله": 6495,
      "اتمام": 6496,
      "میزنه": 6497,
      "پاهاش": 6498,
      "زنبورهای": 6499,
      "چشمانی": 6500,
      "تراش": 6501,
      "مصرف": 6502,
      "ترساندن": 6503,
      "باندپیچی": 6504,
      "موندند": 6505,
      "انتظارش": 6506,
      "oft": 6507,
      "بگيرد": 6508,
      "bo": 6509,
      "بپرسید": 6510,
      "سونه": 6511,
      "بریده": 6512,
      "گرمه": 6513,
      "پشمش": 6514,
      "سنگینه": 6515,
      "پذیرد": 6516,
      "سوپرای": 6517,
      "خشنی": 6518,
      "خشکش": 6519,
      "تمرک": 6520,
      "ضعیفی": 6521,
      "رایگان": 6522,
      "بدبختی": 6523,
      "تعویق": 6524,
      "مناظر": 6525,
      "pot": 6526,
      "ثابت": 6527,
      "بیارم": 6528,
      "اسرا": 6529,
      "پرهایش": 6530,
      "دیدیم": 6531,
      "سیبی": 6532,
      "مویش": 6533,
      "پروژه": 6534,
      "دویده": 6535,
      "مرموزی": 6536,
      "نشانت": 6537,
      "قایقی": 6538,
      "بتسی": 6539,
      "ایستد": 6540,
      "ساحلی": 6541,
      "لغز": 6542,
      "شعبده": 6543,
      "تهدید": 6544,
      "پرداختند": 6545,
      "بخوابیم": 6546,
      "دروغین": 6547,
      "هيچ": 6548,
      "text": 6549,
      "حواسش": 6550,
      "she": 6551,
      "زح": 6552,
      "زز": 6553,
      "فعالی": 6554,
      "لدا": 6555,
      "لاب": 6556,
      "کشه": 6557,
      "گريه": 6558,
      "بیاموزد": 6559,
      "اسانی": 6560,
      "بزرگم": 6561,
      "گرفتش": 6562,
      "پدرت": 6563,
      "جودی": 6564,
      "جهیدند": 6565,
      "کیکش": 6566,
      "برجشان": 6567,
      "ممم": 6568,
      "هواپیمایش": 6569,
      "دامنش": 6570,
      "لیوانش": 6571,
      "لرزش": 6572,
      "تهوع": 6573,
      "بمونم": 6574,
      "تایر": 6575,
      "کهنسال": 6576,
      "اسنپ": 6577,
      "پرخاشگر": 6578,
      "جیرجیرک": 6579,
      "بتونن": 6580,
      "بکوبد": 6581,
      "دچار": 6582,
      "مچاله": 6583,
      "نخواهی": 6584,
      "نفره": 6585,
      "چترش": 6586,
      "زیگی": 6587,
      "خیمی": 6588,
      "سیمی": 6589,
      "نیمی": 6590,
      "نیامده": 6591,
      "کوچکترین": 6592,
      "بانوی": 6593,
      "مردمان": 6594,
      "گونگی": 6595,
      "تابحال": 6596,
      "نزديك": 6597,
      "کاتی": 6598,
      "پنهانک": 6599,
      "اموزند": 6600,
      "دنیایی": 6601,
      "قطارش": 6602,
      "اختیار": 6603,
      "دندون": 6604,
      "حفاری": 6605,
      "فلش": 6606,
      "نوازشش": 6607,
      "جذابی": 6608,
      "استخوانش": 6609,
      "تمرکز": 6610,
      "ek": 6611,
      "ri": 6612,
      "بجو": 6613,
      "ضخیمی": 6614,
      "هلوی": 6615,
      "واز": 6616,
      "چگونگی": 6617,
      "‬‫": 6618,
      "میزدند": 6619,
      "لین": 6620,
      "اسنوی": 6621,
      "ناخوشایند": 6622,
      "اندکی": 6623,
      "ساعتش": 6624,
      "غذاش": 6625,
      "معام": 6626,
      "محتو": 6627,
      "فیگور": 6628,
      "تنظیم": 6629,
      "شهرشان": 6630,
      "چسباندند": 6631,
      "اصل": 6632,
      "سفرهای": 6633,
      "ترازوی": 6634,
      "موزیک": 6635,
      "یکسانی": 6636,
      "وینک": 6637,
      "فرفری": 6638,
      "چابک": 6639,
      "Spot": 6640,
      "bar": 6641,
      "ck": 6642,
      "بدوی": 6643,
      "جاس": 6644,
      "رن": 6645,
      "نرفتند": 6646,
      "چرم": 6647,
      "کباب": 6648,
      "ازن": 6649,
      "ارمغ": 6650,
      "سرکش": 6651,
      "دادنش": 6652,
      "یهو": 6653,
      "سوسن": 6654,
      "درختچه": 6655,
      "صدادار": 6656,
      "مردد": 6657,
      "کسب": 6658,
      "نبودم": 6659,
      "تنفس": 6660,
      "مشاج": 6661,
      "بشینیم": 6662,
      "خوانم": 6663,
      "شکیبا": 6664,
      "اکواری": 6665,
      "ارمغان": 6666,
      "ul": 6667,
      "ــ": 6668,
      "في": 6669,
      "وز": 6670,
      "گپ": 6671,
      "رافت": 6672,
      "ارف": 6673,
      "کنش": 6674,
      "گذرون": 6675,
      "هیپی": 6676,
      "رنگهای": 6677,
      "معمای": 6678,
      "حرفه": 6679,
      "برگردید": 6680,
      "خرچنگی": 6681,
      "باتجربه": 6682,
      "بشنوی": 6683,
      "بپزند": 6684,
      "ترسوند": 6685,
      "قراری": 6686,
      "نزنید": 6687,
      "دوستامون": 6688,
      "معامله": 6689,
      "مشاجره": 6690,
      "A": 6691,
      "بدید": 6692,
      "بچرخه": 6693,
      "باگی": 6694,
      "میلو": 6695,
      "میهمانی": 6696,
      "راتی": 6697,
      "راکون": 6698,
      "کردنه": 6699,
      "برگها": 6700,
      "بدین": 6701,
      "بدبویی": 6702,
      "جوجو": 6703,
      "مداوم": 6704,
      "گشتم": 6705,
      "مالیدن": 6706,
      "پهنی": 6707,
      "ليلى": 6708,
      "شکستم": 6709,
      "وسایلی": 6710,
      "قیمتش": 6711,
      "فهمند": 6712,
      "وووم": 6713,
      "نصای": 6714,
      "asht": 6715,
      "بخیه": 6716,
      "فعالیت": 6717,
      "ضعف": 6718,
      "نبا": 6719,
      "نشه": 6720,
      "انکه": 6721,
      "الات": 6722,
      "نیاورد": 6723,
      "نمیتونم": 6724,
      "گردانند": 6725,
      "نماند": 6726,
      "منتظرش": 6727,
      "چندی": 6728,
      "نباشی": 6729,
      "عروسکیش": 6730,
      "دفترش": 6731,
      "زیبایشان": 6732,
      "نترسد": 6733,
      "بزرگترها": 6734,
      "دستبندش": 6735,
      "خراشید": 6736,
      "پرینتر": 6737,
      "کوبیدند": 6738,
      "ترومپتش": 6739,
      "ببا": 6740,
      "تغ": 6741,
      "حجاب": 6742,
      "ذاره": 6743,
      "فعلا": 6744,
      "لنا": 6745,
      "شدنش": 6746,
      "اسون": 6747,
      "البالو": 6748,
      "بزاره": 6749,
      "بزرگترش": 6750,
      "بزرگتری": 6751,
      "ریت": 6752,
      "نمیومد": 6753,
      "یادم": 6754,
      "غمگینه": 6755,
      "ولش": 6756,
      "فلک": 6757,
      "اعماق": 6758,
      "جونز": 6759,
      "تعطیل": 6760,
      "دقتی": 6761,
      "نصایح": 6762,
      "گى": 6763,
      "باپ": 6764,
      "روتختی": 6765,
      "امضا": 6766,
      "لیس": 6767,
      "خونم": 6768,
      "لوت": 6769,
      "نامن": 6770,
      "بالاست": 6771,
      "خوردی": 6772,
      "بلندقد": 6773,
      "حیله": 6774,
      "فراز": 6775,
      "چوبش": 6776,
      "پوشش": 6777,
      "پیچاند": 6778,
      "سینما": 6779,
      "ندیدم": 6780,
      "سوپرایز": 6781,
      "زبرای": 6782,
      "شپ": 6783,
      "مهی": 6784,
      "نانی": 6785,
      "يق": 6786,
      "انگاه": 6787,
      "تورش": 6788,
      "گردیم": 6789,
      "دلار": 6790,
      "شستشو": 6791,
      "رساندن": 6792,
      "بپیوندند": 6793,
      "کوپتر": 6794,
      "بچرخان": 6795,
      "پرسروصدایی": 6796,
      "بين": 6797,
      "هدا": 6798,
      "میکنیم": 6799,
      "گیجی": 6800,
      "متعددی": 6801,
      "ویترین": 6802,
      "بانند": 6803,
      "پرورش": 6804,
      "خوبي": 6805,
      "چنان": 6806,
      "اطرافی": 6807,
      "ارزوهای": 6808,
      "بپردازد": 6809,
      "نورهای": 6810,
      "فیدو": 6811,
      "فهمم": 6812,
      "اعضای": 6813,
      "بچس": 6814,
      "سربازهای": 6815,
      "چشمکی": 6816,
      "استعدادی": 6817,
      "ent": 6818,
      "that": 6819,
      "پمپ": 6820,
      "ادویه": 6821,
      "اذیتش": 6822,
      "محتوای": 6823,
      "اکواریوم": 6824,
      "بپذیرد": 6825,
      "تایی": 6826,
      "ھا": 6827,
      "ترسه": 6828,
      "سوپش": 6829,
      "سوفیا": 6830,
      "خنديد": 6831,
      "چیپس": 6832,
      "دیگرشان": 6833,
      "کارشون": 6834,
      "رسیدیم": 6835,
      "بخواد": 6836,
      "مامانشون": 6837,
      "طرحی": 6838,
      "مشتری": 6839,
      "جمعیت": 6840,
      "سازنده": 6841,
      "نتونستند": 6842,
      "had": 6843,
      "مسیرش": 6844,
      "مسيله": 6845,
      "اشیاء": 6846,
      "بگذرونن": 6847,
      "رادیوی": 6848,
      "پوسیده": 6849,
      "انبوهی": 6850,
      "you": 6851,
      "عملی": 6852,
      "پوی": 6853,
      "رال": 6854,
      "رابش": 6855,
      "همسر": 6856,
      "منبع": 6857,
      "اینجوری": 6858,
      "سوم": 6859,
      "کارگر": 6860,
      "شنای": 6861,
      "ميوه": 6862,
      "بندش": 6863,
      "مارکت": 6864,
      "کثیفه": 6865,
      "سطلی": 6866,
      "برادرت": 6867,
      "گذراندم": 6868,
      "جدیت": 6869,
      "پوشانده": 6870,
      "متواضعی": 6871,
      "بمونیم": 6872,
      "ببخشند": 6873,
      "بگذرونیم": 6874,
      "عقبی": 6875,
      "داور": 6876,
      "میزدن": 6877,
      "روحی": 6878,
      "خوراک": 6879,
      "لوپ": 6880,
      "وقوع": 6881,
      "کردنشان": 6882,
      "دستورا": 6883,
      "تابش": 6884,
      "تشکیل": 6885,
      "ارای": 6886,
      "دیواری": 6887,
      "دلشان": 6888,
      "خوامش": 6889,
      "شامش": 6890,
      "مخفیانه": 6891,
      "مودبی": 6892,
      "وسایلت": 6893,
      "مفتخرم": 6894,
      "بپرسند": 6895,
      "گوسفندان": 6896,
      "بنویسیم": 6897,
      "گردانم": 6898,
      "اووکادوی": 6899,
      "تمبرها": 6900,
      "ارواح": 6901,
      "uz": 6902,
      "بدرخشان": 6903,
      "جسور": 6904,
      "شك": 6905,
      "کيک": 6906,
      "درهای": 6907,
      "دربیاورند": 6908,
      "نااگاه": 6909,
      "نامر": 6910,
      "نمیشه": 6911,
      "برگهای": 6912,
      "پایم": 6913,
      "افسرده": 6914,
      "ولي": 6915,
      "کلر": 6916,
      "حرفش": 6917,
      "موشکش": 6918,
      "شیراب": 6919,
      "علاقش": 6920,
      "دلپذیر": 6921,
      "مادربزرگت": 6922,
      "نانوایی": 6923,
      "پذیرفتند": 6924,
      "کودکی": 6925,
      "حياط": 6926,
      "هدفش": 6927,
      "ببيند": 6928,
      "سوپرمارکت": 6929,
      "شپشک": 6930,
      "اهم": 6931,
      "بتش": 6932,
      "بدانم": 6933,
      "سروی": 6934,
      "کات": 6935,
      "گلو": 6936,
      "ندا": 6937,
      "میتونن": 6938,
      "استلا": 6939,
      "بیاری": 6940,
      "برگزاری": 6941,
      "شنيد": 6942,
      "بازسازی": 6943,
      "پیوند": 6944,
      "پایت": 6945,
      "بهترینی": 6946,
      "مشغولی": 6947,
      "کلاهخود": 6948,
      "بستر": 6949,
      "بابایی": 6950,
      "رنگارنگش": 6951,
      "رسانم": 6952,
      "زووم": 6953,
      "راستی": 6954,
      "دایناسورها": 6955,
      "پاداشی": 6956,
      "چيزی": 6957,
      "shod": 6958,
      "عضله": 6959,
      "مرتبش": 6960,
      "بیابان": 6961,
      "برسانم": 6962,
      "سرویس": 6963,
      "نن": 6964,
      "يف": 6965,
      "روى": 6966,
      "نمیتونی": 6967,
      "برطرف": 6968,
      "غذاست": 6969,
      "سنگش": 6970,
      "شوخ": 6971,
      "شوک": 6972,
      "درستکار": 6973,
      "واض": 6974,
      "مشخص": 6975,
      "ترسناکه": 6976,
      "مجذوب": 6977,
      "هلش": 6978,
      "پنیری": 6979,
      "خشخاش": 6980,
      "قاپید": 6981,
      "فضانورد": 6982,
      "مصدوم": 6983,
      "ديگران": 6984,
      "نگیرد": 6985,
      "شمارم": 6986,
      "کثیفش": 6987,
      "كنيم": 6988,
      "کوبیدن": 6989,
      "ظاهرش": 6990,
      "بیسکویی": 6991,
      "هدایا": 6992,
      "gi": 6993,
      "غنی": 6994,
      "کج": 6995,
      "کریس": 6996,
      "انیه": 6997,
      "میبینه": 6998,
      "رایت": 6999,
      "بهاری": 7000,
      "دوسر": 7001,
      "پره": 7002,
      "براتون": 7003,
      "قدرها": 7004,
      "بخونی": 7005,
      "فشارد": 7006,
      "مشغله": 7007,
      "اجرها": 7008,
      "اسفنج": 7009,
      "برادران": 7010,
      "موداری": 7011,
      "درخشنده": 7012,
      "غارش": 7013,
      "جریحه": 7014,
      "خلاف": 7015,
      "دزدیدن": 7016,
      "اوضاع": 7017,
      "نحو": 7018,
      "de": 7019,
      "vid": 7020,
      "تقص": 7021,
      "عقر": 7022,
      "قابی": 7023,
      "نروند": 7024,
      "نرساند": 7025,
      "میدهد": 7026,
      "روبه": 7027,
      "داروی": 7028,
      "بازیی": 7029,
      "خیص": 7030,
      "رفتی": 7031,
      "بدش": 7032,
      "کله": 7033,
      "باغبان": 7034,
      "تشخیص": 7035,
      "بخوای": 7036,
      "طرز": 7037,
      "زنگوله": 7038,
      "مدادش": 7039,
      "جريت": 7040,
      "والدینتان": 7041,
      "ضرری": 7042,
      "برگردانیم": 7043,
      "پنبه": 7044,
      "بازیگوشی": 7045,
      "بنفشه": 7046,
      "منطقه": 7047,
      "بفرما": 7048,
      "Sue": 7049,
      "بپذیر": 7050,
      "ثبت": 7051,
      "دشت": 7052,
      "لعمل": 7053,
      "نفت": 7054,
      "میخندیدند": 7055,
      "رازش": 7056,
      "رولی": 7057,
      "دوستتون": 7058,
      "ابي": 7059,
      "سیخ": 7060,
      "گرفتار": 7061,
      "باشکوه": 7062,
      "شناسی": 7063,
      "نواری": 7064,
      "بارش": 7065,
      "تعارف": 7066,
      "عصایی": 7067,
      "خردمندانه": 7068,
      "داینو": 7069,
      "چهارچوب": 7070,
      "هدایای": 7071,
      "ith": 7072,
      "بشمارند": 7073,
      "مدوزا": 7074,
      "بیاریم": 7075,
      "مطابقت": 7076,
      "تقاضا": 7077,
      "دستورالعمل": 7078,
      "du": 7079,
      "ma": 7080,
      "زنجی": 7081,
      "مقصر": 7082,
      "هووف": 7083,
      "میفته": 7084,
      "میخواد": 7085,
      "دوشی": 7086,
      "توفان": 7087,
      "گفتگو": 7088,
      "تارا": 7089,
      "اینجایی": 7090,
      "گرفتید": 7091,
      "کارن": 7092,
      "فکرش": 7093,
      "چرخی": 7094,
      "بخشیدن": 7095,
      "اوازش": 7096,
      "پیشش": 7097,
      "پاشش": 7098,
      "صاحبان": 7099,
      "بونسی": 7100,
      "اژدهاها": 7101,
      "منحصربه": 7102,
      "انگورهای": 7103,
      "بازوها": 7104,
      "نگذار": 7105,
      "حریر": 7106,
      "غيرمنتظره": 7107,
      "تقصیر": 7108,
      "Ben": 7109,
      "She": 7110,
      "Sam": 7111,
      "with": 7112,
      "تنش": 7113,
      "ذره": 7114,
      "طعمی": 7115,
      "نبر": 7116,
      "میترسید": 7117,
      "بهبودی": 7118,
      "بازیاش": 7119,
      "موجب": 7120,
      "بخوانید": 7121,
      "جیجی": 7122,
      "قفسی": 7123,
      "شیفته": 7124,
      "فیلی": 7125,
      "ترسش": 7126,
      "حیاطش": 7127,
      "نکردید": 7128,
      "درسش": 7129,
      "دلداری": 7130,
      "انگیزه": 7131,
      "برگرداندن": 7132,
      "فضول": 7133,
      "ترسانده": 7134,
      "چسباندن": 7135,
      "اویختند": 7136,
      "بشوریم": 7137,
      "طاقت": 7138,
      "زحمت": 7139,
      "اعل": 7140,
      "بفرد": 7141,
      "بشویم": 7142,
      "تجهی": 7143,
      "حلی": 7144,
      "حله": 7145,
      "زات": 7146,
      "عادت": 7147,
      "عرق": 7148,
      "مباهات": 7149,
      "نشت": 7150,
      "ونا": 7151,
      "ژا": 7152,
      "میش": 7153,
      "میگفت": 7154,
      "خوار": 7155,
      "افتی": 7156,
      "احساسی": 7157,
      "بلندقامت": 7158,
      "قفلی": 7159,
      "جهت": 7160,
      "فرس": 7161,
      "لباسشویی": 7162,
      "طرفشان": 7163,
      "گویا": 7164,
      "دودو": 7165,
      "پلاس": 7166,
      "مدرنی": 7167,
      "چاقویی": 7168,
      "قايل": 7169,
      "جلوه": 7170,
      "فلاش": 7171,
      "موقعیت": 7172,
      "بیفتند": 7173,
      "خمیازه": 7174,
      "ould": 7175,
      "جسیکا": 7176,
      "رژ": 7177,
      "سرگ": 7178,
      "عبر": 7179,
      "نروید": 7180,
      "گانی": 7181,
      "می‏": 7182,
      "میخندیدن": 7183,
      "رامیز": 7184,
      "ستر": 7185,
      "پرمو": 7186,
      "سوتک": 7187,
      "برنداشتند": 7188,
      "لبخندش": 7189,
      "خواهری": 7190,
      "یادگاری": 7191,
      "پیله": 7192,
      "پیشانی": 7193,
      "نزده": 7194,
      "خورشيد": 7195,
      "ماجرایش": 7196,
      "کفشدوز": 7197,
      "تامین": 7198,
      "بریزی": 7199,
      "لیوانی": 7200,
      "مشتاقانه": 7201,
      "بپوشان": 7202,
      "بگیرتش": 7203,
      "سازمان": 7204,
      "متعفن": 7205,
      "ابزارها": 7206,
      "بالشتش": 7207,
      "پوشاندن": 7208,
      "چيست": 7209,
      "هلوها": 7210,
      "kho": 7211,
      "الگوهای": 7212,
      "بیسکوییت": 7213,
      "da": 7214,
      "بگم": 7215,
      "بسوزاند": 7216,
      "کاهو": 7217,
      "میخواهم": 7218,
      "یکباره": 7219,
      "ماتی": 7220,
      "الارم": 7221,
      "ریواس": 7222,
      "رویید": 7223,
      "توپچه": 7224,
      "کارکنان": 7225,
      "کیلا": 7226,
      "شیرش": 7227,
      "وارونه": 7228,
      "جنگیدند": 7229,
      "چیزهایشان": 7230,
      "چشیده": 7231,
      "جوابش": 7232,
      "دلنشین": 7233,
      "پریز": 7234,
      "فانتزی": 7235,
      "تصاویرش": 7236,
      "بچینی": 7237,
      "موتوری": 7238,
      "نویسم": 7239,
      "نياز": 7240,
      "بمونن": 7241,
      "ght": 7242,
      "بفهمیم": 7243,
      "فرسوده": 7244,
      "lo": 7245,
      "na": 7246,
      "pp": 7247,
      "بکنید": 7248,
      "جکی": 7249,
      "زخ": 7250,
      "عسلی": 7251,
      "گشود": 7252,
      "باها": 7253,
      "اییم": 7254,
      "اسکیت": 7255,
      "چیپ": 7256,
      "پایشان": 7257,
      "قرمزت": 7258,
      "مشابه": 7259,
      "دعو": 7260,
      "مقابله": 7261,
      "برادرند": 7262,
      "حمامش": 7263,
      "بشنوه": 7264,
      "قهرمانی": 7265,
      "راستش": 7266,
      "بدوزد": 7267,
      "اينکه": 7268,
      "بذارید": 7269,
      "راندن": 7270,
      "فرصتی": 7271,
      "برگردونش": 7272,
      "نحیف": 7273,
      "عبرتی": 7274,
      "Yek": 7275,
      "roo": 7276,
      "دیک": 7277,
      "رهایش": 7278,
      "فد": 7279,
      "مف": 7280,
      "نهای": 7281,
      "یابی": 7282,
      "دربیاره": 7283,
      "الف": 7284,
      "لوک": 7285,
      "رفتاری": 7286,
      "کارم": 7287,
      "دانایی": 7288,
      "پینگ": 7289,
      "نیستیم": 7290,
      "محلی": 7291,
      "شادش": 7292,
      "رقصش": 7293,
      "مرغزار": 7294,
      "روحیه": 7295,
      "شستش": 7296,
      "نردبانی": 7297,
      "اعمال": 7298,
      "مایع": 7299,
      "لجبازی": 7300,
      "توییتی": 7301,
      "کانگوروی": 7302,
      "غلتاندن": 7303,
      "بشمارم": 7304,
      "کارای": 7305,
      "منصفانه": 7306,
      "نامرتب": 7307,
      "واضح": 7308,
      "تجهیزات": 7309,
      "ماتیلدا": 7310,
      "did": 7311,
      "par": 7312,
      "ta": 7313,
      "بشوند": 7314,
      "لری": 7315,
      "ناس": 7316,
      "نترسیدند": 7317,
      "‎‎": 7318,
      "میایی": 7319,
      "زیپر": 7320,
      "الجثه": 7321,
      "تیتی": 7322,
      "توانيم": 7323,
      "اشنایی": 7324,
      "هرروز": 7325,
      "صداي": 7326,
      "خرج": 7327,
      "بوند": 7328,
      "ناراحتم": 7329,
      "خرسند": 7330,
      "حرکتی": 7331,
      "لطف": 7332,
      "سرشون": 7333,
      "میرسه": 7334,
      "شربت": 7335,
      "خاراند": 7336,
      "بهمریختگی": 7337,
      "بینید": 7338,
      "موزها": 7339,
      "لیموهای": 7340,
      "شویند": 7341,
      "کبوترها": 7342,
      "هايت": 7343,
      "نازکی": 7344,
      "بترسانند": 7345,
      "ظاهری": 7346,
      "بجنگد": 7347,
      "پوسیدن": 7348,
      "نهایتا": 7349,
      "ge": 7350,
      "ur": 7351,
      "بچسباند": 7352,
      "تكان": 7353,
      "زاغ": 7354,
      "شکنند": 7355,
      "فون": 7356,
      "فين": 7357,
      "نهر": 7358,
      "پام": 7359,
      "پلو": 7360,
      "پتی": 7361,
      "اسا": 7362,
      "تاپ": 7363,
      "سرعتی": 7364,
      "نگاهشان": 7365,
      "زندگى": 7366,
      "جعه": 7367,
      "دارش": 7368,
      "تشكر": 7369,
      "پدری": 7370,
      "کنارت": 7371,
      "نقاط": 7372,
      "بشید": 7373,
      "ساختمون": 7374,
      "میرسد": 7375,
      "مطی": 7376,
      "سوراخش": 7377,
      "برادرها": 7378,
      "ظرفی": 7379,
      "پرتگاه": 7380,
      "موزهای": 7381,
      "نوزادش": 7382,
      "نوارهای": 7383,
      "غافلگیرانه": 7384,
      "بخوابید": 7385,
      "ame": 7386,
      "جاروب": 7387,
      "تغیی": 7388,
      "عقربه": 7389,
      "کفشدوزک": 7390,
      "ببو": 7391,
      "زور": 7392,
      "غژ": 7393,
      "قامتی": 7394,
      "باارزش": 7395,
      "میرم": 7396,
      "راف": 7397,
      "دريا": 7398,
      "خوشامد": 7399,
      "مردمش": 7400,
      "قدرتی": 7401,
      "واداشت": 7402,
      "حیوانش": 7403,
      "سمتی": 7404,
      "شادترین": 7405,
      "فاض": 7406,
      "برگردونه": 7407,
      "بگذرد": 7408,
      "پیچیدن": 7409,
      "کفشاش": 7410,
      "سفیدش": 7411,
      "مهربونه": 7412,
      "بنفشش": 7413,
      "کلویی": 7414,
      "کوچیکش": 7415,
      "پوستر": 7416,
      "ديدن": 7417,
      "خوندند": 7418,
      "مخصوصی": 7419,
      "غیرمم": 7420,
      "سخاو": 7421,
      "قاشقش": 7422,
      "ابزاری": 7423,
      "ذارم": 7424,
      "غصه": 7425,
      "لش": 7426,
      "مسل": 7427,
      "نمونه": 7428,
      "هزینه": 7429,
      "پپر": 7430,
      "چل": 7431,
      "انطور": 7432,
      "باط": 7433,
      "درپوش": 7434,
      "خواید": 7435,
      "پرم": 7436,
      "لاغری": 7437,
      "سگم": 7438,
      "بنویسند": 7439,
      "خودتون": 7440,
      "نوبتش": 7441,
      "نزدشان": 7442,
      "جورابش": 7443,
      "فاظ": 7444,
      "پزم": 7445,
      "دلت": 7446,
      "مادربزرگم": 7447,
      "گیاهی": 7448,
      "مخفیگاه": 7449,
      "گذراندیم": 7450,
      "هیولاها": 7451,
      "بپرسی": 7452,
      "بپوشیم": 7453,
      "فشردن": 7454,
      "ماجرایشان": 7455,
      "مجددا": 7456,
      "اعلام": 7457,
      "فاضلاب": 7458,
      "بھ": 7459,
      "بترسد": 7460,
      "تنده": 7461,
      "تغذ": 7462,
      "حدا": 7463,
      "حفاظ": 7464,
      "خنگ": 7465,
      "خبری": 7466,
      "رحم": 7467,
      "سیکلت": 7468,
      "طبع": 7469,
      "قاط": 7470,
      "نشدن": 7471,
      "اسبش": 7472,
      "اسپارکی": 7473,
      "سرحال": 7474,
      "اشتباها": 7475,
      "صداقت": 7476,
      "سختش": 7477,
      "سبکی": 7478,
      "پستخانه": 7479,
      "لغزش": 7480,
      "بخوریمش": 7481,
      "نیکو": 7482,
      "فرستادند": 7483,
      "چيزهاي": 7484,
      "محوطه": 7485,
      "نامید": 7486,
      "سخاوتمند": 7487,
      "ked": 7488,
      "بیکی": 7489,
      "نکش": 7490,
      "نکت": 7491,
      "نیکی": 7492,
      "نخوری": 7493,
      "وزد": 7494,
      "پات": 7495,
      "پاندی": 7496,
      "کتابه": 7497,
      "مات": 7498,
      "ترق": 7499,
      "سرپناه": 7500,
      "ناتوان": 7501,
      "ناطی": 7502,
      "کریم": 7503,
      "لبریز": 7504,
      "کارگران": 7505,
      "بالاش": 7506,
      "امین": 7507,
      "راحتش": 7508,
      "متوازن": 7509,
      "متاسفند": 7510,
      "بخشیدند": 7511,
      "پلاستیک": 7512,
      "پاشند": 7513,
      "ane": 7514,
      "سانتا": 7515,
      "دینو": 7516,
      "چمدانش": 7517,
      "پراکند": 7518,
      "کلاهم": 7519,
      "پولیش": 7520,
      "bazi": 7521,
      "ظاهرا": 7522,
      "نوازشی": 7523,
      "chi": 7524,
      "تغذیه": 7525,
      "pro": 7526,
      "ze": 7527,
      "بکشید": 7528,
      "ثانیه": 7529,
      "خری": 7530,
      "خطی": 7531,
      "زبانی": 7532,
      "لاین": 7533,
      "نود": 7534,
      "میمونی": 7535,
      "لینا": 7536,
      "لیلي": 7537,
      "زیگ": 7538,
      "دوره": 7539,
      "دويدند": 7540,
      "اهدا": 7541,
      "ناك": 7542,
      "شهد": 7543,
      "پسرهای": 7544,
      "بلندتری": 7545,
      "جادوگری": 7546,
      "اخمو": 7547,
      "خوابند": 7548,
      "بنابراين": 7549,
      "مارها": 7550,
      "تارهای": 7551,
      "مغناطی": 7552,
      "پرندگانی": 7553,
      "پیچد": 7554,
      "بریزم": 7555,
      "کلیک": 7556,
      "بنویسید": 7557,
      "کراواتش": 7558,
      "تفریحی": 7559,
      "گردوها": 7560,
      "جزيی": 7561,
      "پايان": 7562,
      "هلیکوپتر": 7563,
      "goft": 7564,
      "ly": 7565,
      "فلی": 7566,
      "كت": 7567,
      "هزار": 7568,
      "بیست": 7569,
      "کندتر": 7570,
      "پرسر": 7571,
      "پرمشغله": 7572,
      "موث": 7573,
      "مونم": 7574,
      "کمکشون": 7575,
      "برانند": 7576,
      "دستمالی": 7577,
      "اراسته": 7578,
      "فراری": 7579,
      "وقتى": 7580,
      "بشینم": 7581,
      "بشقابی": 7582,
      "ساختی": 7583,
      "تارعنکبوتی": 7584,
      "ایستند": 7585,
      "پولدار": 7586,
      "زمستانی": 7587,
      "زمستون": 7588,
      "خمره": 7589,
      "موقعی": 7590,
      "باندپیچ": 7591,
      "ابزارهایش": 7592,
      "کامپیوترش": 7593,
      "معنایی": 7594,
      "شرمسار": 7595,
      "دشمن": 7596,
      "بیاورید": 7597,
      "che": 7598,
      "ia": 7599,
      "بچش": 7600,
      "تميز": 7601,
      "غاتی": 7602,
      "نلی": 7603,
      "نهايت": 7604,
      "امانت": 7605,
      "دارا": 7606,
      "زیاده": 7607,
      "نشاند": 7608,
      "غیرعادی": 7609,
      "ماندهی": 7610,
      "مارش": 7611,
      "بخشمت": 7612,
      "دیوارش": 7613,
      "بریزه": 7614,
      "بشنوم": 7615,
      "کلیسای": 7616,
      "قفسش": 7617,
      "اندیشید": 7618,
      "سازماندهی": 7619,
      "تزيینی": 7620,
      "اسکوی": 7621,
      "hal": 7622,
      "گير": 7623,
      "تایید": 7624,
      "بفروشند": 7625,
      "said": 7626,
      "فضاپیما": 7627,
      "نامناسب": 7628,
      "دوشیزه": 7629,
      "غیرممکن": 7630,
      "ce": 7631,
      "بجه": 7632,
      "بشوم": 7633,
      "شار": 7634,
      "طویل": 7635,
      "کشان": 7636,
      "هارو": 7637,
      "سربر": 7638,
      "اشکار": 7639,
      "شکافته": 7640,
      "یادشان": 7641,
      "تاباند": 7642,
      "مانی": 7643,
      "ولای": 7644,
      "قرمزم": 7645,
      "تونند": 7646,
      "حرکاتی": 7647,
      "بشویی": 7648,
      "خوابه": 7649,
      "دراور": 7650,
      "رقصی": 7651,
      "نباشیم": 7652,
      "خارشی": 7653,
      "خارپشت": 7654,
      "حساد": 7655,
      "قايق": 7656,
      "پير": 7657,
      "پذیرش": 7658,
      "معناست": 7659,
      "ناشیانه": 7660,
      "بشویید": 7661,
      "ازردگی": 7662,
      "مدیریت": 7663,
      "حفاظت": 7664,
      "ful": 7665,
      "um": 7666,
      "yad": 7667,
      "yli": 7668,
      "تین": 7669,
      "تمامی": 7670,
      "حقه": 7671,
      "شغلی": 7672,
      "قولی": 7673,
      "نکنم": 7674,
      "نزنی": 7675,
      "میخورد": 7676,
      "میخندید": 7677,
      "ستونی": 7678,
      "دوستند": 7679,
      "استرس": 7680,
      "بیگ": 7681,
      "اسرار": 7682,
      "توانا": 7683,
      "پیدات": 7684,
      "بنوا": 7685,
      "خریم": 7686,
      "پاییز": 7687,
      "نجوا": 7688,
      "شونده": 7689,
      "قیق": 7690,
      "چشیدن": 7691,
      "دریچه": 7692,
      "اموزان": 7693,
      "روشنایی": 7694,
      "قشنگن": 7695,
      "مجل": 7696,
      "انگي": 7697,
      "اصابت": 7698,
      "چشمای": 7699,
      "بویش": 7700,
      "اشتباهش": 7701,
      "رایان": 7702,
      "چسبانند": 7703,
      "مایوس": 7704,
      "بپیوندم": 7705,
      "تبریک": 7706,
      "نخورید": 7707,
      "تراکتور": 7708,
      "گسترش": 7709,
      "boz": 7710,
      "ژاکت": 7711,
      "pe": 7712,
      "up": 7713,
      "خشنود": 7714,
      "عر": 7715,
      "غده": 7716,
      "نخواهید": 7717,
      "ووش": 7718,
      "بااستعداد": 7719,
      "میدونم": 7720,
      "میارم": 7721,
      "بیت": 7722,
      "دیدش": 7723,
      "مادران": 7724,
      "کارتونی": 7725,
      "اقامت": 7726,
      "کوچولویش": 7727,
      "خرند": 7728,
      "بوزینه": 7729,
      "جالبش": 7730,
      "خوابد": 7731,
      "ترسیم": 7732,
      "دلسوز": 7733,
      "زردرنگی": 7734,
      "پیرش": 7735,
      "طنابش": 7736,
      "فنس": 7737,
      "مشکلش": 7738,
      "الودی": 7739,
      "درخواستی": 7740,
      "شلوارهای": 7741,
      "اولیه": 7742,
      "روفوس": 7743,
      "جذب": 7744,
      "چسبوند": 7745,
      "هايشان": 7746,
      "بگذرانید": 7747,
      "رفیق": 7748,
      "ome": 7749,
      "ابشار": 7750,
      "بچرخم": 7751,
      "سرگرد": 7752,
      "مفر": 7753,
      "یاب": 7754,
      "انطرف": 7755,
      "ازنه": 7756,
      "اسود": 7757,
      "پرجهش": 7758,
      "ابنبا": 7759,
      "سیس": 7760,
      "خوشحالش": 7761,
      "ناراضی": 7762,
      "موازنه": 7763,
      "احترا": 7764,
      "باندی": 7765,
      "سازیم": 7766,
      "نوشد": 7767,
      "جوون": 7768,
      "مالک": 7769,
      "دلاور": 7770,
      "لویش": 7771,
      "کلیدش": 7772,
      "انگیزتر": 7773,
      "غریدن": 7774,
      "مدادها": 7775,
      "واقعیت": 7776,
      "ایستادن": 7777,
      "برنگشتند": 7778,
      "زانویت": 7779,
      "بنوشم": 7780,
      "بچرخند": 7781,
      "کروات": 7782,
      "افرین": 7783,
      "ارایشی": 7784,
      "نکته": 7785,
      "day": 7786,
      "so": 7787,
      "tar": 7788,
      "تما": 7789,
      "حکم": 7790,
      "شفا": 7791,
      "نکی": 7792,
      "نگرفتند": 7793,
      "نویسند": 7794,
      "ووم": 7795,
      "چکه": 7796,
      "چینند": 7797,
      "کتا": 7798,
      "کاف": 7799,
      "میری": 7800,
      "ازید": 7801,
      "ازارد": 7802,
      "خیلي": 7803,
      "پرها": 7804,
      "سرخورد": 7805,
      "کوبند": 7806,
      "براقش": 7807,
      "هرکس": 7808,
      "نمیکرد": 7809,
      "نمیدانست": 7810,
      "جاروی": 7811,
      "کارخونه": 7812,
      "بالم": 7813,
      "قطرات": 7814,
      "بخوان": 7815,
      "میزها": 7816,
      "ادامسی": 7817,
      "بندازیم": 7818,
      "شبانه": 7819,
      "تندرست": 7820,
      "گیاهش": 7821,
      "برفان": 7822,
      "ang": 7823,
      "پتوها": 7824,
      "پازلش": 7825,
      "تستش": 7826,
      "بنوازم": 7827,
      "پنچر": 7828,
      "پاپکورن": 7829,
      "کاشتن": 7830,
      "رقاصه": 7831,
      "غلیظی": 7832,
      "چهچهه": 7833,
      "They": 7834,
      "شيرين": 7835,
      "بیک": 7836,
      "سيم": 7837,
      "قاق": 7838,
      "بازیشون": 7839,
      "کوش": 7840,
      "مکار": 7841,
      "لويی": 7842,
      "ناخت": 7843,
      "برسونه": 7844,
      "شنوه": 7845,
      "تمامش": 7846,
      "نشناخت": 7847,
      "کلن": 7848,
      "چرخند": 7849,
      "پزشکی": 7850,
      "ندارن": 7851,
      "چراغی": 7852,
      "ترات": 7853,
      "اژدهایی": 7854,
      "لیمویی": 7855,
      "فشارش": 7856,
      "شلوارک": 7857,
      "بلینکی": 7858,
      "اومدم": 7859,
      "صیقل": 7860,
      "چيزي": 7861,
      "موتورسیکل": 7862,
      "بفرستیم": 7863,
      "چيزها": 7864,
      "مطابق": 7865,
      "provid": 7866,
      "مغناطیس": 7867,
      "He": 7868,
      "aye": 7869,
      "ry": 7870,
      "ببارد": 7871,
      "حاصل": 7872,
      "نانش": 7873,
      "گزید": 7874,
      "انرا": 7875,
      "مینا": 7876,
      "دات": 7877,
      "الایام": 7878,
      "منصرف": 7879,
      "اینم": 7880,
      "رفتم": 7881,
      "بلع": 7882,
      "سگه": 7883,
      "پسش": 7884,
      "دانستن": 7885,
      "جولیا": 7886,
      "راهشان": 7887,
      "نشانشان": 7888,
      "جایگاه": 7889,
      "دیواره": 7890,
      "اعتمادی": 7891,
      "دراورده": 7892,
      "بونس": 7893,
      "رفتارش": 7894,
      "شلواری": 7895,
      "شلغم": 7896,
      "اذین": 7897,
      "مخصوصش": 7898,
      "بشماری": 7899,
      "هوشمندانه": 7900,
      "نگذارد": 7901,
      "اهالی": 7902,
      "بکاریم": 7903,
      "انعکاس": 7904,
      "جاسوس": 7905,
      "اسکوییکی": 7906,
      "bozor": 7907,
      "اسودگی": 7908,
      "bood": 7909,
      "­ها": 7910,
      "رسو": 7911,
      "شرای": 7912,
      "عموش": 7913,
      "كنار": 7914,
      "متون": 7915,
      "نها": 7916,
      "هنی": 7917,
      "وزنش": 7918,
      "يون": 7919,
      "پسته": 7920,
      "چماق": 7921,
      "‎به": 7922,
      "روشی": 7923,
      "گفتید": 7924,
      "الگویی": 7925,
      "ادکلن": 7926,
      "پرنور": 7927,
      "منقل": 7928,
      "متقا": 7929,
      "بلان": 7930,
      "جاهایی": 7931,
      "دستهایش": 7932,
      "پیامد": 7933,
      "رنگای": 7934,
      "نزدند": 7935,
      "کلاسی": 7936,
      "زیرک": 7937,
      "سمند": 7938,
      "درختا": 7939,
      "نظرت": 7940,
      "جادویش": 7941,
      "جادويی": 7942,
      "گیرید": 7943,
      "سالخورده": 7944,
      "نوزادی": 7945,
      "نرمه": 7946,
      "تبلی": 7947,
      "دلخور": 7948,
      "مرغاب": 7949,
      "شامپوی": 7950,
      "معلق": 7951,
      "قوری": 7952,
      "دندانپزشک": 7953,
      "خطرات": 7954,
      "ish": 7955,
      "تهدیدی": 7956,
      "بذارم": 7957,
      "وفادارش": 7958,
      "شايد": 7959,
      "بنوشی": 7960,
      "نمایان": 7961,
      "ارومی": 7962,
      "متقاعد": 7963,
      "po": 7964,
      "بچسب": 7965,
      "بگنج": 7966,
      "بدانی": 7967,
      "حساس": 7968,
      "زاگ": 7969,
      "لم": 7970,
      "لایت": 7971,
      "هن": 7972,
      "ژامه": 7973,
      "کي": 7974,
      "انتق": 7975,
      "میدی": 7976,
      "مینی": 7977,
      "یکروز": 7978,
      "بوداده": 7979,
      "ایس": 7980,
      "ایمان": 7981,
      "ماکت": 7982,
      "دوستمان": 7983,
      "سرنخ": 7984,
      "خندوند": 7985,
      "اندرو": 7986,
      "متک": 7987,
      "افتادی": 7988,
      "احساسش": 7989,
      "ساعتی": 7990,
      "پیژامه": 7991,
      "حیح": 7992,
      "بدرود": 7993,
      "گلز": 7994,
      "دوران": 7995,
      "زمینه": 7996,
      "دنبالم": 7997,
      "جنگی": 7998,
      "اوردید": 7999,
      "بشکنی": 8000,
      "ارزانی": 8001,
      "ارزشی": 8002,
      "ماندگی": 8003,
      "سالي": 8004,
      "صبرانه": 8005,
      "بینن": 8006,
      "جوانا": 8007,
      "کدوهای": 8008,
      "احتیاطی": 8009,
      "فشرده": 8010,
      "بچینه": 8011,
      "کلاسش": 8012,
      "ابریش": 8013,
      "بشماره": 8014,
      "تاثی": 8015,
      "out": 8016,
      "میکروسکو": 8017,
      "کاشف": 8018,
      "ili": 8019,
      "تصادفی": 8020,
      "دندانهای": 8021,
      "ویدیوی": 8022,
      "گذرونن": 8023,
      "دیکشن": 8024,
      "بسنج": 8025,
      "تدری": 8026,
      "حسا": 8027,
      "صبوری": 8028,
      "طراح": 8029,
      "كني": 8030,
      "لاش": 8031,
      "مگه": 8032,
      "مغرو": 8033,
      "روبالشتی": 8034,
      "هالی": 8035,
      "درمانده": 8036,
      "درماندگی": 8037,
      "زدنشان": 8038,
      "اینور": 8039,
      "ریبون": 8040,
      "نمیتوانست": 8041,
      "جازی": 8042,
      "ماشینشان": 8043,
      "دارین": 8044,
      "گذرانیم": 8045,
      "فراگی": 8046,
      "فاکسی": 8047,
      "زنن": 8048,
      "ملح": 8049,
      "کنجکاوند": 8050,
      "مارتا": 8051,
      "تبری": 8052,
      "مغزش": 8053,
      "تونستم": 8054,
      "نشدی": 8055,
      "بیلش": 8056,
      "بپرس": 8057,
      "جلویش": 8058,
      "هشدارهای": 8059,
      "oun": 8060,
      "ویولنش": 8061,
      "بسکتبالش": 8062,
      "خرمایی": 8063,
      "خدمه": 8064,
      "مرمت": 8065,
      "kheyli": 8066,
      "عملیات": 8067,
      "ut": 8068,
      "بنگ": 8069,
      "بدانیم": 8070,
      "خل": 8071,
      "زرنگی": 8072,
      "ظرافت": 8073,
      "میذاشت": 8074,
      "رونده": 8075,
      "اوج": 8076,
      "درگیری": 8077,
      "ایزی": 8078,
      "بازیگری": 8079,
      "بیبی": 8080,
      "انهای": 8081,
      "خوشمان": 8082,
      "تواني": 8083,
      "موکت": 8084,
      "موهایم": 8085,
      "سوتش": 8086,
      "پدرم": 8087,
      "شیرهای": 8088,
      "بغلت": 8089,
      "وقتشان": 8090,
      "تحقیق": 8091,
      "ریختی": 8092,
      "خواندنش": 8093,
      "علاق": 8094,
      "اخترا": 8095,
      "پوستشان": 8096,
      "برگردانید": 8097,
      "سوختگی": 8098,
      "نتای": 8099,
      "حرکتش": 8100,
      "ظریفش": 8101,
      "بچرخیم": 8102,
      "بلغزند": 8103,
      "دندانهایش": 8104,
      "بچرخانند": 8105,
      "تبلیغاتی": 8106,
      "ملحفه": 8107,
      "dasht": 8108,
      "fe": 8109,
      "جشنی": 8110,
      "عات": 8111,
      "وست": 8112,
      "ورات": 8113,
      "يکی": 8114,
      "پان": 8115,
      "‫‫": 8116,
      "روت": 8117,
      "امون": 8118,
      "ایسی": 8119,
      "ادگی": 8120,
      "ترند": 8121,
      "بزرگت": 8122,
      "مورال": 8123,
      "هرچیز": 8124,
      "سوزد": 8125,
      "برباید": 8126,
      "اونور": 8127,
      "خوردنشان": 8128,
      "رنگها": 8129,
      "نزدش": 8130,
      "پروا": 8131,
      "گله": 8132,
      "معرو": 8133,
      "غذاهایی": 8134,
      "بخاری": 8135,
      "افتابي": 8136,
      "نگرانم": 8137,
      "شیرینش": 8138,
      "وضع": 8139,
      "وایست": 8140,
      "رساندند": 8141,
      "انگیزترین": 8142,
      "نانوا": 8143,
      "بلاک": 8144,
      "ومدن": 8145,
      "شعری": 8146,
      "بيشتر": 8147,
      "مغزهای": 8148,
      "پولین": 8149,
      "رسانده": 8150,
      "مطالب": 8151,
      "کاشته": 8152,
      "جلبک": 8153,
      "بفروشم": 8154,
      "محترمانه": 8155,
      "نتایج": 8156,
      "man": 8157,
      "mom": 8158,
      "pl": 8159,
      "بگذرانی": 8160,
      "خارد": 8161,
      "كتاب": 8162,
      "نخواهیم": 8163,
      "‎و": 8164,
      "میبرد": 8165,
      "راك": 8166,
      "روبروی": 8167,
      "توتی": 8168,
      "روزه": 8169,
      "خیالی": 8170,
      "نگونه": 8171,
      "مناس": 8172,
      "خته": 8173,
      "لویی": 8174,
      "رفتنش": 8175,
      "نمیشد": 8176,
      "ورن": 8177,
      "دستفروش": 8178,
      "بازهم": 8179,
      "شکمم": 8180,
      "اطه": 8181,
      "گلش": 8182,
      "نبودی": 8183,
      "معنا": 8184,
      "گردونه": 8185,
      "ترسيد": 8186,
      "ارزون": 8187,
      "تختخوابش": 8188,
      "نکردیم": 8189,
      "پنهانش": 8190,
      "برادرهایی": 8191,
      "فنر": 8192,
      "فنری": 8193,
      "نخش": 8194,
      "وندی": 8195,
      "تشویقت": 8196,
      "ناهارت": 8197,
      "ترامپولین": 8198,
      "گارسون": 8199,
      "ترکیب": 8200,
      "very": 8201,
      "مطیعی": 8202,
      "دیکشنری": 8203,
      "can": 8204,
      "جار": 8205,
      "حبابی": 8206,
      "زب": 8207,
      "قلی": 8208,
      "مجازی": 8209,
      "میند": 8210,
      "بهتون": 8211,
      "کردنی": 8212,
      "همين": 8213,
      "الهام": 8214,
      "احاطه": 8215,
      "بازگشتند": 8216,
      "شکمت": 8217,
      "تشنگی": 8218,
      "پشتکار": 8219,
      "فروتنی": 8220,
      "خواهمش": 8221,
      "نتوانستم": 8222,
      "اوازت": 8223,
      "گرسنم": 8224,
      "چسبیدند": 8225,
      "تزریق": 8226,
      "داغی": 8227,
      "غیب": 8228,
      "عقبش": 8229,
      "کفشی": 8230,
      "گذارید": 8231,
      "پیکری": 8232,
      "اخرش": 8233,
      "راستگویی": 8234,
      "عملکرد": 8235,
      "پناهگاهی": 8236,
      "صرفا": 8237,
      "سوزاندن": 8238,
      "بازیکنان": 8239,
      "mikard": 8240,
      "دراورند": 8241,
      "هنرش": 8242,
      "متکبر": 8243,
      "ابریشمی": 8244,
      "av": 8245,
      "his": 8246,
      "بکی": 8247,
      "بترسی": 8248,
      "جزه": 8249,
      "هان": 8250,
      "کبودی": 8251,
      "باو": 8252,
      "می­": 8253,
      "اوف": 8254,
      "بازیگر": 8255,
      "روییده": 8256,
      "سگچه": 8257,
      "کرمک": 8258,
      "مرجانی": 8259,
      "پروازش": 8260,
      "معجزه": 8261,
      "قیافه": 8262,
      "حرفای": 8263,
      "کتابخونه": 8264,
      "اخبار": 8265,
      "کمپینگ": 8266,
      "شناگر": 8267,
      "ماربل": 8268,
      "بخشندگی": 8269,
      "صحرایی": 8270,
      "والد": 8271,
      "قویه": 8272,
      "بخرن": 8273,
      "مکعبش": 8274,
      "شلوارها": 8275,
      "اينكه": 8276,
      "تستر": 8277,
      "کمربندی": 8278,
      "اکروبات": 8279,
      "منظورت": 8280,
      "بخاراند": 8281,
      "پالتویش": 8282,
      "but": 8283,
      "بکارند": 8284,
      "برنگردد": 8285,
      "پرچمی": 8286,
      "پلوور": 8287,
      "احترامی": 8288,
      "Mia": 8289,
      "بخرید": 8290,
      "تس": 8291,
      "صو": 8292,
      "مقی": 8293,
      "مرمر": 8294,
      "هنرم": 8295,
      "يند": 8296,
      "کای": 8297,
      "گما": 8298,
      "میاره": 8299,
      "خواین": 8300,
      "اینگونه": 8301,
      "مایکی": 8302,
      "همش": 8303,
      "روزا": 8304,
      "روزهایشان": 8305,
      "پرقدرت": 8306,
      "سرجایش": 8307,
      "کوشید": 8308,
      "برامون": 8309,
      "هرکدوم": 8310,
      "سوزنی": 8311,
      "دهن": 8312,
      "دخترها": 8313,
      "کرن": 8314,
      "کیفت": 8315,
      "امدم": 8316,
      "شکافت": 8317,
      "بارکی": 8318,
      "جورابی": 8319,
      "اتاقمان": 8320,
      "بهترینت": 8321,
      "جنگند": 8322,
      "زنیم": 8323,
      "لطیف": 8324,
      "کنجکاوانه": 8325,
      "غذایت": 8326,
      "بینیش": 8327,
      "لرزاند": 8328,
      "کلوچ": 8329,
      "قدبلند": 8330,
      "مواظبت": 8331,
      "پتوهای": 8332,
      "they": 8333,
      "ویلن": 8334,
      "چهارتا": 8335,
      "پهناوری": 8336,
      "پدربزرگشان": 8337,
      "تیراندازی": 8338,
      "بپزه": 8339,
      "ناشنوایی": 8340,
      "صدفش": 8341,
      "نظمی": 8342,
      "نیرومندی": 8343,
      "دلتنگت": 8344,
      "end": 8345,
      "اطلاعات": 8346,
      "بشوره": 8347,
      "تعویض": 8348,
      "بگیم": 8349,
      "sm": 8350,
      "بپوشید": 8351,
      "تاز": 8352,
      "حرار": 8353,
      "شیه": 8354,
      "طال": 8355,
      "قق": 8356,
      "كث": 8357,
      "نره": 8358,
      "نپرید": 8359,
      "کالی": 8360,
      "میگذروندن": 8361,
      "امنه": 8362,
      "ازده": 8363,
      "ندهند": 8364,
      "رفتیم": 8365,
      "مواق": 8366,
      "کوچکم": 8367,
      "ونک": 8368,
      "کشيد": 8369,
      "ولگرد": 8370,
      "بدجوری": 8371,
      "باغشان": 8372,
      "جویدند": 8373,
      "مسدود": 8374,
      "مساوی": 8375,
      "محک": 8376,
      "کاپر": 8377,
      "مهمش": 8378,
      "کمرنگ": 8379,
      "مطلع": 8380,
      "فردای": 8381,
      "شدیدا": 8382,
      "پاشنده": 8383,
      "حقوق": 8384,
      "کیفم": 8385,
      "ادمای": 8386,
      "قدرتمندش": 8387,
      "برگردانم": 8388,
      "لوبیاهای": 8389,
      "نویسی": 8390,
      "عزیزترین": 8391,
      "بنوشیم": 8392,
      "عمرشان": 8393,
      "بنشینید": 8394,
      "حسابی": 8395,
      "خاردار": 8396,
      "اکروباتیک": 8397,
      "tim": 8398,
      "اکی": 8399,
      "خسیس": 8400,
      "دفاع": 8401,
      "سبو": 8402,
      "شلا": 8403,
      "ننه": 8404,
      "چرو": 8405,
      "باحالی": 8406,
      "میتوانست": 8407,
      "روانداز": 8408,
      "هاشو": 8409,
      "ایز": 8410,
      "پررو": 8411,
      "براقه": 8412,
      "برادری": 8413,
      "بابو": 8414,
      "زندانی": 8415,
      "دستانشان": 8416,
      "دستورات": 8417,
      "بازرگ": 8418,
      "بورم": 8419,
      "راحته": 8420,
      "ناگهانی": 8421,
      "گرمایی": 8422,
      "قدری": 8423,
      "چیزیه": 8424,
      "گردانی": 8425,
      "بدیه": 8426,
      "بشینی": 8427,
      "تعجبشان": 8428,
      "اطرافت": 8429,
      "بابات": 8430,
      "تختم": 8431,
      "تقسيم": 8432,
      "پریان": 8433,
      "پیشرفت": 8434,
      "مدادپاک": 8435,
      "دینا": 8436,
      "مسیرهای": 8437,
      "خریدم": 8438,
      "بيند": 8439,
      "بنوازند": 8440,
      "ديگه": 8441,
      "غازها": 8442,
      "happ": 8443,
      "بازوهایشان": 8444,
      "وظای": 8445,
      "درامده": 8446,
      "جسارت": 8447,
      "اسرارامیز": 8448,
      "بجهد": 8449,
      "شرایط": 8450,
      "ak": 8451,
      "بغلی": 8452,
      "جمل": 8453,
      "غلاف": 8454,
      "لاتش": 8455,
      "نزنند": 8456,
      "میانه": 8457,
      "میرود": 8458,
      "میومدن": 8459,
      "سیبش": 8460,
      "تیا": 8461,
      "ندهید": 8462,
      "مومش": 8463,
      "گوری": 8464,
      "گوساله": 8465,
      "بلندصدا": 8466,
      "نورا": 8467,
      "تکاند": 8468,
      "مرجان": 8469,
      "جویده": 8470,
      "قرمزشان": 8471,
      "تنور": 8472,
      "رقصان": 8473,
      "ماربازی": 8474,
      "کامیونت": 8475,
      "واردی": 8476,
      "تعمیرکار": 8477,
      "خیسش": 8478,
      "شکستیم": 8479,
      "زنگش": 8480,
      "تولدی": 8481,
      "شمعی": 8482,
      "پذیرا": 8483,
      "مفتخرند": 8484,
      "باورشان": 8485,
      "پتویی": 8486,
      "بيشت": 8487,
      "بایسته": 8488,
      "بذارن": 8489,
      "طلسمی": 8490,
      "گردنبندی": 8491,
      "مثلثی": 8492,
      "اردوجون": 8493,
      "جاشون": 8494,
      "رقم": 8495,
      "لذیذی": 8496,
      "لنگان": 8497,
      "itt": 8498,
      "واسه": 8499,
      "نامیدند": 8500,
      "بیارن": 8501,
      "باریکلا": 8502,
      "تقاضای": 8503,
      "بمب": 8504,
      "کریسمس": 8505,
      "کافیه": 8506,
      "بلانکت": 8507,
      "اختراع": 8508,
      "شیهه": 8509,
      "big": 8510,
      "were": 8511,
      "بوش": 8512,
      "بخواه": 8513,
      "بمال": 8514,
      "تاد": 8515,
      "جاسی": 8516,
      "حبو": 8517,
      "زره": 8518,
      "عدم": 8519,
      "قسمتی": 8520,
      "وسو": 8521,
      "کشت": 8522,
      "ان­ها": 8523,
      "میکشید": 8524,
      "یکورن": 8525,
      "فتی": 8526,
      "ازمونی": 8527,
      "شدنی": 8528,
      "مایکل": 8529,
      "اهان": 8530,
      "لور": 8531,
      "نمیتوانی": 8532,
      "گذرونده": 8533,
      "کاره": 8534,
      "تکلی": 8535,
      "بدزده": 8536,
      "مرحله": 8537,
      "یاخت": 8538,
      "کشیدی": 8539,
      "قایقم": 8540,
      "لطیفه": 8541,
      "اتشین": 8542,
      "ارزوهایشان": 8543,
      "مرغابه": 8544,
      "تونستی": 8545,
      "بقيه": 8546,
      "سیاهش": 8547,
      "برگردانده": 8548,
      "دندانه": 8549,
      "ماسکش": 8550,
      "نفسشان": 8551,
      "فنجانش": 8552,
      "ادمهای": 8553,
      "اينجا": 8554,
      "دوردستی": 8555,
      "شاهدختی": 8556,
      "غافلگیرکننده": 8557,
      "مسايل": 8558,
      "تمبرهای": 8559,
      "دانشمند": 8560,
      "حرکاتش": 8561,
      "بلغزد": 8562,
      "موتورسیکلتش": 8563,
      "play": 8564,
      "مقیاس": 8565,
      "هنرمند": 8566,
      "چروک": 8567,
      "حبوبات": 8568,
      "kha": 8569,
      "mar": 8570,
      "ذاری": 8571,
      "رب": 8572,
      "شي": 8573,
      "كنی": 8574,
      "نخوردند": 8575,
      "نهار": 8576,
      "هنده": 8577,
      "میزند": 8578,
      "میدن": 8579,
      "میدهم": 8580,
      "رالف": 8581,
      "خونی": 8582,
      "شتافت": 8583,
      "دوستون": 8584,
      "ادما": 8585,
      "ترموم": 8586,
      "سرخوردنی": 8587,
      "سیگار": 8588,
      "مادرها": 8589,
      "سوزش": 8590,
      "نیلی": 8591,
      "ورقه": 8592,
      "متعدد": 8593,
      "درخته": 8594,
      "بالشی": 8595,
      "نشکند": 8596,
      "درستشان": 8597,
      "منتهی": 8598,
      "حشراتی": 8599,
      "خانە": 8600,
      "سریعه": 8601,
      "زیرش": 8602,
      "پوشوند": 8603,
      "بابام": 8604,
      "ارامشان": 8605,
      "بیندازی": 8606,
      "گیاهانش": 8607,
      "چشمهای": 8608,
      "چشمهایشان": 8609,
      "نشونت": 8610,
      "کمانش": 8611,
      "انگشتانشان": 8612,
      "خریداری": 8613,
      "بادکنکی": 8614,
      "بخورمش": 8615,
      "شانسش": 8616,
      "بياي": 8617,
      "بیفتم": 8618,
      "موضوعات": 8619,
      "میخواستن": 8620,
      "شلپ": 8621,
      "ارزویت": 8622,
      "لرزی": 8623,
      "مرتبه": 8624,
      "رباتش": 8625,
      "بجنگند": 8626,
      "all": 8627,
      "كلاه": 8628,
      "موثر": 8629,
      "bozorg": 8630,
      "time": 8631,
      "بکن": 8632,
      "تشت": 8633,
      "جين": 8634,
      "زشته": 8635,
      "ساب": 8636,
      "صبری": 8637,
      "قي": 8638,
      "نشکست": 8639,
      "نتونه": 8640,
      "ينی": 8641,
      "پژ": 8642,
      "کارد": 8643,
      "کشاند": 8644,
      "املیا": 8645,
      "دري": 8646,
      "خونگی": 8647,
      "گرین": 8648,
      "ناع": 8649,
      "هرکسی": 8650,
      "توانستیم": 8651,
      "دویدنش": 8652,
      "جويی": 8653,
      "بخواهم": 8654,
      "بغلشان": 8655,
      "گردنه": 8656,
      "نگهبانی": 8657,
      "افتابگردون": 8658,
      "میرن": 8659,
      "شاهی": 8660,
      "شکلش": 8661,
      "سیمه": 8662,
      "جینی": 8663,
      "خارها": 8664,
      "مجبورم": 8665,
      "لیزری": 8666,
      "رسانی": 8667,
      "صورتت": 8668,
      "سراسیمه": 8669,
      "خاصه": 8670,
      "ببینیمش": 8671,
      "درونی": 8672,
      "سورپریز": 8673,
      "مریضی": 8674,
      "کانال": 8675,
      "خلاص": 8676,
      "بپیوندی": 8677,
      "دلتنگی": 8678,
      "شمارند": 8679,
      "ارتباط": 8680,
      "نگذشت": 8681,
      "فروختند": 8682,
      "ill": 8683,
      "چيزهای": 8684,
      "خوشتان": 8685,
      "شناسیم": 8686,
      "fort": 8687,
      "حسادتش": 8688,
      "تاثیرگ": 8689,
      "جاسیگاری": 8690,
      "nam": 8691,
      "oon": 8692,
      "ted": 8693,
      "بدرخ": 8694,
      "بسوز": 8695,
      "رسم": 8696,
      "شامی": 8697,
      "طاوو": 8698,
      "كم": 8699,
      "هرا": 8700,
      "ژان": 8701,
      "ژینا": 8702,
      "‫در": 8703,
      "ندادی": 8704,
      "درنمی": 8705,
      "خوکی": 8706,
      "همسان": 8707,
      "السا": 8708,
      "ترم": 8709,
      "ترمز": 8710,
      "پرتو": 8711,
      "پرانرژی": 8712,
      "سوي": 8713,
      "اشتراك": 8714,
      "دیگرانی": 8715,
      "باندا": 8716,
      "بالاي": 8717,
      "بدنی": 8718,
      "گلدون": 8719,
      "گرمم": 8720,
      "محص": 8721,
      "کمپ": 8722,
      "بخوردش": 8723,
      "بیندازم": 8724,
      "میریم": 8725,
      "اشیانه": 8726,
      "عالیی": 8727,
      "بخشیده": 8728,
      "شاخک": 8729,
      "کاميون": 8730,
      "پریشان": 8731,
      "صندوقی": 8732,
      "قدیمیه": 8733,
      "امتناع": 8734,
      "پیشنهادی": 8735,
      "زوز": 8736,
      "بزاریم": 8737,
      "صابونی": 8738,
      "جداگانه": 8739,
      "بچسبد": 8740,
      "سربازان": 8741,
      "سراغش": 8742,
      "بذرهای": 8743,
      "محتاطانه": 8744,
      "یونیکورن": 8745,
      "پلیورش": 8746,
      "بفروشه": 8747,
      "بشوری": 8748,
      "ویدیویی": 8749,
      "rooz": 8750,
      "بنوازی": 8751,
      "میکروسکوپش": 8752,
      "لاشه": 8753,
      "معروفی": 8754,
      "حرارت": 8755,
      "وسوسه": 8756,
      "car": 8757,
      "ll": 8758,
      "way": 8759,
      "بتابد": 8760,
      "حلو": 8761,
      "خلوت": 8762,
      "كامي": 8763,
      "مطرح": 8764,
      "نخورند": 8765,
      "واری": 8766,
      "میخواستند": 8767,
      "میشیم": 8768,
      "یمان": 8769,
      "توشه": 8770,
      "ارنج": 8771,
      "ماله": 8772,
      "تیغی": 8773,
      "اشکی": 8774,
      "کمکتون": 8775,
      "وقتا": 8776,
      "وییی": 8777,
      "دهانت": 8778,
      "جاي": 8779,
      "خودنمایی": 8780,
      "خرخر": 8781,
      "غذاشون": 8782,
      "سلامت": 8783,
      "فیونا": 8784,
      "لباسم": 8785,
      "قایقشان": 8786,
      "بشکنیم": 8787,
      "تختت": 8788,
      "گرسن": 8789,
      "چسبنده": 8790,
      "جغدی": 8791,
      "زانوش": 8792,
      "پیمانه": 8793,
      "پذیرفته": 8794,
      "سرازیر": 8795,
      "ara": 8796,
      "قاپ": 8797,
      "صاحبخانه": 8798,
      "کبوتری": 8799,
      "ther": 8800,
      "رویاها": 8801,
      "بیفتیم": 8802,
      "وسطش": 8803,
      "کراکر": 8804,
      "پرسروصداست": 8805,
      "داوود": 8806,
      "نیازمندان": 8807,
      "تعمیرگاه": 8808,
      "كشيد": 8809,
      "عصبانیه": 8810,
      "زخمش": 8811,
      "جزيیات": 8812,
      "مواقع": 8813,
      "كاميون": 8814,
      "gere": 8815,
      "ho": 8816,
      "بغ": 8817,
      "بدوید": 8818,
      "حبه": 8819,
      "دغ": 8820,
      "زک": 8821,
      "ضي": 8822,
      "مایی": 8823,
      "مشتی": 8824,
      "نف": 8825,
      "نخواست": 8826,
      "نرسید": 8827,
      "نگفتند": 8828,
      "نفهمیدند": 8829,
      "ویکی": 8830,
      "چشما": 8831,
      "چاهی": 8832,
      "انف": 8833,
      "میس": 8834,
      "میدیم": 8835,
      "ردپا": 8836,
      "لیندا": 8837,
      "دوتون": 8838,
      "توند": 8839,
      "همبر": 8840,
      "همسای": 8841,
      "استقل": 8842,
      "الاغ": 8843,
      "خوشه": 8844,
      "پرکار": 8845,
      "منوی": 8846,
      "ابسنگ": 8847,
      "دینگ": 8848,
      "ناتان": 8849,
      "پیدایشان": 8850,
      "احتما": 8851,
      "بردید": 8852,
      "جاها": 8853,
      "هستین": 8854,
      "بالت": 8855,
      "خرسه": 8856,
      "پیاله": 8857,
      "نشویم": 8858,
      "مربو": 8859,
      "بغلتد": 8860,
      "مشون": 8861,
      "پوشی": 8862,
      "ساختید": 8863,
      "چشمی": 8864,
      "اجری": 8865,
      "یکدیگرند": 8866,
      "سبزرنگ": 8867,
      "فریادهای": 8868,
      "سردخانه": 8869,
      "سیمون": 8870,
      "خارهای": 8871,
      "دردمند": 8872,
      "ریموت": 8873,
      "نشدم": 8874,
      "لیزرش": 8875,
      "تولدم": 8876,
      "گذروندم": 8877,
      "جوینده": 8878,
      "ترکاند": 8879,
      "دستکشی": 8880,
      "تنگی": 8881,
      "ساختمانی": 8882,
      "ايست": 8883,
      "ویدي": 8884,
      "بایستند": 8885,
      "ریاضیات": 8886,
      "خراشیده": 8887,
      "تفنگش": 8888,
      "علیس": 8889,
      "لوسى": 8890,
      "قدردان": 8891,
      "عالم": 8892,
      "ببافد": 8893,
      "سرگردان": 8894,
      "احتمالا": 8895,
      "An": 8896,
      "Ma": 8897,
      "ag": 8898,
      "eh": 8899,
      "fr": 8900,
      "بپزم": 8901,
      "جدي": 8902,
      "خس": 8903,
      "خزنده": 8904,
      "كيك": 8905,
      "لپ": 8906,
      "ملول": 8907,
      "هوایی": 8908,
      "کچاپ": 8909,
      "یال": 8910,
      "میخی": 8911,
      "میرفتن": 8912,
      "یدی": 8913,
      "روب": 8914,
      "ایلی": 8915,
      "سرخی": 8916,
      "کوتوله": 8917,
      "نمیدانم": 8918,
      "رمند": 8919,
      "گرفتمت": 8920,
      "بردش": 8921,
      "شنوم": 8922,
      "بوستان": 8923,
      "بووو": 8924,
      "بدل": 8925,
      "دورشان": 8926,
      "تکانش": 8927,
      "غلتک": 8928,
      "غلتوند": 8929,
      "شوهر": 8930,
      "کنارشون": 8931,
      "پاکش": 8932,
      "نمره": 8933,
      "مقاوم": 8934,
      "سردتر": 8935,
      "مرغش": 8936,
      "جالبیه": 8937,
      "مشکلشان": 8938,
      "درخشانه": 8939,
      "يكي": 8940,
      "تالابی": 8941,
      "خاصش": 8942,
      "دوقلوی": 8943,
      "تصاویرشان": 8944,
      "لایلا": 8945,
      "سپاسگزارم": 8946,
      "چکشش": 8947,
      "مخصوصا": 8948,
      "موتورش": 8949,
      "خونریزی": 8950,
      "شالش": 8951,
      "دردسرساز": 8952,
      "اثری": 8953,
      "نریزد": 8954,
      "فروخته": 8955,
      "سورپرای": 8956,
      "كوچكي": 8957,
      "گذراندید": 8958,
      "خفنی": 8959,
      "محترم": 8960,
      "حداقل": 8961,
      "On": 8962,
      "if": 8963,
      "ابرا": 8964,
      "اذر": 8965,
      "حو": 8966,
      "خزد": 8967,
      "شیکی": 8968,
      "طاس": 8969,
      "فنی": 8970,
      "مبلی": 8971,
      "نخندید": 8972,
      "هوم": 8973,
      "پک": 8974,
      "کمون": 8975,
      "میشدند": 8976,
      "میخواهی": 8977,
      "میدانستند": 8978,
      "اوره": 8979,
      "توى": 8980,
      "گرینی": 8981,
      "اسکی": 8982,
      "ادمک": 8983,
      "ترين": 8984,
      "پرن": 8985,
      "کوبی": 8986,
      "اینکی": 8987,
      "برامد": 8988,
      "خوشحالن": 8989,
      "رویشان": 8990,
      "برهم": 8991,
      "اشتراکی": 8992,
      "بلر": 8993,
      "احس": 8994,
      "نگاهشون": 8995,
      "بهترند": 8996,
      "بوسی": 8997,
      "رنگشان": 8998,
      "دارنده": 8999,
      "نوازد": 9000,
      "قطاری": 9001,
      "مراجعه": 9002,
      "فرياد": 9003,
      "کتابم": 9004,
      "بگذاره": 9005,
      "نیازش": 9006,
      "ضیافت": 9007,
      "نقاشیش": 9008,
      "بسازن": 9009,
      "گاوهای": 9010,
      "پاکتی": 9011,
      "ساندویچی": 9012,
      "شعرش": 9013,
      "دستمالش": 9014,
      "خودخواهانه": 9015,
      "چایخوری": 9016,
      "فرستم": 9017,
      "ديوار": 9018,
      "وانمودی": 9019,
      "جواهری": 9020,
      "گردوهای": 9021,
      "نعنای": 9022,
      "فرستادن": 9023,
      "kht": 9024,
      "عضلاتش": 9025,
      "مرور": 9026,
      "واقعیه": 9027,
      "الگوهایی": 9028,
      "سبیلش": 9029,
      "جديدش": 9030,
      "بخندونه": 9031,
      "تکالیف": 9032,
      "لغزیدند": 9033,
      "تازگی": 9034,
      "ترمومتر": 9035,
      "طاووس": 9036,
      "محصول": 9037,
      "gir": 9038,
      "har": 9039,
      "ic": 9040,
      "tas": 9041,
      "قندی": 9042,
      "نلرزید": 9043,
      "پارا": 9044,
      "چالی": 9045,
      "میاید": 9046,
      "میکس": 9047,
      "راسو": 9048,
      "رول": 9049,
      "امبر": 9050,
      "لیو": 9051,
      "بازیها": 9052,
      "استایل": 9053,
      "الما": 9054,
      "خیار": 9055,
      "بزرگى": 9056,
      "سرنگ": 9057,
      "منشا": 9058,
      "مادرتان": 9059,
      "نمیتونه": 9060,
      "چیپی": 9061,
      "سگت": 9062,
      "الیز": 9063,
      "بازپس": 9064,
      "ساک": 9065,
      "افزود": 9066,
      "سمتشون": 9067,
      "مانیم": 9068,
      "مسافت": 9069,
      "شیب": 9070,
      "پشتیش": 9071,
      "چرخم": 9072,
      "تمیزکاری": 9073,
      "مخمل": 9074,
      "دعای": 9075,
      "کامیونم": 9076,
      "پشمالویش": 9077,
      "شاهین": 9078,
      "فردش": 9079,
      "غافلگي": 9080,
      "اولش": 9081,
      "رسانند": 9082,
      "شکستید": 9083,
      "پاسخی": 9084,
      "جیغی": 9085,
      "ظاهرشان": 9086,
      "بادبادکی": 9087,
      "نارنج": 9088,
      "جیکوب": 9089,
      "خيس": 9090,
      "تمساحی": 9091,
      "نترساند": 9092,
      "بنیامین": 9093,
      "گرانقیمت": 9094,
      "گودالی": 9095,
      "ببریمش": 9096,
      "ande": 9097,
      "زرق": 9098,
      "چارگی": 9099,
      "نعنایی": 9100,
      "بکشن": 9101,
      "تیغه": 9102,
      "میگوها": 9103,
      "شکوهم": 9104,
      "بترسانم": 9105,
      "خفاش": 9106,
      "نگذاشته": 9107,
      "ضایعات": 9108,
      "بپاشند": 9109,
      "ازاردهنده": 9110,
      "بلعید": 9111,
      "ایسینگ": 9112,
      "گرسنمه": 9113,
      "همبرگر": 9114,
      "استقلال": 9115,
      "dad": 9116,
      "mor": 9117,
      "بچشم": 9118,
      "خروش": 9119,
      "ذی": 9120,
      "زبری": 9121,
      "غالی": 9122,
      "نویس": 9123,
      "پاید": 9124,
      "چله": 9125,
      "بهمون": 9126,
      "روبانی": 9127,
      "اماندا": 9128,
      "لیلى": 9129,
      "استار": 9130,
      "روزبه": 9131,
      "خیسه": 9132,
      "پرز": 9133,
      "اهل": 9134,
      "دیوی": 9135,
      "رفتگی": 9136,
      "رفتنه": 9137,
      "هرطور": 9138,
      "سوس": 9139,
      "برکت": 9140,
      "کردنت": 9141,
      "بالهای": 9142,
      "کوچولويی": 9143,
      "پیغ": 9144,
      "رفع": 9145,
      "جنگید": 9146,
      "متوسط": 9147,
      "خودشم": 9148,
      "گشته": 9149,
      "جادويي": 9150,
      "خوابالو": 9151,
      "موردش": 9152,
      "ببیندش": 9153,
      "بخشند": 9154,
      "علايم": 9155,
      "سفاری": 9156,
      "جستند": 9157,
      "ملافه": 9158,
      "ظرفش": 9159,
      "غلتد": 9160,
      "انگشتت": 9161,
      "درخشند": 9162,
      "ماسکی": 9163,
      "ضرب": 9164,
      "لایه": 9165,
      "صافش": 9166,
      "حتي": 9167,
      "غرشی": 9168,
      "هیولاست": 9169,
      "پیداشون": 9170,
      "سربازها": 9171,
      "ازمایشگاهی": 9172,
      "اسیابان": 9173,
      "بایستی": 9174,
      "پانداها": 9175,
      "خورن": 9176,
      "نیفتاده": 9177,
      "صادقانه": 9178,
      "جلدش": 9179,
      "اثاث": 9180,
      "نویسه": 9181,
      "اجرهای": 9182,
      "بفرستند": 9183,
      "بگذرانم": 9184,
      "قالیچه": 9185,
      "باخته": 9186,
      "مسلط": 9187,
      "نودل": 9188,
      "انگيز": 9189,
      "یابند": 9190,
      "انفجار": 9191,
      "Max": 9192,
      "برامدگی": 9193,
      "der": 9194,
      "sto": 9195,
      "اگی": 9196,
      "بقی": 9197,
      "بدانید": 9198,
      "تمومش": 9199,
      "حبا": 9200,
      "زدید": 9201,
      "شوش": 9202,
      "طبلی": 9203,
      "عاش": 9204,
      "عیادت": 9205,
      "متی": 9206,
      "نظار": 9207,
      "‎او": 9208,
      "میکی": 9209,
      "میگشت": 9210,
      "امادگی": 9211,
      "روزشون": 9212,
      "اسيب": 9213,
      "سرخوش": 9214,
      "ندهی": 9215,
      "ریتا": 9216,
      "ریشو": 9217,
      "موشه": 9218,
      "هرز": 9219,
      "سوپی": 9220,
      "گذرونی": 9221,
      "متمرکز": 9222,
      "کارتان": 9223,
      "دستگیر": 9224,
      "مردها": 9225,
      "داربست": 9226,
      "نزدیکتر": 9227,
      "راهروی": 9228,
      "واگ": 9229,
      "واژه": 9230,
      "محقق": 9231,
      "محكم": 9232,
      "شیار": 9233,
      "غذاهایشان": 9234,
      "کتابت": 9235,
      "نمایم": 9236,
      "نمایند": 9237,
      "لباسای": 9238,
      "سختگیر": 9239,
      "برگردونی": 9240,
      "منتظرت": 9241,
      "فهمیدم": 9242,
      "حافظه": 9243,
      "باهوشه": 9244,
      "ليزا": 9245,
      "بپردازند": 9246,
      "جستجوگر": 9247,
      "بخشیدم": 9248,
      "جویباری": 9249,
      "بپرسه": 9250,
      "قوب": 9251,
      "پیراهنی": 9252,
      "زشتش": 9253,
      "پیراهنت": 9254,
      "باباشون": 9255,
      "سوالاتی": 9256,
      "یعقوب": 9257,
      "الوخشک": 9258,
      "موافقم": 9259,
      "اسکله": 9260,
      "اپرای": 9261,
      "اهنربایش": 9262,
      "دوخته": 9263,
      "كننده": 9264,
      "ملیسا": 9265,
      "تفاوتی": 9266,
      "اویخته": 9267,
      "ورزیده": 9268,
      "حیوونای": 9269,
      "بپاشیم": 9270,
      "زنجیره": 9271,
      "khosh": 9272,
      "طالبی": 9273,
      "تاثیرگذار": 9274,
      "مربوط": 9275,
      "اثاثیه": 9276,
      "نظارت": 9277,
      "mo": 9278,
      "اا": 9279,
      "بکنن": 9280,
      "ببين": 9281,
      "تبد": 9282,
      "شای": 9283,
      "عک": 9284,
      "عبار": 9285,
      "قلاتی": 9286,
      "چتری": 9287,
      "ژاک": 9288,
      "‎بود": 9289,
      "‫او": 9290,
      "انلاین": 9291,
      "باخبر": 9292,
      "باحوصله": 9293,
      "میگذراندند": 9294,
      "میدونستن": 9295,
      "درنیامد": 9296,
      "زیپش": 9297,
      "دوستیم": 9298,
      "استین": 9299,
      "السیر": 9300,
      "اهرم": 9301,
      "سیلور": 9302,
      "ناهموار": 9303,
      "ریبیت": 9304,
      "موذی": 9305,
      "هرب": 9306,
      "خنداندند": 9307,
      "کنندگان": 9308,
      "درختای": 9309,
      "توپمان": 9310,
      "کردنشون": 9311,
      "اسمانی": 9312,
      "اونق": 9313,
      "دستهای": 9314,
      "بازمی": 9315,
      "یییی": 9316,
      "داري": 9317,
      "زهکش": 9318,
      "ابیش": 9319,
      "بدنت": 9320,
      "سنگها": 9321,
      "تنقلاتی": 9322,
      "فراستی": 9323,
      "زنید": 9324,
      "پوشم": 9325,
      "باباست": 9326,
      "نیازشان": 9327,
      "تماشایش": 9328,
      "ماجراهایی": 9329,
      "میرسی": 9330,
      "مغشوش": 9331,
      "انداختم": 9332,
      "دنیل": 9333,
      "یخچالی": 9334,
      "پیچاندن": 9335,
      "حصاری": 9336,
      "بدجنسانه": 9337,
      "مسیرها": 9338,
      "اهنگش": 9339,
      "کوچیکه": 9340,
      "کدوها": 9341,
      "فرشی": 9342,
      "درمیاره": 9343,
      "پيش": 9344,
      "ریسک": 9345,
      "اویزها": 9346,
      "تنقلاتش": 9347,
      "تعطیلاتشان": 9348,
      "روزگاري": 9349,
      "خرمای": 9350,
      "ريخت": 9351,
      "طمعکار": 9352,
      "بجوم": 9353,
      "بچسبان": 9354,
      "حکمتی": 9355,
      "happy": 9356,
      "بانداژ": 9357,
      "حلوایی": 9358,
      "تبديل": 9359,
      "bir": 9360,
      "litt": 9361,
      "ruz": 9362,
      "بسه": 9363,
      "زویی": 9364,
      "سار": 9365,
      "كاو": 9366,
      "نرسیدند": 9367,
      "‬‬": 9368,
      "انان": 9369,
      "انابل": 9370,
      "مینت": 9371,
      "میذاره": 9372,
      "هامان": 9373,
      "امل": 9374,
      "لیست": 9375,
      "زیباش": 9376,
      "دوشان": 9377,
      "دوبار": 9378,
      "تورم": 9379,
      "ارتش": 9380,
      "کنسرت": 9381,
      "داشتنش": 9382,
      "کوهست": 9383,
      "سیسی": 9384,
      "لوکاس": 9385,
      "لوازم": 9386,
      "ریزم": 9387,
      "رهبری": 9388,
      "نیاید": 9389,
      "برانگیزی": 9390,
      "شروری": 9391,
      "دستای": 9392,
      "خودی": 9393,
      "باشین": 9394,
      "بوهای": 9395,
      "گذاشتیم": 9396,
      "نزدیکشان": 9397,
      "راهنما": 9398,
      "بخوایم": 9399,
      "میزنم": 9400,
      "مثلا": 9401,
      "نداشتم": 9402,
      "ترساندی": 9403,
      "گیرن": 9404,
      "مسابقات": 9405,
      "شبح": 9406,
      "ذرتی": 9407,
      "وایسا": 9408,
      "پیرزنی": 9409,
      "باهوشش": 9410,
      "عکسش": 9411,
      "گازش": 9412,
      "چراغش": 9413,
      "گنجش": 9414,
      "بالونش": 9415,
      "قهرمانان": 9416,
      "خطری": 9417,
      "وووش": 9418,
      "گیلاسی": 9419,
      "پینچی": 9420,
      "ببینیش": 9421,
      "have": 9422,
      "قانونی": 9423,
      "یوگای": 9424,
      "نیفتی": 9425,
      "بدبوست": 9426,
      "صادقی": 9427,
      "خلبانی": 9428,
      "نظرات": 9429,
      "بفرستید": 9430,
      "مكس": 9431,
      "کشوها": 9432,
      "سخنان": 9433,
      "بچرخی": 9434,
      "بچرخونه": 9435,
      "شیپورش": 9436,
      "ارزشمندتر": 9437,
      "هاهاها": 9438,
      "اموزگار": 9439,
      "استخوانی": 9440,
      "ely": 9441,
      "dust": 9442,
      "جديدی": 9443,
      "little": 9444,
      "com": 9445,
      "حوصل": 9446,
      "ذکر": 9447,
      "صحیح": 9448,
      "غاغ": 9449,
      "فاش": 9450,
      "مرگ": 9451,
      "مباد": 9452,
      "مقت": 9453,
      "وامی": 9454,
      "کپه": 9455,
      "اناست": 9456,
      "باک": 9457,
      "میدید": 9458,
      "میرفتند": 9459,
      "میخوره": 9460,
      "تونش": 9461,
      "گرگی": 9462,
      "پرفروغ": 9463,
      "کول": 9464,
      "خوشحالي": 9465,
      "برایان": 9466,
      "مونش": 9467,
      "موهات": 9468,
      "کریک": 9469,
      "کارهایشان": 9470,
      "الیور": 9471,
      "خودکارهای": 9472,
      "خواهي": 9473,
      "صداست": 9474,
      "بازنده": 9475,
      "بازوان": 9476,
      "کشاور": 9477,
      "پیرا": 9478,
      "پروند": 9479,
      "مانعش": 9480,
      "معطر": 9481,
      "سریعش": 9482,
      "حرفهای": 9483,
      "متورم": 9484,
      "محف": 9485,
      "مشار": 9486,
      "فروشد": 9487,
      "حركت": 9488,
      "بسترش": 9489,
      "مير": 9490,
      "چندانی": 9491,
      "سبقت": 9492,
      "شاخش": 9493,
      "اغوشش": 9494,
      "انداختی": 9495,
      "پیمود": 9496,
      "سنگینش": 9497,
      "گنجه": 9498,
      "نمایشش": 9499,
      "قوسی": 9500,
      "قدي": 9501,
      "بگیریمش": 9502,
      "گرونه": 9503,
      "خطا": 9504,
      "تشویقشان": 9505,
      "فهميد": 9506,
      "فلورا": 9507,
      "سقفی": 9508,
      "مخصوصه": 9509,
      "خونمون": 9510,
      "بپیچه": 9511,
      "دمیدند": 9512,
      "نازن": 9513,
      "رعدو": 9514,
      "زبراها": 9515,
      "الگوها": 9516,
      "بافتن": 9517,
      "رادیویش": 9518,
      "مقصدشان": 9519,
      "هديه": 9520,
      "گراف": 9521,
      "روستاییان": 9522,
      "پرچمش": 9523,
      "ردیفی": 9524,
      "عصباني": 9525,
      "مفرحی": 9526,
      "جملات": 9527,
      "بياييد": 9528,
      "اذرخش": 9529,
      "پایدار": 9530,
      "عبارت": 9531,
      "مبادله": 9532,
      "bi": 9533,
      "fri": 9534,
      "go": 9535,
      "hat": 9536,
      "wor": 9537,
      "بمالی": 9538,
      "بفشارد": 9539,
      "تاس": 9540,
      "تکو": 9541,
      "جتی": 9542,
      "دلیلی": 9543,
      "رغم": 9544,
      "صوت": 9545,
      "ضد": 9546,
      "عن": 9547,
      "عمرم": 9548,
      "مظ": 9549,
      "مدیر": 9550,
      "نپرسید": 9551,
      "نخواند": 9552,
      "نزنه": 9553,
      "گنده": 9554,
      "انچنان": 9555,
      "باق": 9556,
      "رابرت": 9557,
      "دوتایی": 9558,
      "ماپی": 9559,
      "بینگو": 9560,
      "پرپوش": 9561,
      "حالي": 9562,
      "سربازی": 9563,
      "ناکش": 9564,
      "رمز": 9565,
      "رمانش": 9566,
      "کیمی": 9567,
      "خودشه": 9568,
      "خودکاری": 9569,
      "خوردگی": 9570,
      "مردان": 9571,
      "بوگند": 9572,
      "اطی": 9573,
      "باري": 9574,
      "بدمد": 9575,
      "مرتی": 9576,
      "جوها": 9577,
      "غلبه": 9578,
      "تونلی": 9579,
      "معده": 9580,
      "جیپی": 9581,
      "واگذار": 9582,
      "بادبز": 9583,
      "مراقبانه": 9584,
      "گردویی": 9585,
      "فراتر": 9586,
      "فرزندان": 9587,
      "قایقت": 9588,
      "دراید": 9589,
      "دونید": 9590,
      "سردت": 9591,
      "فرداش": 9592,
      "يکديگر": 9593,
      "شامشان": 9594,
      "بدجنسه": 9595,
      "پلاش": 9596,
      "غریدند": 9597,
      "چشمانت": 9598,
      "گنجشک": 9599,
      "مسیرشان": 9600,
      "hel": 9601,
      "کلويی": 9602,
      "کاملش": 9603,
      "قوها": 9604,
      "خوشگلش": 9605,
      "مستعد": 9606,
      "برسن": 9607,
      "زورگ": 9608,
      "one": 9609,
      "فرمانی": 9610,
      "یادداشتش": 9611,
      "پذیرتر": 9612,
      "فرستد": 9613,
      "ديده": 9614,
      "رختخوابش": 9615,
      "رختشویی": 9616,
      "جواهرش": 9617,
      "شورانگیز": 9618,
      "aman": 9619,
      "بازویت": 9620,
      "بامپی": 9621,
      "نیشگون": 9622,
      "بفرستم": 9623,
      "ناهاری": 9624,
      "عضو": 9625,
      "kardand": 9626,
      "ببخشیم": 9627,
      "مشترکشان": 9628,
      "ببينند": 9629,
      "پرستاری": 9630,
      "منظورش": 9631,
      "قاشقی": 9632,
      "درياچه": 9633,
      "provide": 9634,
      "انتقال": 9635,
      "بسنجد": 9636,
      "مناسبت": 9637,
      "هانری": 9638,
      "friend": 9639,
      "could": 9640,
      "my": 9641,
      "ti": 9642,
      "would": 9643,
      "ایک": 9644,
      "ايد": 9645,
      "بە": 9646,
      "قلابی": 9647,
      "كی": 9648,
      "كنج": 9649,
      "نبايد": 9650,
      "پلاک": 9651,
      "ژو": 9652,
      "کانا": 9653,
      "‫و": 9654,
      "انھا": 9655,
      "میایم": 9656,
      "راتش": 9657,
      "راخلاقی": 9658,
      "دوام": 9659,
      "ایتی": 9660,
      "اریک": 9661,
      "مافن": 9662,
      "مابقی": 9663,
      "استن": 9664,
      "اسنو": 9665,
      "سرهم": 9666,
      "خواستید": 9667,
      "نیزار": 9668,
      "خندن": 9669,
      "گذرگاه": 9670,
      "متحرک": 9671,
      "دهل": 9672,
      "بردیم": 9673,
      "دستهایشان": 9674,
      "پیره": 9675,
      "بهترم": 9676,
      "ماندی": 9677,
      "سنگين": 9678,
      "نبودیم": 9679,
      "غلتان": 9680,
      "جیبی": 9681,
      "سریعم": 9682,
      "اراده": 9683,
      "چیزهایت": 9684,
      "تنفرا": 9685,
      "زودي": 9686,
      "اندازم": 9687,
      "برگردانش": 9688,
      "اجناس": 9689,
      "دونیم": 9690,
      "پوز": 9691,
      "تختشان": 9692,
      "بینداز": 9693,
      "دیوونه": 9694,
      "کثر": 9695,
      "گویید": 9696,
      "دلشون": 9697,
      "فراموشش": 9698,
      "هلن": 9699,
      "اموختید": 9700,
      "پیشبند": 9701,
      "هاریک": 9702,
      "تاریکه": 9703,
      "علفها": 9704,
      "وسایلمان": 9705,
      "ندادن": 9706,
      "پشیمونی": 9707,
      "اعتمادش": 9708,
      "غیراخلاقی": 9709,
      "ایستادگی": 9710,
      "چمدون": 9711,
      "منحصربفرد": 9712,
      "ايجاد": 9713,
      "تمبرهایش": 9714,
      "خرابی": 9715,
      "پاندایی": 9716,
      "نیفتند": 9717,
      "موفقیتش": 9718,
      "شیکش": 9719,
      "برایمان": 9720,
      "عاقلانه": 9721,
      "raft": 9722,
      "کالسکه": 9723,
      "نگیرید": 9724,
      "غلطید": 9725,
      "کاپشنش": 9726,
      "گرامی": 9727,
      "چرخانند": 9728,
      "ویلیام": 9729,
[...]
