{
  "version": "1.0",
  "truncation": null,
  "padding": null,
  "added_tokens": [
    {
      "id": 0,
      "content": "<unk>",
      "single_word": false,
      "lstrip": false,
      "rstrip": false,
      "normalized": false,
      "special": true
    },
    {
      "id": 1,
      "content": "<s>",
      "single_word": false,
      "lstrip": false,
      "rstrip": false,
      "normalized": false,
      "special": true
    },
    {
      "id": 2,
      "content": "</s>",
      "single_word": false,
      "lstrip": false,
      "rstrip": false,
      "normalized": false,
      "special": true
    },
    {
      "id": 3,
      "content": "<pad>",
      "single_word": false,
      "lstrip": false,
      "rstrip": false,
      "normalized": false,
      "special": true
    },
    {
      "id": 4,
      "content": "<mask>",
      "single_word": false,
      "lstrip": false,
      "rstrip": false,
      "normalized": false,
      "special": true
    }
  ],
  "normalizer": {
    "type": "Sequence",
    "normalizers": [
      {
        "type": "NFD"
      },
      {
        "type": "Replace",
        "pattern": {
          "String": "‌"
        },
        "content": " "
      },
      {
        "type": "Replace",
        "pattern": {
          "String": "‌"
        },
        "content": " "
      },
      {
        "type": "StripAccents"
      }
    ]
  },
  "pre_tokenizer": {
    "type": "BertPreTokenizer"
  },
  "post_processor": null,
  "decoder": null,
  "model": {
    "type": "WordPiece",
    "unk_token": "<unk>",
    "continuing_subword_prefix": "##",
    "max_input_chars_per_word": 100,
    "vocab": {
      "<unk>": 0,
      "<s>": 1,
      "</s>": 2,
      "<pad>": 3,
      "<mask>": 4,
      "!": 5,
      "\"": 6,
      "'": 7,
      "(": 8,
      ")": 9,
      "*": 10,
      "+": 11,
      ",": 12,
      "-": 13,
      ".": 14,
      "/": 15,
      "0": 16,
      "1": 17,
      "2": 18,
      "3": 19,
      "4": 20,
      "5": 21,
      "6": 22,
      "7": 23,
      "8": 24,
      "9": 25,
      ":": 26,
      ";": 27,
      "<": 28,
      "=": 29,
      ">": 30,
      "?": 31,
      "A": 32,
      "B": 33,
      "C": 34,
      "D": 35,
      "E": 36,
      "F": 37,
      "G": 38,
      "H": 39,
      "I": 40,
      "J": 41,
      "K": 42,
      "L": 43,
      "M": 44,
      "N": 45,
      "O": 46,
      "P": 47,
      "R": 48,
      "S": 49,
      "T": 50,
      "U": 51,
      "V": 52,
      "W": 53,
      "X": 54,
      "Y": 55,
      "Z": 56,
      "\\": 57,
      "a": 58,
      "b": 59,
      "c": 60,
      "d": 61,
      "e": 62,
      "f": 63,
      "g": 64,
      "h": 65,
      "i": 66,
      "j": 67,
      "k": 68,
      "l": 69,
      "m": 70,
      "n": 71,
      "o": 72,
      "p": 73,
      "q": 74,
      "r": 75,
      "s": 76,
      "t": 77,
      "u": 78,
      "v": 79,
      "w": 80,
      "x": 81,
      "y": 82,
      "z": 83,
      "": 84,
      "": 85,
      "¡": 86,
      "¢": 87,
      "«": 88,
      "¬": 89,
      "­": 90,
      "»": 91,
      "ı": 92,
      "Я": 93,
      "а": 94,
      "б": 95,
      "в": 96,
      "г": 97,
      "д": 98,
      "е": 99,
      "ж": 100,
      "з": 101,
      "и": 102,
      "к": 103,
      "л": 104,
      "м": 105,
      "н": 106,
      "о": 107,
      "п": 108,
      "р": 109,
      "с": 110,
      "т": 111,
      "у": 112,
      "ф": 113,
      "х": 114,
      "ш": 115,
      "щ": 116,
      "я": 117,
      "љ": 118,
      "ћ": 119,
      "Ҏ": 120,
      "ҏ": 121,
      "қ": 122,
      "ҵ": 123,
      "һ": 124,
      "ә": 125,
      "ӡ": 126,
      "،": 127,
      "؛": 128,
      "؟": 129,
      "ء": 130,
      "ا": 131,
      "ب": 132,
      "ة": 133,
      "ت": 134,
      "ث": 135,
      "ج": 136,
      "ح": 137,
      "خ": 138,
      "د": 139,
      "ذ": 140,
      "ر": 141,
      "ز": 142,
      "س": 143,
      "ش": 144,
      "ص": 145,
      "ض": 146,
      "ط": 147,
      "ظ": 148,
      "ع": 149,
      "غ": 150,
      "ؾ": 151,
      "ـ": 152,
      "ف": 153,
      "ق": 154,
      "ك": 155,
      "ل": 156,
      "م": 157,
      "ن": 158,
      "ه": 159,
      "و": 160,
      "ى": 161,
      "ي": 162,
      "١": 163,
      "٢": 164,
      "٣": 165,
      "٤": 166,
      "٥": 167,
      "٦": 168,
      "٫": 169,
      "٬": 170,
      "ٴ": 171,
      "ٹ": 172,
      "پ": 173,
      "ځ": 174,
      "چ": 175,
      "ڌ": 176,
      "ڑ": 177,
      "ڕ": 178,
      "ژ": 179,
      "ک": 180,
      "ګ": 181,
      "ڬ": 182,
      "گ": 183,
      "ڵ": 184,
      "ں": 185,
      "ھ": 186,
      "ہ": 187,
      "ۆ": 188,
      "ی": 189,
      "ێ": 190,
      "ے": 191,
      "۔": 192,
      "ە": 193,
      "۰": 194,
      "۱": 195,
      "۲": 196,
      "۳": 197,
      "۴": 198,
      "۵": 199,
      "۶": 200,
      "۷": 201,
      "۸": 202,
      "۹": 203,
      "स": 204,
      "​": 205,
      "‍": 206,
      "‎": 207,
      "‏": 208,
      "‐": 209,
      "–": 210,
      "—": 211,
      "‘": 212,
      "’": 213,
      "‚": 214,
      "“": 215,
      "”": 216,
      "„": 217,
      "‪": 218,
      "‫": 219,
      "‬": 220,
      "‮": 221,
      "′": 222,
      "‹": 223,
      "›": 224,
      "⁄": 225,
      "�": 226,
      "🌴": 227,
      "🍌": 228,
      "💫": 229,
      "##ي": 230,
      "##ا": 231,
      "##ن": 232,
      "##و": 233,
      "##غ": 234,
      "##ل": 235,
      "##ش": 236,
      "##ی": 237,
      "##ف": 238,
      "##ت": 239,
      "##م": 240,
      "##ى": 241,
      "##ج": 242,
      "##ه": 243,
      "##ص": 244,
      "##ح": 245,
      "##ب": 246,
      "##ر": 247,
      "##د": 248,
      "##ء": 249,
      "##ض": 250,
      "##ط": 251,
      "##س": 252,
      "##‬": 253,
      "##ق": 254,
      "##ز": 255,
      "##خ": 256,
      "##ذ": 257,
      "##پ": 258,
      "##گ": 259,
      "##o": 260,
      "##a": 261,
      "##s": 262,
      "##t": 263,
      "##f": 264,
      "##z": 265,
      "##r": 266,
      "##i": 267,
      "##ک": 268,
      "##e": 269,
      "##c": 270,
      "##h": 271,
      "##b": 272,
      "##u": 273,
      "##k": 274,
      "##l": 275,
      "##‪": 276,
      "##n": 277,
      "##d": 278,
      "##‍": 279,
      "##ع": 280,
      "##ہ": 281,
      "##🌴": 282,
      "##ێ": 283,
      "##ك": 284,
      "##­": 285,
      "##‫": 286,
      "##q": 287,
      "##ھ": 288,
      "##m": 289,
      "##ث": 290,
      "##p": 291,
      "##0": 292,
      "##ҏ": 293,
      "##‎": 294,
      "##چ": 295,
      "##ە": 296,
      "##g": 297,
      "##y": 298,
      "##A": 299,
      "##ظ": 300,
      "##ة": 301,
      "##v": 302,
      "##۰": 303,
      "##‏": 304,
      "##ژ": 305,
      "##w": 306,
      "##љ": 307,
      "##ӡ": 308,
      "##о": 309,
      "##и": 310,
      "##ж": 311,
      "##з": 312,
      "##": 313,
      "##j": 314,
      "##ـ": 315,
      "##ә": 316,
      "##с": 317,
      "##т": 318,
      "##а": 319,
      "##н": 320,
      "##ш": 321,
      "##Y": 322,
      "##x": 323,
      "##S": 324,
      "##ı": 325,
      "##T": 326,
      "##ڑ": 327,
      "##ے": 328,
      "##е": 329,
      "##м": 330,
      "##к": 331,
      "##д": 332,
      "##ҵ": 333,
      "##л": 334,
      "##б": 335,
      "##8": 336,
      "##۲": 337,
      "##۳": 338,
      "##ф": 339,
      "##ٹ": 340,
      "##2": 341,
      "##U": 342,
      "##N": 343,
      "##O": 344,
      "##¢": 345,
      "##D": 346,
      "##ں": 347,
      "##": 348,
      "##R": 349,
      "##L": 350,
      "##E": 351,
      "##6": 352,
      "##I": 353,
      "##G": 354,
      "##х": 355,
      "##ћ": 356,
      "##ۆ": 357,
      "##һ": 358,
      "##5": 359,
      "##ؾ": 360,
      "##3": 361,
      "##9": 362,
      "##у": 363,
      "##щ": 364,
      "##ٴ": 365,
      "##H": 366,
      "##4": 367,
      "##1": 368,
      "##​": 369,
      "##г": 370,
      "##в": 371,
      "##р": 372,
      "##ڕ": 373,
      "##ڵ": 374,
      "##ڌ": 375,
      "##C": 376,
      "##K": 377,
      "##7": 378,
      "##B": 379,
      "##۶": 380,
      "##۱": 381,
      "##۵": 382,
      "##⁄": 383,
      "##қ": 384,
      "##�": 385,
      "##W": 386,
      "##ګ": 387,
      "##¬": 388,
      "##V": 389,
      "##P": 390,
      "##ڬ": 391,
      "##‮": 392,
      "##۹": 393,
      "##ځ": 394,
      "##ند": 395,
      "##رد": 396,
      "با": 397,
      "##ان": 398,
      "##ست": 399,
      "می": 400,
      "##ید": 401,
      "به": 402,
      "کرد": 403,
      "##ود": 404,
      "را": 405,
      "او": 406,
      "ان": 407,
      "##ای": 408,
      "خو": 409,
      "##ار": 410,
      "##فت": 411,
      "رو": 412,
      "یک": 413,
      "بود": 414,
      "##ام": 415,
      "##اد": 416,
      "##لی": 417,
      "در": 418,
      "دو": 419,
      "##یم": 420,
      "##زی": 421,
      "##شت": 422,
      "##ین": 423,
      "##یلی": 424,
      "که": 425,
      "بازی": 426,
      "تو": 427,
      "دا": 428,
      "هم": 429,
      "##رگ": 430,
      "دوست": 431,
      "کن": 432,
      "از": 433,
      "شد": 434,
      "##ها": 435,
      "##ال": 436,
      "روز": 437,
      "گفت": 438,
      "ام": 439,
      "بر": 440,
      "##اه": 441,
      "انها": 442,
      "##اب": 443,
      "تیم": 444,
      "پر": 445,
      "داشت": 446,
      "##خت": 447,
      "خوش": 448,
      "ها": 449,
      "بز": 450,
      "کند": 451,
      "خیلی": 452,
      "##یر": 453,
      "بزرگ": 454,
      "گر": 455,
      "اس": 456,
      "کردند": 457,
      "##ون": 458,
      "این": 459,
      "##می": 460,
      "کو": 461,
      "دید": 462,
      "خوشح": 463,
      "است": 464,
      "##ری": 465,
      "##است": 466,
      "اما": 467,
      "کوچ": 468,
      "لیلی": 469,
      "خوشحال": 470,
      "##ادر": 471,
      "##نده": 472,
      "##نگ": 473,
      "من": 474,
      "##را": 475,
      "تام": 476,
      "خواست": 477,
      "مادر": 478,
      "تا": 479,
      "برای": 480,
      "زد": 481,
      "ای": 482,
      "های": 483,
      "##انه": 484,
      "##رو": 485,
      "ما": 486,
      "##به": 487,
      "##تی": 488,
      "##سی": 489,
      "رفت": 490,
      "پس": 491,
      "داد": 492,
      "##ور": 493,
      "##وش": 494,
      "پید": 495,
      "##لا": 496,
      "کم": 497,
      "پیدا": 498,
      "##از": 499,
      "##وی": 500,
      "##سید": 501,
      "پرنده": 502,
      "روی": 503,
      "نام": 504,
      "نگ": 505,
      "کوچک": 506,
      "##شان": 507,
      "سو": 508,
      "نمی": 509,
      "کمک": 510,
      "##اس": 511,
      "چی": 512,
      "توان": 513,
      "بی": 514,
      "##گی": 515,
      "##بی": 516,
      "##یگ": 517,
      "کنند": 518,
      "##ول": 519,
      "تر": 520,
      "اسب": 521,
      "##ات": 522,
      "گرفت": 523,
      "اسباب": 524,
      "##عد": 525,
      "بودند": 526,
      "##چه": 527,
      "یه": 528,
      "بن": 529,
      "مادرش": 530,
      "اش": 531,
      "##رم": 532,
      "##اره": 533,
      "باش": 534,
      "سگ": 535,
      "##اق": 536,
      "وق": 537,
      "گربه": 538,
      "خانه": 539,
      "زی": 540,
      "درخت": 541,
      "بعد": 542,
      "##ره": 543,
      "بل": 544,
      "دوستان": 545,
      "##اشت": 546,
      "##کس": 547,
      "دیگ": 548,
      "همه": 549,
      "لب": 550,
      "دخت": 551,
      "##کر": 552,
      "توپ": 553,
      "##تر": 554,
      "نگاه": 555,
      "##یک": 556,
      "گذ": 557,
      "برد": 558,
      "بد": 559,
      "##با": 560,
      "##اند": 561,
      "ات": 562,
      "افت": 563,
      "##رب": 564,
      "هر": 565,
      "وقتی": 566,
      "مام": 567,
      "روزی": 568,
      "کردن": 569,
      "اح": 570,
      "پار": 571,
      "مت": 572,
      "دار": 573,
      "اون": 574,
      "مامان": 575,
      "سر": 576,
      "مو": 577,
      "شدند": 578,
      "تم": 579,
      "##خند": 580,
      "شرو": 581,
      "زند": 582,
      "شروع": 583,
      "اب": 584,
      "لبخند": 585,
      "##زه": 586,
      "##اده": 587,
      "اسم": 588,
      "دختر": 589,
      "##در": 590,
      "##انی": 591,
      "##ارا": 592,
      "کار": 593,
      "دیگر": 594,
      "مه": 595,
      "پارک": 596,
      "##شه": 597,
      "هست": 598,
      "##دید": 599,
      "احس": 600,
      "شده": 601,
      "احساس": 602,
      "دست": 603,
      "برگ": 604,
      "##الی": 605,
      "خود": 606,
      "##یدند": 607,
      "خواه": 608,
      "##وان": 609,
      "صد": 610,
      "زندگی": 611,
      "ده": 612,
      "بیر": 613,
      "بیرون": 614,
      "##که": 615,
      "کوچول": 616,
      "کنم": 617,
      "##شین": 618,
      "##باره": 619,
      "بخ": 620,
      "سم": 621,
      "فکر": 622,
      "امد": 623,
      "ماشین": 624,
      "##ایی": 625,
      "##نه": 626,
      "باید": 627,
      "دان": 628,
      "##اش": 629,
      "##زد": 630,
      "حال": 631,
      "مرد": 632,
      "تمام": 633,
      "نی": 634,
      "##ادی": 635,
      "باز": 636,
      "یاد": 637,
      "بسی": 638,
      "جدید": 639,
      "بزرگی": 640,
      "بسیار": 641,
      "##رف": 642,
      "##حت": 643,
      "کنیم": 644,
      "مکس": 645,
      "##نی": 646,
      "غم": 647,
      "##عی": 648,
      "##جا": 649,
      "پای": 650,
      "##اهی": 651,
      "تص": 652,
      "گو": 653,
      "بلند": 654,
      "دوستانش": 655,
      "میا": 656,
      "داشتند": 657,
      "##شید": 658,
      "خر": 659,
      "شن": 660,
      "##اف": 661,
      "##ویی": 662,
      "پسر": 663,
      "دانست": 664,
      "##یشه": 665,
      "سام": 666,
      "جع": 667,
      "##گین": 668,
      "بب": 669,
      "دوباره": 670,
      "جعبه": 671,
      "غمگین": 672,
      "نا": 673,
      "بهتر": 674,
      "پرسید": 675,
      "هی": 676,
      "بالا": 677,
      "لو": 678,
      "چه": 679,
      "نزد": 680,
      "##او": 681,
      "اسپ": 682,
      "زم": 683,
      "رنگ": 684,
      "خند": 685,
      "بگ": 686,
      "کرده": 687,
      "کوچولو": 688,
      "خوبی": 689,
      "##اری": 690,
      "توانست": 691,
      "پرو": 692,
      "##کان": 693,
      "نب": 694,
      "نارا": 695,
      "مهرب": 696,
      "دوید": 697,
      "##گه": 698,
      "بیا": 699,
      "کنه": 700,
      "##اک": 701,
      "لوسی": 702,
      "اسپات": 703,
      "##خل": 704,
      "نبود": 705,
      "خورد": 706,
      "##وب": 707,
      "حی": 708,
      "نش": 709,
      "رفتند": 710,
      "زده": 711,
      "همیشه": 712,
      "##میم": 713,
      "چیز": 714,
      "گذاشت": 715,
      "##نج": 716,
      "نه": 717,
      "##نب": 718,
      "ار": 719,
      "##من": 720,
      "کنی": 721,
      "ناراحت": 722,
      "شود": 723,
      "رسید": 724,
      "سنگ": 725,
      "سعی": 726,
      "کل": 727,
      "سمت": 728,
      "گوید": 729,
      "دارد": 730,
      "تع": 731,
      "ترسید": 732,
      "بچه": 733,
      "ناگه": 734,
      "ناگهان": 735,
      "زیادی": 736,
      "افتاد": 737,
      "گل": 738,
      "##جام": 739,
      "داخل": 740,
      "تصمیم": 741,
      "##یه": 742,
      "پی": 743,
      "نزدیک": 744,
      "دوستش": 745,
      "دور": 746,
      "بار": 747,
      "باشد": 748,
      "تکان": 749,
      "##شم": 750,
      "قرم": 751,
      "##ظر": 752,
      "فر": 753,
      "پرواز": 754,
      "اتاق": 755,
      "##یب": 756,
      "برگشت": 757,
      "کی": 758,
      "شم": 759,
      "##سته": 760,
      "##کی": 761,
      "بال": 762,
      "##یده": 763,
      "زمین": 764,
      "قرمز": 765,
      "ولی": 766,
      "##قه": 767,
      "برداشت": 768,
      "##مه": 769,
      "ند": 770,
      "غذ": 771,
      "قد": 772,
      "نیست": 773,
      "مرا": 774,
      "دهد": 775,
      "درست": 776,
      "باب": 777,
      "چون": 778,
      "دیدند": 779,
      "مهربان": 780,
      "بله": 781,
      "خوب": 782,
      "##وا": 783,
      "ماکس": 784,
      "بهترین": 785,
      "##اط": 786,
      "شو": 787,
      "توی": 788,
      "صدای": 789,
      "هایش": 790,
      "##فاق": 791,
      "اتفاق": 792,
      "افتاب": 793,
      "##لام": 794,
      "##خو": 795,
      "زیر": 796,
      "##تاب": 797,
      "##وه": 798,
      "باد": 799,
      "شیر": 800,
      "##جود": 801,
      "##ندند": 802,
      "اند": 803,
      "سری": 804,
      "شک": 805,
      "نشان": 806,
      "مر": 807,
      "هستند": 808,
      "انجام": 809,
      "##قب": 810,
      "پدر": 811,
      "خان": 812,
      "تش": 813,
      "گوش": 814,
      "##وق": 815,
      "##سه": 816,
      "سریع": 817,
      "زیبا": 818,
      "##اخت": 819,
      "پایین": 820,
      "انا": 821,
      "##نبال": 822,
      "دنبال": 823,
      "حرف": 824,
      "ماهی": 825,
      "کوچکی": 826,
      "خرگ": 827,
      "خرگوش": 828,
      "سلام": 829,
      "راه": 830,
      "##غل": 831,
      "مث": 832,
      "##مزه": 833,
      "خرس": 834,
      "مثل": 835,
      "بخو": 836,
      "جو": 837,
      "##ازه": 838,
      "چیزی": 839,
      "##شک": 840,
      "##ارد": 841,
      "جنگ": 842,
      "گذرا": 843,
      "وجود": 844,
      "اینکه": 845,
      "پرید": 846,
      "تواند": 847,
      "##ربچه": 848,
      "نک": 849,
      "گرفتند": 850,
      "حیوان": 851,
      "بغل": 852,
      "چیزه": 853,
      "مراقب": 854,
      "سرگ": 855,
      "##جان": 856,
      "بده": 857,
      "##یل": 858,
      "دارم": 859,
      "فق": 860,
      "شا": 861,
      "##اح": 862,
      "شما": 863,
      "مح": 864,
      "سارا": 865,
      "##ایش": 866,
      "هیجان": 867,
      "ایا": 868,
      "لذ": 869,
      "خودش": 870,
      "توانم": 871,
      "لذت": 872,
      "حش": 873,
      "فقط": 874,
      "بیشت": 875,
      "##کت": 876,
      "##قدر": 877,
      "جنگل": 878,
      "درخ": 879,
      "لی": 880,
      "اشت": 881,
      "مس": 882,
      "ابی": 883,
      "تاب": 884,
      "##قی": 885,
      "کشید": 886,
      "مد": 887,
      "##جه": 888,
      "کیک": 889,
      "عص": 890,
      "خندیدند": 891,
      "##امی": 892,
      "##یمی": 893,
      "##رخ": 894,
      "##یدن": 895,
      "##جب": 896,
      "##وز": 897,
      "بپ": 898,
      "##گر": 899,
      "چرا": 900,
      "خوشمزه": 901,
      "ببین": 902,
      "قدم": 903,
      "کنار": 904,
      "گذراندند": 905,
      "ایده": 906,
      "نظر": 907,
      "اسمان": 908,
      "تشکر": 909,
      "حالا": 910,
      "زدند": 911,
      "کش": 912,
      "تون": 913,
      "##طور": 914,
      "سرگرم": 915,
      "##بز": 916,
      "ترسیده": 917,
      "باری": 918,
      "باغ": 919,
      "کمی": 920,
      "نق": 921,
      "کتاب": 922,
      "خواستند": 923,
      "حیوانات": 924,
      "شاد": 925,
      "موش": 926,
      "قای": 927,
      "اد": 928,
      "حشره": 929,
      "داشته": 930,
      "##روس": 931,
      "##عه": 932,
      "دادند": 933,
      "##عت": 934,
      "##شن": 935,
      "ری": 936,
      "ال": 937,
      "##توان": 938,
      "دارند": 939,
      "جال": 940,
      "##وار": 941,
      "جاد": 942,
      "پشت": 943,
      "برو": 944,
      "##ستان": 945,
      "زود": 946,
      "##ران": 947,
      "برود": 948,
      "##تظ": 949,
      "وی": 950,
      "عروس": 951,
      "پسربچه": 952,
      "##گاری": 953,
      "غیر": 954,
      "##له": 955,
      "گریه": 956,
      "##بانی": 957,
      "شان": 958,
      "درخشان": 959,
      "بگیر": 960,
      "بین": 961,
      "سپ": 962,
      "زدن": 963,
      "توانی": 964,
      "نگه": 965,
      "گرد": 966,
      "زیب": 967,
      "لباس": 968,
      "خواهد": 969,
      "چیزهای": 970,
      "روزگاری": 971,
      "عصبانی": 972,
      "##لف": 973,
      "پیر": 974,
      "نبا": 975,
      "##تظره": 976,
      "متن": 977,
      "##امه": 978,
      "##فا": 979,
      "دری": 980,
      "##ژه": 981,
      "مهم": 982,
      "اورد": 983,
      "صدا": 984,
      "حر": 985,
      "ممن": 986,
      "بگی": 987,
      "داستان": 988,
      "بگذ": 989,
      "غذا": 990,
      "گفتند": 991,
      "بگیرد": 992,
      "توانیم": 993,
      "شنید": 994,
      "ممنون": 995,
      "شه": 996,
      "##خانه": 997,
      "خانو": 998,
      "فار": 999,
      "قایق": 1000,
      "##وت": 1001,
      "خواب": 1002,
      "فارسی": 1003,
      "##گاه": 1004,
      "چطور": 1005,
      "##راک": 1006,
      "##دیگ": 1007,
      "خور": 1008,
      "کنید": 1009,
      "دختری": 1010,
      "گشت": 1011,
      "خانواده": 1012,
      "تمی": 1013,
      "صند": 1014,
      "یا": 1015,
      "استف": 1016,
      "مامانش": 1017,
      "کا": 1018,
      "استفاده": 1019,
      "اشتراک": 1020,
      "##قص": 1021,
      "گرم": 1022,
      "##غه": 1023,
      "##نش": 1024,
      "تمیز": 1025,
      "##دیگر": 1026,
      "صور": 1027,
      "سخت": 1028,
      "امی": 1029,
      "قور": 1030,
      "پدرش": 1031,
      "بالای": 1032,
      "تعجب": 1033,
      "##کش": 1034,
      "قوربا": 1035,
      "کوچولویی": 1036,
      "جادویی": 1037,
      "قورباغه": 1038,
      "##مان": 1039,
      "نکرد": 1040,
      "دی": 1041,
      "حالی": 1042,
      "مع": 1043,
      "##هم": 1044,
      "برگرد": 1045,
      "پسری": 1046,
      "وقت": 1047,
      "ساخت": 1048,
      "لط": 1049,
      "حرکت": 1050,
      "کلاه": 1051,
      "نداشت": 1052,
      "هایشان": 1053,
      "پوش": 1054,
      "ارز": 1055,
      "غیرمن": 1056,
      "هرگ": 1057,
      "غیرمنتظره": 1058,
      "اه": 1059,
      "یکی": 1060,
      "ارام": 1061,
      "هرگز": 1062,
      "مورد": 1063,
      "گیر": 1064,
      "زودی": 1065,
      "##فش": 1066,
      "##تون": 1067,
      "ویژه": 1068,
      "##این": 1069,
      "باشه": 1070,
      "اگر": 1071,
      "گی": 1072,
      "لطفا": 1073,
      "جای": 1074,
      "شدن": 1075,
      "چوب": 1076,
      "انجا": 1077,
      "کیتی": 1078,
      "درباره": 1079,
      "سالی": 1080,
      "هستی": 1081,
      "##کن": 1082,
      "##گفت": 1083,
      "جان": 1084,
      "خواهم": 1085,
      "خوشحالی": 1086,
      "##قت": 1087,
      "اط": 1088,
      "مردم": 1089,
      "شهر": 1090,
      "شگفت": 1091,
      "حتی": 1092,
      "ترس": 1093,
      "گم": 1094,
      "شاید": 1095,
      "صب": 1096,
      "##وم": 1097,
      "خورشید": 1098,
      "نگران": 1099,
      "اج": 1100,
      "##بیند": 1101,
      "بست": 1102,
      "هیچ": 1103,
      "##بت": 1104,
      "تن": 1105,
      "##فی": 1106,
      "##لاش": 1107,
      "فرو": 1108,
      "ببیند": 1109,
      "نشست": 1110,
      "خی": 1111,
      "##جمه": 1112,
      "شنا": 1113,
      "تلاش": 1114,
      "نو": 1115,
      "هوا": 1116,
      "جک": 1117,
      "##کم": 1118,
      "##سد": 1119,
      "سال": 1120,
      "خواند": 1121,
      "جدیدی": 1122,
      "##بل": 1123,
      "سنج": 1124,
      "نتوان": 1125,
      "سرش": 1126,
      "چشم": 1127,
      "جالب": 1128,
      "پشم": 1129,
      "##بد": 1130,
      "##ایت": 1131,
      "شجا": 1132,
      "قط": 1133,
      "شیرین": 1134,
      "قوی": 1135,
      "طرف": 1136,
      "جا": 1137,
      "لکه": 1138,
      "سف": 1139,
      "یکدیگر": 1140,
      "بخور": 1141,
      "بابا": 1142,
      "اطرا": 1143,
      "##ابر": 1144,
      "نتوانست": 1145,
      "خندید": 1146,
      "شوند": 1147,
      "فری": 1148,
      "حیاط": 1149,
      "سپس": 1150,
      "##ناک": 1151,
      "##های": 1152,
      "نیاز": 1153,
      "##ين": 1154,
      "منت": 1155,
      "اشپ": 1156,
      "اخ": 1157,
      "انقدر": 1158,
      "کننده": 1159,
      "پایان": 1160,
      "##یری": 1161,
      "بس": 1162,
      "چیست": 1163,
      "سیب": 1164,
      "بیشتر": 1165,
      "دویدند": 1166,
      "کردم": 1167,
      "نرم": 1168,
      "ترجمه": 1169,
      "غرو": 1170,
      "متو": 1171,
      "قل": 1172,
      "خسته": 1173,
      "##قات": 1174,
      "واق": 1175,
      "افتابی": 1176,
      "##چن": 1177,
      "بدی": 1178,
      "دع": 1179,
      "محکم": 1180,
      "نم": 1181,
      "متوجه": 1182,
      "منتظر": 1183,
      "بنابر": 1184,
      "بنابراین": 1185,
      "همچن": 1186,
      "داری": 1187,
      "##جک": 1188,
      "##بان": 1189,
      "ادامه": 1190,
      "متاس": 1191,
      "هن": 1192,
      "فهم": 1193,
      "متاسف": 1194,
      "سنجاب": 1195,
      "کنجک": 1196,
      "تخت": 1197,
      "بخورد": 1198,
      "ایمی": 1199,
      "ریخت": 1200,
      "##لو": 1201,
      "بردند": 1202,
      "اماده": 1203,
      "مل": 1204,
      "رقص": 1205,
      "رفتن": 1206,
      "##تو": 1207,
      "##مد": 1208,
      "هستم": 1209,
      "##وبو": 1210,
      "چرخ": 1211,
      "سبز": 1212,
      "متوق": 1213,
      "کسی": 1214,
      "بودن": 1215,
      "متوقف": 1216,
      "##امیون": 1217,
      "کامیون": 1218,
      "قر": 1219,
      "جم": 1220,
      "سرس": 1221,
      "ارد": 1222,
      "##زر": 1223,
      "##افظ": 1224,
      "خوردن": 1225,
      "مساب": 1226,
      "تپ": 1227,
      "فریاد": 1228,
      "شادی": 1229,
      "مسابقه": 1230,
      "اشپز": 1231,
      "انگ": 1232,
      "دیگه": 1233,
      "دخترک": 1234,
      "بزند": 1235,
      "باشند": 1236,
      "##مند": 1237,
      "امت": 1238,
      "تماش": 1239,
      "دیگری": 1240,
      "##شد": 1241,
      "دیگران": 1242,
      "##بخت": 1243,
      "دریا": 1244,
      "خونه": 1245,
      "ماج": 1246,
      "هنوز": 1247,
      "مغ": 1248,
      "چند": 1249,
      "جواب": 1250,
      "دانستند": 1251,
      "عروسک": 1252,
      "قف": 1253,
      "تپه": 1254,
      "دم": 1255,
      "##شی": 1256,
      "امتح": 1257,
      "##اشی": 1258,
      "بلندی": 1259,
      "تق": 1260,
      "امتحان": 1261,
      "کنجکاو": 1262,
      "پشمال": 1263,
      "عج": 1264,
      "هنگ": 1265,
      "شب": 1266,
      "##ضی": 1267,
      "##يد": 1268,
      "قدر": 1269,
      "بیند": 1270,
      "##مون": 1271,
      "##اطر": 1272,
      "سرد": 1273,
      "شجاع": 1274,
      "سرسره": 1275,
      "##یف": 1276,
      "##اهای": 1277,
      "اق": 1278,
      "##میر": 1279,
      "ابد": 1280,
      "خد": 1281,
      "میز": 1282,
      "خوشبخت": 1283,
      "مار": 1284,
      "بیای": 1285,
      "مال": 1286,
      "اطراف": 1287,
      "بیشتری": 1288,
      "مش": 1289,
      "عالی": 1290,
      "برگشتند": 1291,
      "اینجا": 1292,
      "دهند": 1293,
      "تنها": 1294,
      "##اورد": 1295,
      "پشمالو": 1296,
      "##راخ": 1297,
      "وح": 1298,
      "مواف": 1299,
      "سوراخ": 1300,
      "##باه": 1301,
      "توانند": 1302,
      "پنه": 1303,
      "دیدن": 1304,
      "فروش": 1305,
      "صندلی": 1306,
      "جمع": 1307,
      "مرت": 1308,
      "همان": 1309,
      "##غذ": 1310,
      "سه": 1311,
      "پنج": 1312,
      "اومد": 1313,
      "اونا": 1314,
      "اشپزخانه": 1315,
      "صح": 1316,
      "##اموش": 1317,
      "کاغذ": 1318,
      "کث": 1319,
      "زن": 1320,
      "تماشا": 1321,
      "##لاقه": 1322,
      "اتاقش": 1323,
      "درس": 1324,
      "باران": 1325,
      "##شنگ": 1326,
      "بساز": 1327,
      "پنهان": 1328,
      "قشنگ": 1329,
      "صورت": 1330,
      "##وط": 1331,
      "مزر": 1332,
      "مزرعه": 1333,
      "##چرخ": 1334,
      "نقاشی": 1335,
      "##مس": 1336,
      "##شون": 1337,
      "میک": 1338,
      "اسیب": 1339,
      "شاخ": 1340,
      "##افل": 1341,
      "##ذر": 1342,
      "لمس": 1343,
      "اجازه": 1344,
      "مرتب": 1345,
      "جین": 1346,
      "##انش": 1347,
      "اتش": 1348,
      "ماند": 1349,
      "فرار": 1350,
      "نشد": 1351,
      "دک": 1352,
      "بهت": 1353,
      "اردک": 1354,
      "امید": 1355,
      "پیش": 1356,
      "مشک": 1357,
      "دل": 1358,
      "ارزو": 1359,
      "وارد": 1360,
      "مط": 1361,
      "هایی": 1362,
      "##کار": 1363,
      "خوردند": 1364,
      "زیبایی": 1365,
      "خواهند": 1366,
      "رود": 1367,
      "حم": 1368,
      "کردی": 1369,
      "مرغ": 1370,
      "ماجرا": 1371,
      "موافقت": 1372,
      "خنده": 1373,
      "کاری": 1374,
      "اغ": 1375,
      "مخ": 1376,
      "همین": 1377,
      "خانم": 1378,
      "تند": 1379,
      "تار": 1380,
      "فهمید": 1381,
      "بوبو": 1382,
      "میوه": 1383,
      "نهایت": 1384,
      "##مت": 1385,
      "نباش": 1386,
      "علاقه": 1387,
      "تیمی": 1388,
      "اواز": 1389,
      "##سیم": 1390,
      "خاطر": 1391,
      "کثیف": 1392,
      "فرد": 1393,
      "##گیری": 1394,
      "دادن": 1395,
      "گاهی": 1396,
      "دوستاش": 1397,
      "درون": 1398,
      "غافل": 1399,
      "##نا": 1400,
      "ذه": 1401,
      "گذاشتند": 1402,
      "##وض": 1403,
      "زرد": 1404,
      "##مو": 1405,
      "اغوش": 1406,
      "خداح": 1407,
      "بش": 1408,
      "خداحافظ": 1409,
      "دستش": 1410,
      "خوشش": 1411,
      "شاخه": 1412,
      "برمی": 1413,
      "گرس": 1414,
      "باه": 1415,
      "کیسه": 1416,
      "جست": 1417,
      "روشن": 1418,
      "تعمیر": 1419,
      "خط": 1420,
      "انداخت": 1421,
      "باهوش": 1422,
      "چقدر": 1423,
      "خاک": 1424,
      "##ویند": 1425,
      "باشی": 1426,
      "اید": 1427,
      "کام": 1428,
      "ست": 1429,
      "چیزها": 1430,
      "##ظه": 1431,
      "بو": 1432,
      "صحبت": 1433,
      "ماجراج": 1434,
      "امیدوار": 1435,
      "##شته": 1436,
      "##بزرگ": 1437,
      "بینند": 1438,
      "##سب": 1439,
      "بریم": 1440,
      "ندید": 1441,
      "مور": 1442,
      "مادربزرگ": 1443,
      "خیس": 1444,
      "یخ": 1445,
      "خوام": 1446,
      "قرار": 1447,
      "##نک": 1448,
      "خواهی": 1449,
      "گرسنه": 1450,
      "باع": 1451,
      "##جات": 1452,
      "باعث": 1453,
      "اتفاقی": 1454,
      "ملا": 1455,
      "تونم": 1456,
      "افتاده": 1457,
      "انگی": 1458,
      "جدیدش": 1459,
      "مورچه": 1460,
      "##عا": 1461,
      "فین": 1462,
      "دراز": 1463,
      "ذهنش": 1464,
      "##جاد": 1465,
      "براق": 1466,
      "فراموش": 1467,
      "فروشگاه": 1468,
      "قبل": 1469,
      "سوار": 1470,
      "داده": 1471,
      "##خورد": 1472,
      "قه": 1473,
      "ایجاد": 1474,
      "بیایید": 1475,
      "##زار": 1476,
      "برج": 1477,
      "تبد": 1478,
      "##نگی": 1479,
      "رسیدند": 1480,
      "حل": 1481,
      "##وک": 1482,
      "##لت": 1483,
      "##زم": 1484,
      "طور": 1485,
      "تبدیل": 1486,
      "دنی": 1487,
      "خداحافظی": 1488,
      "مج": 1489,
      "مشغ": 1490,
      "##اهر": 1491,
      "##لوی": 1492,
      "رنگی": 1493,
      "غرور": 1494,
      "ستاره": 1495,
      "اقای": 1496,
      "ملاقات": 1497,
      "##گان": 1498,
      "بدهد": 1499,
      "##انجام": 1500,
      "شیرینی": 1501,
      "سرانجام": 1502,
      "##سای": 1503,
      "تقسیم": 1504,
      "##زید": 1505,
      "##انند": 1506,
      "مشغول": 1507,
      "پروانه": 1508,
      "هد": 1509,
      "##روز": 1510,
      "بعدا": 1511,
      "بزن": 1512,
      "پرند": 1513,
      "درد": 1514,
      "گویند": 1515,
      "پرت": 1516,
      "بستنی": 1517,
      "لیلا": 1518,
      "##یز": 1519,
      "وای": 1520,
      "##چرخه": 1521,
      "##ونه": 1522,
      "تاریک": 1523,
      "واقعا": 1524,
      "دویدن": 1525,
      "غذای": 1526,
      "مادرشان": 1527,
      "شدید": 1528,
      "قول": 1529,
      "بگذار": 1530,
      "سرعت": 1531,
      "متشک": 1532,
      "خراب": 1533,
      "اول": 1534,
      "دعوا": 1535,
      "متشکرم": 1536,
      "##رت": 1537,
      "ببینند": 1538,
      "هل": 1539,
      "سی": 1540,
      "دوچرخه": 1541,
      "توانستند": 1542,
      "قطار": 1543,
      "غمگینی": 1544,
      "##وله": 1545,
      "بروند": 1546,
      "##اشق": 1547,
      "پنجره": 1548,
      "لانه": 1549,
      "رنگار": 1550,
      "جی": 1551,
      "##خر": 1552,
      "همر": 1553,
      "مدتی": 1554,
      "مهربانی": 1555,
      "دون": 1556,
      "بدون": 1557,
      "ایم": 1558,
      "داره": 1559,
      "شاه": 1560,
      "ببر": 1561,
      "تونی": 1562,
      "##بار": 1563,
      "##ونی": 1564,
      "داریم": 1565,
      "دوستی": 1566,
      "امروز": 1567,
      "بق": 1568,
      "بپرد": 1569,
      "پرتاب": 1570,
      "##ریف": 1571,
      "متاسفم": 1572,
      "انت": 1573,
      "طول": 1574,
      "نوب": 1575,
      "ایست": 1576,
      "ترسناک": 1577,
      "امو": 1578,
      "استرا": 1579,
      "##پی": 1580,
      "پوشید": 1581,
      "##خواهی": 1582,
      "جایی": 1583,
      "گرفته": 1584,
      "استراحت": 1585,
      "عکس": 1586,
      "بقیه": 1587,
      "ساح": 1588,
      "##غد": 1589,
      "باشیم": 1590,
      "##جن": 1591,
      "زیاد": 1592,
      "صدایی": 1593,
      "ماجراجویی": 1594,
      "برادر": 1595,
      "جغد": 1596,
      "ظرف": 1597,
      "##وند": 1598,
      "غافلگیری": 1599,
      "صورتی": 1600,
      "چیزهایی": 1601,
      "جستج": 1602,
      "##رش": 1603,
      "امن": 1604,
      "##فر": 1605,
      "اموخت": 1606,
      "##لات": 1607,
      "نقشه": 1608,
      "پرندگان": 1609,
      "##چی": 1610,
      "همراه": 1611,
      "صندوق": 1612,
      "نجات": 1613,
      "پاک": 1614,
      "مهمانی": 1615,
      "توپش": 1616,
      "ساحل": 1617,
      "شکسته": 1618,
      "مطم": 1619,
      "##دا": 1620,
      "دیده": 1621,
      "نباید": 1622,
      "کنن": 1623,
      "##زن": 1624,
      "دختربچه": 1625,
      "داشتن": 1626,
      "فیل": 1627,
      "همچنان": 1628,
      "گاز": 1629,
      "##رات": 1630,
      "مي": 1631,
      "تنه": 1632,
      "بهتری": 1633,
      "صبر": 1634,
      "رد": 1635,
      "پن": 1636,
      "مکان": 1637,
      "يک": 1638,
      "امدند": 1639,
      "دیزی": 1640,
      "گیاه": 1641,
      "لح": 1642,
      "دخترکی": 1643,
      "سنگین": 1644,
      "پا": 1645,
      "روباه": 1646,
      "دیوار": 1647,
      "بادی": 1648,
      "##یبی": 1649,
      "زنب": 1650,
      "##تان": 1651,
      "مطمين": 1652,
      "##یدار": 1653,
      "رنگارنگ": 1654,
      "پارس": 1655,
      "قلعه": 1656,
      "بهم": 1657,
      "تازه": 1658,
      "اندازه": 1659,
      "شکست": 1660,
      "قدیمی": 1661,
      "##ریک": 1662,
      "##اله": 1663,
      "بکش": 1664,
      "بتو": 1665,
      "دود": 1666,
      "##پیم": 1667,
      "بم": 1668,
      "احم": 1669,
      "همچنین": 1670,
      "##بو": 1671,
      "بیدار": 1672,
      "بهش": 1673,
      "عذر": 1674,
      "ابر": 1675,
      "گشتند": 1676,
      "حوض": 1677,
      "مراقبت": 1678,
      "##ناب": 1679,
      "کد": 1680,
      "زنبور": 1681,
      "عذرخواهی": 1682,
      "کس": 1683,
      "اص": 1684,
      "باها": 1685,
      "صبح": 1686,
      "طناب": 1687,
      "مغازه": 1688,
      "هنگامی": 1689,
      "ببرد": 1690,
      "شیشه": 1691,
      "حس": 1692,
      "دهم": 1693,
      "کلید": 1694,
      "متع": 1695,
      "کفش": 1696,
      "الی": 1697,
      "گرفتن": 1698,
      "بلوک": 1699,
      "##ذیر": 1700,
      "پیچ": 1701,
      "شریک": 1702,
      "واو": 1703,
      "تخ": 1704,
      "کشیدند": 1705,
      "خرد": 1706,
      "چمن": 1707,
      "##لاقی": 1708,
      "خشک": 1709,
      "شام": 1710,
      "بدجن": 1711,
      "شی": 1712,
      "##یره": 1713,
      "دمش": 1714,
      "کجا": 1715,
      "تامی": 1716,
      "سفید": 1717,
      "لحظه": 1718,
      "قس": 1719,
      "گاو": 1720,
      "مدر": 1721,
      "نخ": 1722,
      "##زا": 1723,
      "تصو": 1724,
      "پول": 1725,
      "نشستند": 1726,
      "باشید": 1727,
      "احمق": 1728,
      "مم": 1729,
      "هدیه": 1730,
      "طولانی": 1731,
      "کرم": 1732,
      "پو": 1733,
      "قسمت": 1734,
      "چیه": 1735,
      "##وری": 1736,
      "سگی": 1737,
      "##تمند": 1738,
      "قهوه": 1739,
      "کمکش": 1740,
      "پیاده": 1741,
      "هواپیم": 1742,
      "زمان": 1743,
      "دوستانه": 1744,
      "اشنا": 1745,
      "بدود": 1746,
      "مک": 1747,
      "نکن": 1748,
      "##قاب": 1749,
      "##خواست": 1750,
      "علف": 1751,
      "میتون": 1752,
      "##خره": 1753,
      "سا": 1754,
      "غروب": 1755,
      "بالاتر": 1756,
      "بتواند": 1757,
      "سکه": 1758,
      "توت": 1759,
      "بپوش": 1760,
      "##بر": 1761,
      "انگیز": 1762,
      "ببخ": 1763,
      "تکه": 1764,
      "پذیر": 1765,
      "الان": 1766,
      "##خاب": 1767,
      "خطر": 1768,
      "بگذارد": 1769,
      "کشف": 1770,
      "دونست": 1771,
      "انتخاب": 1772,
      "فش": 1773,
      "پل": 1774,
      "عجیبی": 1775,
      "بیلی": 1776,
      "وسای": 1777,
      "مخفی": 1778,
      "##فه": 1779,
      "زمانی": 1780,
      "جشن": 1781,
      "اخلاقی": 1782,
      "تونست": 1783,
      "تعریف": 1784,
      "##حتی": 1785,
      "اوقات": 1786,
      "نشسته": 1787,
      "برویم": 1788,
      "عروسکی": 1789,
      "زبان": 1790,
      "میکرد": 1791,
      "برگرداند": 1792,
      "رفته": 1793,
      "##يم": 1794,
      "سفر": 1795,
      "موسی": 1796,
      "توانید": 1797,
      "مخت": 1798,
      "هنگام": 1799,
      "خرچ": 1800,
      "خار": 1801,
      "دکمه": 1802,
      "خج": 1803,
      "ندار": 1804,
      "برایش": 1805,
      "بک": 1806,
      "تول": 1807,
      "خجال": 1808,
      "دراورد": 1809,
      "عمی": 1810,
      "##لاق": 1811,
      "برف": 1812,
      "مختلف": 1813,
      "بتوان": 1814,
      "جستجو": 1815,
      "پاد": 1816,
      "مدت": 1817,
      "##اص": 1818,
      "##سر": 1819,
      "تک": 1820,
      "عزی": 1821,
      "##خی": 1822,
      "بلا": 1823,
      "بوده": 1824,
      "كرد": 1825,
      "موف": 1826,
      "موسیقی": 1827,
      "پاش": 1828,
      "روند": 1829,
      "وحشت": 1830,
      "غلت": 1831,
      "واقعی": 1832,
      "بع": 1833,
      "بند": 1834,
      "زنگ": 1835,
      "خرچنگ": 1836,
      "بخواند": 1837,
      "##رز": 1838,
      "چراغ": 1839,
      "مشکلی": 1840,
      "برخورد": 1841,
      "خوای": 1842,
      "بدجنس": 1843,
      "اره": 1844,
      "بردارد": 1845,
      "صاح": 1846,
      "##ارهای": 1847,
      "اض": 1848,
      "وسایل": 1849,
      "پریدند": 1850,
      "حمام": 1851,
      "نور": 1852,
      "##شیم": 1853,
      "بعضی": 1854,
      "کیف": 1855,
      "ماه": 1856,
      "##فاو": 1857,
      "تصویر": 1858,
      "سط": 1859,
      "رها": 1860,
      "جالبی": 1861,
      "زنند": 1862,
      "دوستت": 1863,
      "خواهش": 1864,
      "بشه": 1865,
      "پری": 1866,
      "مق": 1867,
      "بوت": 1868,
      "چاق": 1869,
      "##وف": 1870,
      "کلم": 1871,
      "برنده": 1872,
      "اژ": 1873,
      "لي": 1874,
      "ترین": 1875,
      "مید": 1876,
      "ساله": 1877,
      "سوپ": 1878,
      "سای": 1879,
      "برگشتن": 1880,
      "اعت": 1881,
      "مداد": 1882,
      "ساعت": 1883,
      "چسب": 1884,
      "بوته": 1885,
      "##الد": 1886,
      "##باد": 1887,
      "صاحب": 1888,
      "##رمی": 1889,
      "##لق": 1890,
      "بیاید": 1891,
      "##رین": 1892,
      "رس": 1893,
      "حوضچه": 1894,
      "نامه": 1895,
      "هستید": 1896,
      "جیغ": 1897,
      "گذرو": 1898,
      "نان": 1899,
      "سیاه": 1900,
      "##خواه": 1901,
      "رودخانه": 1902,
      "میمون": 1903,
      "شنیدند": 1904,
      "##دی": 1905,
      "اوه": 1906,
      "نداد": 1907,
      "میان": 1908,
      "خوشگ": 1909,
      "قفسه": 1910,
      "انگشت": 1911,
      "بماند": 1912,
      "##فته": 1913,
      "گذاشتن": 1914,
      "مسیر": 1915,
      "دانم": 1916,
      "دریاچه": 1917,
      "قب": 1918,
      "بگیرند": 1919,
      "ممکن": 1920,
      "نتر": 1921,
      "بینی": 1922,
      "درختی": 1923,
      "باشم": 1924,
      "باهاش": 1925,
      "##حه": 1926,
      "بوی": 1927,
      "##شتی": 1928,
      "نوبتی": 1929,
      "پشیم": 1930,
      "میمی": 1931,
      "مردی": 1932,
      "##وید": 1933,
      "##ابی": 1934,
      "امده": 1935,
      "بره": 1936,
      "معل": 1937,
      "نیم": 1938,
      "والد": 1939,
      "##انو": 1940,
      "ایمن": 1941,
      "نمایش": 1942,
      "سطل": 1943,
      "##اور": 1944,
      "عم": 1945,
      "دهانش": 1946,
      "اشک": 1947,
      "مدرسه": 1948,
      "بسازد": 1949,
      "نشون": 1950,
      "بامزه": 1951,
      "##نامه": 1952,
      "##حی": 1953,
      "ریختگی": 1954,
      "متفاو": 1955,
      "لیوان": 1956,
      "مخل": 1957,
      "مخلوط": 1958,
      "شر": 1959,
      "خوشی": 1960,
      "دفت": 1961,
      "گنج": 1962,
      "قاشق": 1963,
      "موشک": 1964,
      "بسته": 1965,
      "##رسی": 1966,
      "##قل": 1967,
      "اعتم": 1968,
      "دنیا": 1969,
      "تونیم": 1970,
      "شکل": 1971,
      "والدین": 1972,
      "ترک": 1973,
      "خطرناک": 1974,
      "عجیب": 1975,
      "تخم": 1976,
      "##ندی": 1977,
      "##امد": 1978,
      "گیرد": 1979,
      "حف": 1980,
      "کمان": 1981,
      "خیاب": 1982,
      "##افی": 1983,
      "ملای": 1984,
      "درختان": 1985,
      "صدف": 1986,
      "فرنگی": 1987,
      "سالم": 1988,
      "خواندن": 1989,
      "اعتماد": 1990,
      "کمکت": 1991,
      "##ارش": 1992,
      "ندیده": 1993,
      "بنفش": 1994,
      "دکتر": 1995,
      "نف": 1996,
      "وزید": 1997,
      "داغ": 1998,
      "##جاست": 1999,
      "بکشد": 2000,
      "##ar": 2001,
      "تنهایی": 2002,
      "ذوق": 2003,
      "سرا": 2004,
      "##ویش": 2005,
      "##انم": 2006,
      "دفتر": 2007,
      "پست": 2008,
      "گیرند": 2009,
      "ببخشید": 2010,
      "ناپ": 2011,
      "##سف": 2012,
      "اشتباه": 2013,
      "اژد": 2014,
      "تال": 2015,
      "دقی": 2016,
      "موفق": 2017,
      "##وچه": 2018,
      "پارچه": 2019,
      "بخش": 2020,
      "کاوش": 2021,
      "بخورند": 2022,
      "رفتار": 2023,
      "طوف": 2024,
      "##رند": 2025,
      "##راکی": 2026,
      "تلف": 2027,
      "حب": 2028,
      "معلم": 2029,
      "رمی": 2030,
      "ناپدید": 2031,
      "##مرد": 2032,
      "خاص": 2033,
      "حلقه": 2034,
      "غر": 2035,
      "بسیاری": 2036,
      "متعلق": 2037,
      "##ازد": 2038,
      "کت": 2039,
      "پرسد": 2040,
      "خرید": 2041,
      "مشت": 2042,
      "شل": 2043,
      "##عده": 2044,
      "کارت": 2045,
      "ببینیم": 2046,
      "ساختن": 2047,
      "##گرد": 2048,
      "##ویج": 2049,
      "##اسه": 2050,
      "موهای": 2051,
      "مهربون": 2052,
      "##an": 2053,
      "پادش": 2054,
      "سب": 2055,
      "صف": 2056,
      "خوراکی": 2057,
      "کمد": 2058,
      "##کو": 2059,
      "اشاره": 2060,
      "خاکست": 2061,
      "##he": 2062,
      "خواندند": 2063,
      "شیط": 2064,
      "پیرمرد": 2065,
      "خیابان": 2066,
      "پرد": 2067,
      "بزرگش": 2068,
      "##ولا": 2069,
      "##بوت": 2070,
      "هویج": 2071,
      "برس": 2072,
      "دند": 2073,
      "مود": 2074,
      "بادباد": 2075,
      "وعده": 2076,
      "##ندن": 2077,
      "بخواب": 2078,
      "دقت": 2079,
      "دیر": 2080,
      "بمان": 2081,
      "چنگ": 2082,
      "رنگین": 2083,
      "کلا": 2084,
      "توانسته": 2085,
      "##ازی": 2086,
      "##بته": 2087,
      "پلی": 2088,
      "البته": 2089,
      "خردمند": 2090,
      "سوت": 2091,
      "قفل": 2092,
      "نوشته": 2093,
      "کاسه": 2094,
      "لاک": 2095,
      "تصاو": 2096,
      "تعق": 2097,
      "يك": 2098,
      "تالاب": 2099,
      "هیولا": 2100,
      "عنک": 2101,
      "شوم": 2102,
      "مفت": 2103,
      "لیم": 2104,
      "تونه": 2105,
      "موا": 2106,
      "بشن": 2107,
      "##روم": 2108,
      "تعقیب": 2109,
      "##رمان": 2110,
      "طوفان": 2111,
      "رشد": 2112,
      "سایه": 2113,
      "نتوانستند": 2114,
      "تولد": 2115,
      "عب": 2116,
      "خودشان": 2117,
      "برند": 2118,
      "##طری": 2119,
      "محب": 2120,
      "ندارد": 2121,
      "دانه": 2122,
      "افتد": 2123,
      "قطع": 2124,
      "شانه": 2125,
      "برقص": 2126,
      "##راحی": 2127,
      "اهمی": 2128,
      "محبوب": 2129,
      "مرسی": 2130,
      "ناه": 2131,
      "دارید": 2132,
      "قاب": 2133,
      "بیم": 2134,
      "##زاده": 2135,
      "##ما": 2136,
      "چیکار": 2137,
      "عزیزم": 2138,
      "رسد": 2139,
      "##وده": 2140,
      "روست": 2141,
      "پیت": 2142,
      "سبد": 2143,
      "فل": 2144,
      "ازاد": 2145,
      "مشکل": 2146,
      "غول": 2147,
      "ارامی": 2148,
      "پریدن": 2149,
      "قایم": 2150,
      "بطری": 2151,
      "نوش": 2152,
      "ماندند": 2153,
      "خندیدن": 2154,
      "مفتخر": 2155,
      "نوز": 2156,
      "شاهزاده": 2157,
      "مارک": 2158,
      "گفته": 2159,
      "ثرو": 2160,
      "پنیر": 2161,
      "دوستانشان": 2162,
      "عمیق": 2163,
      "دزد": 2164,
      "بزرگتر": 2165,
      "##ینی": 2166,
      "خواهیم": 2167,
      "لوله": 2168,
      "##افه": 2169,
      "ساک": 2170,
      "##ربه": 2171,
      "استخ": 2172,
      "جیل": 2173,
      "نبودند": 2174,
      "جادو": 2175,
      "کوچیک": 2176,
      "متفاوت": 2177,
      "خواستم": 2178,
      "عنکبوت": 2179,
      "برسد": 2180,
      "هاش": 2181,
      "خوشحالم": 2182,
      "تلفن": 2183,
      "پخت": 2184,
      "##هایش": 2185,
      "تابید": 2186,
      "صورتش": 2187,
      "##گو": 2188,
      "کلوچه": 2189,
      "خاکستری": 2190,
      "داشتنی": 2191,
      "مجب": 2192,
      "##بیه": 2193,
      "نوزاد": 2194,
      "چنگال": 2195,
      "پادشاه": 2196,
      "ثروتمند": 2197,
      "کامل": 2198,
      "مجبور": 2199,
      "استخر": 2200,
      "کشاور": 2201,
      "بگیری": 2202,
      "طراحی": 2203,
      "کف": 2204,
      "بشقاب": 2205,
      "عقب": 2206,
      "##تور": 2207,
      "عن": 2208,
      "##اي": 2209,
      "بادبادک": 2210,
      "نار": 2211,
      "کشیدن": 2212,
      "##وع": 2213,
      "##نجی": 2214,
      "امنی": 2215,
      "##گیر": 2216,
      "اتوبو": 2217,
      "انجامش": 2218,
      "دریایی": 2219,
      "کاملا": 2220,
      "لیزا": 2221,
      "موتور": 2222,
      "سواری": 2223,
      "حباب": 2224,
      "حص": 2225,
      "کوچکش": 2226,
      "عنوان": 2227,
      "جور": 2228,
      "ملایم": 2229,
      "اتوبوس": 2230,
      "بادکن": 2231,
      "کارهای": 2232,
      "شویم": 2233,
      "درخشانی": 2234,
      "اضافه": 2235,
      "##صر": 2236,
      "رقصیدن": 2237,
      "کشاورز": 2238,
      "حد": 2239,
      "ناام": 2240,
      "##اننده": 2241,
      "پد": 2242,
      "مواظ": 2243,
      "صمیم": 2244,
      "خالی": 2245,
      "زیبای": 2246,
      "عط": 2247,
      "##اپ": 2248,
      "ساند": 2249,
      "##ادل": 2250,
      "محافظ": 2251,
      "##قف": 2252,
      "نیستند": 2253,
      "ساختند": 2254,
      "خوک": 2255,
      "برفی": 2256,
      "خوبه": 2257,
      "تح": 2258,
      "جیک": 2259,
      "خارج": 2260,
      "جلوی": 2261,
      "##سل": 2262,
      "شدیدی": 2263,
      "صمیمی": 2264,
      "رانند": 2265,
      "عر": 2266,
      "جن": 2267,
      "پیراه": 2268,
      "حفره": 2269,
      "تصاویر": 2270,
      "جیب": 2271,
      "بازیش": 2272,
      "مشتاق": 2273,
      "تکون": 2274,
      "نارنجی": 2275,
      "##رانند": 2276,
      "نواز": 2277,
      "قدرت": 2278,
      "باغچه": 2279,
      "اهنگ": 2280,
      "نفس": 2281,
      "مست": 2282,
      "##ویق": 2283,
      "سگش": 2284,
      "ناراحتی": 2285,
      "دوند": 2286,
      "حصار": 2287,
      "سپاس": 2288,
      "دعوت": 2289,
      "تخته": 2290,
      "ایستاد": 2291,
      "غار": 2292,
      "خنک": 2293,
      "اویز": 2294,
      "زیباست": 2295,
      "مواظب": 2296,
      "##ودی": 2297,
      "ناامید": 2298,
      "شست": 2299,
      "کوت": 2300,
      "مبل": 2301,
      "رقصیدند": 2302,
      "غذاهای": 2303,
      "کمکم": 2304,
      "##لویزی": 2305,
      "تلویزی": 2306,
      "استخوان": 2307,
      "هواپیما": 2308,
      "خوشگل": 2309,
      "خواهر": 2310,
      "ساندوی": 2311,
      "بادکنک": 2312,
      "گذراند": 2313,
      "کردید": 2314,
      "جری": 2315,
      "فنج": 2316,
      "باور": 2317,
      "##داری": 2318,
      "دوی": 2319,
      "ملح": 2320,
      "برگردد": 2321,
      "اینه": 2322,
      "لغ": 2323,
      "کوکی": 2324,
      "بذ": 2325,
      "ظاهر": 2326,
      "کشتی": 2327,
      "تلویزیون": 2328,
      "حالش": 2329,
      "##ونا": 2330,
      "اژدها": 2331,
      "##غی": 2332,
      "احتی": 2333,
      "بگیرم": 2334,
      "بیمار": 2335,
      "گرگ": 2336,
      "خي": 2337,
      "ساندویچ": 2338,
      "وحشی": 2339,
      "بزنند": 2340,
      "احمقانه": 2341,
      "##واره": 2342,
      "رانندگی": 2343,
      "کوچولوی": 2344,
      "##عم": 2345,
      "##وص": 2346,
      "پاره": 2347,
      "درو": 2348,
      "نمود": 2349,
      "##ضیح": 2350,
      "توضیح": 2351,
      "تشویق": 2352,
      "جاده": 2353,
      "عسل": 2354,
      "کافی": 2355,
      "##يه": 2356,
      "راننده": 2357,
      "##بات": 2358,
      "زمینی": 2359,
      "خجالتی": 2360,
      "ملحق": 2361,
      "فشار": 2362,
      "بگیریم": 2363,
      "میشه": 2364,
      "تیز": 2365,
      "پاس": 2366,
      "نیمکت": 2367,
      "جلو": 2368,
      "##رور": 2369,
      "منم": 2370,
      "##مولی": 2371,
      "ساکت": 2372,
      "چرخید": 2373,
      "بکن": 2374,
      "ببینم": 2375,
      "عرض": 2376,
      "راهی": 2377,
      "همدیگر": 2378,
      "دستم": 2379,
      "بف": 2380,
      "بودم": 2381,
      "شوی": 2382,
      "دندان": 2383,
      "##بوتر": 2384,
      "زب": 2385,
      "خم": 2386,
      "بالش": 2387,
      "زشت": 2388,
      "##رفت": 2389,
      "پت": 2390,
      "ناهار": 2391,
      "##چال": 2392,
      "خوششان": 2393,
      "کبوتر": 2394,
      "زیپ": 2395,
      "جیمی": 2396,
      "مض": 2397,
      "برق": 2398,
      "##وزش": 2399,
      "موق": 2400,
      "توجه": 2401,
      "منه": 2402,
      "فرا": 2403,
      "ليو": 2404,
      "بخوریم": 2405,
      "نرد": 2406,
      "اسان": 2407,
      "عاشق": 2408,
      "پوست": 2409,
      "شمرد": 2410,
      "##سط": 2411,
      "دوان": 2412,
      "ارایش": 2413,
      "پشتی": 2414,
      "قبلا": 2415,
      "ازش": 2416,
      "منو": 2417,
      "کلمات": 2418,
      "##خش": 2419,
      "پدرشان": 2420,
      "پایش": 2421,
      "لیمو": 2422,
      "فض": 2423,
      "پیشنه": 2424,
      "راز": 2425,
      "##رهای": 2426,
      "بلکه": 2427,
      "بیل": 2428,
      "صداهای": 2429,
      "گذار": 2430,
      "همانطور": 2431,
      "بابی": 2432,
      "حشرات": 2433,
      "##سک": 2434,
      "دستکش": 2435,
      "رقصید": 2436,
      "یخچال": 2437,
      "ندارم": 2438,
      "##لیسی": 2439,
      "ملکه": 2440,
      "بردار": 2441,
      "شرم": 2442,
      "انگلیسی": 2443,
      "##بال": 2444,
      "مغرور": 2445,
      "جر": 2446,
      "بوق": 2447,
      "##کسی": 2448,
      "درخواست": 2449,
      "مومو": 2450,
      "بگذارند": 2451,
      "موج": 2452,
      "بسازند": 2453,
      "روش": 2454,
      "فردا": 2455,
      "تيم": 2456,
      "##یت": 2457,
      "##استیک": 2458,
      "##واج": 2459,
      "قفس": 2460,
      "کدام": 2461,
      "حالت": 2462,
      "موجود": 2463,
      "ساخته": 2464,
      "چک": 2465,
      "افتخ": 2466,
      "خودت": 2467,
      "نداشتند": 2468,
      "ماسه": 2469,
      "پذیرایی": 2470,
      "گروه": 2471,
      "##er": 2472,
      "منظ": 2473,
      "افتخار": 2474,
      "گذشت": 2475,
      "تختش": 2476,
      "##تا": 2477,
      "اقا": 2478,
      "پیشنهاد": 2479,
      "بخورم": 2480,
      "فنجان": 2481,
      "نوازش": 2482,
      "مالی": 2483,
      "تمس": 2484,
      "اطرافش": 2485,
      "لونا": 2486,
      "مناس": 2487,
      "شوخی": 2488,
      "یافت": 2489,
      "تغی": 2490,
      "چشمانش": 2491,
      "جه": 2492,
      "لای": 2493,
      "بری": 2494,
      "نکردند": 2495,
      "معمولی": 2496,
      "##میوه": 2497,
      "ابمیوه": 2498,
      "توده": 2499,
      "ادم": 2500,
      "عبور": 2501,
      "حوله": 2502,
      "تصور": 2503,
      "دلش": 2504,
      "غری": 2505,
      "شع": 2506,
      "میاد": 2507,
      "##ینک": 2508,
      "عوض": 2509,
      "تمساح": 2510,
      "سرزم": 2511,
      "تغییر": 2512,
      "پوشیده": 2513,
      "پیراهن": 2514,
      "##ستانی": 2515,
      "ترسیدند": 2516,
      "دستمال": 2517,
      "نوشت": 2518,
      "بپوشد": 2519,
      "پشیمان": 2520,
      "##عب": 2521,
      "محافظت": 2522,
      "بچ": 2523,
      "شبیه": 2524,
      "وف": 2525,
      "پخش": 2526,
      "موقع": 2527,
      "غذایی": 2528,
      "اهمیت": 2529,
      "بداند": 2530,
      "پلیس": 2531,
      "گوسف": 2532,
      "اگه": 2533,
      "##لي": 2534,
      "صاف": 2535,
      "سپاسگ": 2536,
      "روزها": 2537,
      "بیاورد": 2538,
      "دای": 2539,
      "لرز": 2540,
      "گذاشته": 2541,
      "افتادند": 2542,
      "تمرین": 2543,
      "ابت": 2544,
      "خودخواه": 2545,
      "اصلا": 2546,
      "قیم": 2547,
      "کردیم": 2548,
      "بگرد": 2549,
      "بخوره": 2550,
      "سرخ": 2551,
      "صخره": 2552,
      "مف": 2553,
      "هو": 2554,
      "جوان": 2555,
      "راحت": 2556,
      "the": 2557,
      "جیم": 2558,
      "انگیزی": 2559,
      "قابل": 2560,
      "شانس": 2561,
      "دام": 2562,
      "کاک": 2563,
      "##ادت": 2564,
      "مودب": 2565,
      "فرش": 2566,
      "ارامش": 2567,
      "خوشبختانه": 2568,
      "همگی": 2569,
      "دقیق": 2570,
      "بگوید": 2571,
      "درخشید": 2572,
      "بدهی": 2573,
      "مکعب": 2574,
      "گوسفند": 2575,
      "ماست": 2576,
      "بگیره": 2577,
      "بالون": 2578,
      "برداشتند": 2579,
      "جوراب": 2580,
      "فیلم": 2581,
      "پتو": 2582,
      "بزنه": 2583,
      "دایره": 2584,
      "ماشینش": 2585,
      "باباش": 2586,
      "چاپ": 2587,
      "کاب": 2588,
      "##زي": 2589,
      "بخوان": 2590,
      "لگ": 2591,
      "الود": 2592,
      "نوبت": 2593,
      "پرس": 2594,
      "راست": 2595,
      "تی": 2596,
      "انگار": 2597,
      "حین": 2598,
      "دهیم": 2599,
      "ابتدا": 2600,
      "دنبالش": 2601,
      "##واخت": 2602,
      "نردبان": 2603,
      "تیره": 2604,
      "بتون": 2605,
      "ربات": 2606,
      "انچه": 2607,
      "##at": 2608,
      "لگد": 2609,
      "##عداد": 2610,
      "جایزه": 2611,
      "ویس": 2612,
      "نوار": 2613,
      "هستیم": 2614,
      "##کرز": 2615,
      "دادی": 2616,
      "بازي": 2617,
      "کارش": 2618,
      "وحش": 2619,
      "اونجا": 2620,
      "نترس": 2621,
      "ویسکرز": 2622,
      "##داشت": 2623,
      "بنی": 2624,
      "نواخت": 2625,
      "پاز": 2626,
      "عطسه": 2627,
      "برم": 2628,
      "صفحه": 2629,
      "ماجر": 2630,
      "ناش": 2631,
      "دریافت": 2632,
      "##on": 2633,
      "چن": 2634,
      "سرگرمی": 2635,
      "ادب": 2636,
      "بردن": 2637,
      "نکند": 2638,
      "بپر": 2639,
      "##صل": 2640,
      "##طوری": 2641,
      "چهره": 2642,
      "نیک": 2643,
      "##چسب": 2644,
      "موز": 2645,
      "مفید": 2646,
      "##رانی": 2647,
      "درمی": 2648,
      "پیدایش": 2649,
      "بخرد": 2650,
      "فهمیدند": 2651,
      "اولی": 2652,
      "قلب": 2653,
      "##شیر": 2654,
      "##وطی": 2655,
      "احتیاط": 2656,
      "كه": 2657,
      "منتظره": 2658,
      "ساز": 2659,
      "والدینش": 2660,
      "بلندتر": 2661,
      "##شیند": 2662,
      "ديد": 2663,
      "چای": 2664,
      "احتر": 2665,
      "سوال": 2666,
      "##تونست": 2667,
      "جیبش": 2668,
      "بنوی": 2669,
      "چهار": 2670,
      "خمیر": 2671,
      "داین": 2672,
      "هوش": 2673,
      "پازل": 2674,
      "گود": 2675,
      "برایت": 2676,
      "طل": 2677,
      "حمل": 2678,
      "امنیت": 2679,
      "ناشن": 2680,
      "گذشته": 2681,
      "کشد": 2682,
      "تف": 2683,
      "اموختند": 2684,
      "عمل": 2685,
      "شکلات": 2686,
      "شلوار": 2687,
      "اورده": 2688,
      "دیو": 2689,
      "پله": 2690,
      "اشکال": 2691,
      "بنشیند": 2692,
      "کدو": 2693,
      "برنامه": 2694,
      "سبزی": 2695,
      "منح": 2696,
      "دفترچه": 2697,
      "چنین": 2698,
      "تنب": 2699,
      "##وهای": 2700,
      "ببرند": 2701,
      "اين": 2702,
      "سپاسگزار": 2703,
      "لیز": 2704,
      "بشم": 2705,
      "ضعی": 2706,
      "نیامد": 2707,
      "چشمان": 2708,
      "##روف": 2709,
      "##مش": 2710,
      "بررسی": 2711,
      "حسادت": 2712,
      "ترش": 2713,
      "دوق": 2714,
      "##اگ": 2715,
      "احترام": 2716,
      "صبور": 2717,
      "مجرو": 2718,
      "گودال": 2719,
      "کجاست": 2720,
      "##ير": 2721,
      "اسمش": 2722,
      "یادداشت": 2723,
      "فرود": 2724,
      "سراسر": 2725,
      "##ینه": 2726,
      "خجالت": 2727,
      "##زرگ": 2728,
      "کوه": 2729,
      "##وقت": 2730,
      "قطعات": 2731,
      "میخواست": 2732,
      "تموم": 2733,
      "##خواب": 2734,
      "شادم": 2735,
      "پیک": 2736,
      "بخوابد": 2737,
      "##پر": 2738,
      "خاموش": 2739,
      "بکند": 2740,
      "قدرتمند": 2741,
      "هرد": 2742,
      "تور": 2743,
      "شدم": 2744,
      "میتونم": 2745,
      "ورز": 2746,
      "مجروح": 2747,
      "##ادار": 2748,
      "تاج": 2749,
      "چرت": 2750,
      "بخوری": 2751,
      "طعم": 2752,
      "##سا": 2753,
      "##ربزرگ": 2754,
      "خوابید": 2755,
      "مادربزرگش": 2756,
      "فلف": 2757,
      "توش": 2758,
      "دلی": 2759,
      "اوری": 2760,
      "امان": 2761,
      "شجاعت": 2762,
      "پدربزرگ": 2763,
      "خلاق": 2764,
      "پوزش": 2765,
      "خندند": 2766,
      "مغز": 2767,
      "ببند": 2768,
      "قرض": 2769,
      "حت": 2770,
      "##ناه": 2771,
      "پیام": 2772,
      "بیفت": 2773,
      "قیمت": 2774,
      "گوشه": 2775,
      "##اهد": 2776,
      "دایناس": 2777,
      "##اوی": 2778,
      "جدیدشان": 2779,
      "ذرت": 2780,
      "مص": 2781,
      "##فهوم": 2782,
      "نکرده": 2783,
      "بچرخ": 2784,
      "تست": 2785,
      "وان": 2786,
      "نهنگ": 2787,
      "بروم": 2788,
      "گری": 2789,
      "مفهوم": 2790,
      "پسرکی": 2791,
      "دوقلو": 2792,
      "په": 2793,
      "چادر": 2794,
      "کنارش": 2795,
      "خیره": 2796,
      "کوتاه": 2797,
      "فشرد": 2798,
      "عش": 2799,
      "چید": 2800,
      "جوی": 2801,
      "هیچوقت": 2802,
      "زیبات": 2803,
      "گیاهان": 2804,
      "صاب": 2805,
      "گوشت": 2806,
      "الا": 2807,
      "##ماس": 2808,
      "کوسه": 2809,
      "موض": 2810,
      "##دار": 2811,
      "موضوع": 2812,
      "علام": 2813,
      "باند": 2814,
      "راحتی": 2815,
      "ترا": 2816,
      "مهره": 2817,
      "ببینه": 2818,
      "فلا": 2819,
      "اونو": 2820,
      "دایناسور": 2821,
      "نتونست": 2822,
      "##بند": 2823,
      "دهی": 2824,
      "##سلی": 2825,
      "مای": 2826,
      "همسای": 2827,
      "زیرا": 2828,
      "ادام": 2829,
      "میو": 2830,
      "دلق": 2831,
      "عشق": 2832,
      "زان": 2833,
      "اهن": 2834,
      "بدهند": 2835,
      "قی": 2836,
      "موهایش": 2837,
      "میله": 2838,
      "قرمزش": 2839,
      "بدهم": 2840,
      "حتما": 2841,
      "غرش": 2842,
      "پرچ": 2843,
      "##سین": 2844,
      "##یدی": 2845,
      "روح": 2846,
      "پنجه": 2847,
      "مرب": 2848,
      "کمرب": 2849,
      "حق": 2850,
      "ضعیف": 2851,
      "##کلت": 2852,
      "هیول": 2853,
      "##ولو": 2854,
      "قرمزی": 2855,
      "قهرمان": 2856,
      "گذروندند": 2857,
      "صابون": 2858,
      "لر": 2859,
      "##حال": 2860,
      "جدا": 2861,
      "تزي": 2862,
      "لبخندی": 2863,
      "بنام": 2864,
      "جادوگر": 2865,
      "بذار": 2866,
      "دلقک": 2867,
      "همسایه": 2868,
      "هایت": 2869,
      "جنی": 2870,
      "دوستای": 2871,
      "گناه": 2872,
      "خواهید": 2873,
      "ریخته": 2874,
      "قشنگه": 2875,
      "گذروندن": 2876,
      "نخورد": 2877,
      "برچسب": 2878,
      "تابلو": 2879,
      "##وانی": 2880,
      "گران": 2881,
      "جواهر": 2882,
      "زباله": 2883,
      "اسل": 2884,
      "اهسته": 2885,
      "خاط": 2886,
      "اسلحه": 2887,
      "سهیم": 2888,
      "قشنگی": 2889,
      "##ینا": 2890,
      "بدهیم": 2891,
      "لاستیک": 2892,
      "میکن": 2893,
      "عروسکش": 2894,
      "شدی": 2895,
      "ساختمان": 2896,
      "نر": 2897,
      "منحصر": 2898,
      "دنیای": 2899,
      "عادی": 2900,
      "پرسیدند": 2901,
      "کلاس": 2902,
      "نگاهی": 2903,
      "سرب": 2904,
      "فلفل": 2905,
      "کلمه": 2906,
      "##اورده": 2907,
      "##طر": 2908,
      "قیچی": 2909,
      "##يی": 2910,
      "##روص": 2911,
      "برگردان": 2912,
      "##خص": 2913,
      "باریدن": 2914,
      "ادامس": 2915,
      "تسلی": 2916,
      "##سمه": 2917,
      "##ردست": 2918,
      "نترسید": 2919,
      "دروازه": 2920,
      "بخند": 2921,
      "تنبل": 2922,
      "رژه": 2923,
      "اوردند": 2924,
      "امیدوارم": 2925,
      "پاهای": 2926,
      "گوزن": 2927,
      "گردند": 2928,
      "مجسمه": 2929,
      "رکس": 2930,
      "اندی": 2931,
      "##ذرت": 2932,
      "تسلیم": 2933,
      "##سم": 2934,
      "بپی": 2935,
      "##ویم": 2936,
      "معذرت": 2937,
      "##سری": 2938,
      "پرش": 2939,
      "گه": 2940,
      "براورده": 2941,
      "شوق": 2942,
      "روب": 2943,
      "فلافی": 2944,
      "برقصد": 2945,
      "##اهایش": 2946,
      "##ازم": 2947,
      "نوشید": 2948,
      "اجاق": 2949,
      "مقداری": 2950,
      "فروشنده": 2951,
      "دوردست": 2952,
      "هواپیمای": 2953,
      "ناد": 2954,
      "مری": 2955,
      "اگرچه": 2956,
      "کچ": 2957,
      "براش": 2958,
      "برایشان": 2959,
      "پولی": 2960,
      "حدس": 2961,
      "اخر": 2962,
      "زو": 2963,
      "هرچه": 2964,
      "مهمی": 2965,
      "لوبی": 2966,
      "بوسید": 2967,
      "کمربند": 2968,
      "##دخت": 2969,
      "گذرانند": 2970,
      "رز": 2971,
      "سیم": 2972,
      "اویزان": 2973,
      "ضربه": 2974,
      "هشد": 2975,
      "پرتق": 2976,
      "روستا": 2977,
      "بشک": 2978,
      "دسته": 2979,
      "شنود": 2980,
      "انگور": 2981,
      "غافلگیر": 2982,
      "خورده": 2983,
      "##ظیم": 2984,
      "تزيین": 2985,
      "##صوص": 2986,
      "اروم": 2987,
      "وسط": 2988,
      "##دد": 2989,
      "##ومد": 2990,
      "تای": 2991,
      "##کلی": 2992,
      "برا": 2993,
      "شاهدخت": 2994,
      "کره": 2995,
      "گذاری": 2996,
      "شمشیر": 2997,
      "مریم": 2998,
      "جذ": 2999,
      "زنده": 3000,
      "##اخ": 3001,
      "پرچم": 3002,
      "بمون": 3003,
      "شکر": 3004,
      "روزهای": 3005,
      "خانگی": 3006,
      "کاغذی": 3007,
      "##ارت": 3008,
      "شکن": 3009,
      "بسازیم": 3010,
      "##اضی": 3011,
      "بدوند": 3012,
      "فک": 3013,
      "علامت": 3014,
      "بلوط": 3015,
      "توپی": 3016,
      "متاسفانه": 3017,
      "##فن": 3018,
      "بتوانیم": 3019,
      "انع": 3020,
      "پیداش": 3021,
      "##ریم": 3022,
      "مواد": 3023,
      "چرخاند": 3024,
      "تاریکی": 3025,
      "روسری": 3026,
      "توقف": 3027,
      "مناسب": 3028,
      "tr": 3029,
      "پیتزا": 3030,
      "ور": 3031,
      "کهنه": 3032,
      "کود": 3033,
      "طبل": 3034,
      "##تری": 3035,
      "##خونه": 3036,
      "چکمه": 3037,
      "پاسخ": 3038,
      "نخواه": 3039,
      "تیر": 3040,
      "مگ": 3041,
      "داند": 3042,
      "جل": 3043,
      "چاله": 3044,
      "کلبه": 3045,
      "##مول": 3046,
      "سوز": 3047,
      "برگزار": 3048,
      "بارها": 3049,
      "اذ": 3050,
      "جت": 3051,
      "رویا": 3052,
      "سوزی": 3053,
      "خوابش": 3054,
      "موع": 3055,
      "شمع": 3056,
      "گردد": 3057,
      "بتر": 3058,
      "برادرش": 3059,
      "##lat": 3060,
      "خودکار": 3061,
      "بگذاریم": 3062,
      "ایستاده": 3063,
      "##ere": 3064,
      "تل": 3065,
      "میخو": 3066,
      "جوجه": 3067,
      "میخ": 3068,
      "موعظه": 3069,
      "ظریف": 3070,
      "بمانند": 3071,
      "گذارد": 3072,
      "مهمونی": 3073,
      "##نت": 3074,
      "##زشک": 3075,
      "تعادل": 3076,
      "##طی": 3077,
      "جیپ": 3078,
      "ارا": 3079,
      "ازد": 3080,
      "درسی": 3081,
      "تحسین": 3082,
      "اسمون": 3083,
      "بیاور": 3084,
      "شخص": 3085,
      "##ans": 3086,
      "ورزش": 3087,
      "ترتی": 3088,
      "گلد": 3089,
      "ازدواج": 3090,
      "##anslat": 3091,
      "مرده": 3092,
      "گردنب": 3093,
      "متح": 3094,
      "بنشین": 3095,
      "ترتیب": 3096,
      "بابایش": 3097,
      "لرزیدن": 3098,
      "بخاطر": 3099,
      "##غال": 3100,
      "توست": 3101,
      "متعجب": 3102,
      "شون": 3103,
      "ارايه": 3104,
      "عمیقی": 3105,
      "جدی": 3106,
      "عمه": 3107,
      "بعدش": 3108,
      "بازار": 3109,
      "سوخت": 3110,
      "بداخ": 3111,
      "خودم": 3112,
      "تان": 3113,
      "سختی": 3114,
      "translat": 3115,
      "غاز": 3116,
      "چطوری": 3117,
      "دوقل": 3118,
      "درخش": 3119,
      "میگ": 3120,
      "جنگلی": 3121,
      "تماشای": 3122,
      "##پا": 3123,
      "بالشت": 3124,
      "کشند": 3125,
      "بخرند": 3126,
      "پاشید": 3127,
      "ممنونم": 3128,
      "نادر": 3129,
      "##ion": 3130,
      "پتوی": 3131,
      "گردن": 3132,
      "جلی": 3133,
      "مربا": 3134,
      "##بری": 3135,
      "##رار": 3136,
      "##زند": 3137,
      "قو": 3138,
      "ارزش": 3139,
      "فوت": 3140,
      "ازم": 3141,
      "خورند": 3142,
      "بلی": 3143,
      "##سال": 3144,
      "برخی": 3145,
      "بزنم": 3146,
      "دوستشان": 3147,
      "هشدار": 3148,
      "کیفش": 3149,
      "گرما": 3150,
      "جستجوی": 3151,
      "گذارند": 3152,
      "##ادو": 3153,
      "##بیل": 3154,
      "انعط": 3155,
      "نص": 3156,
      "انعطاف": 3157,
      "داخلش": 3158,
      "خاصی": 3159,
      "##کاری": 3160,
      "هیولای": 3161,
      "شناور": 3162,
      "سرشان": 3163,
      "سراغ": 3164,
      "مرم": 3165,
      "ته": 3166,
      "##اوری": 3167,
      "متاسفیم": 3168,
      "شکننده": 3169,
      "گوجه": 3170,
      "دلف": 3171,
      "مان": 3172,
      "کشیده": 3173,
      "پیاز": 3174,
      "دسترسی": 3175,
      "دقیقا": 3176,
      "افر": 3177,
      "جاب": 3178,
      "خبر": 3179,
      "##si": 3180,
      "##الت": 3181,
      "نرمی": 3182,
      "کسل": 3183,
      "ماهر": 3184,
      "گره": 3185,
      "میتونی": 3186,
      "پرتقال": 3187,
      "##ستی": 3188,
      "باشگاه": 3189,
      "منظره": 3190,
      "گلدان": 3191,
      "عالیه": 3192,
      "غلتید": 3193,
      "is": 3194,
      "##نم": 3195,
      "تاکسی": 3196,
      "گردنبند": 3197,
      "سیر": 3198,
      "پشیمانی": 3199,
      "##صه": 3200,
      "پناه": 3201,
      "درک": 3202,
      "وانم": 3203,
      "##ترین": 3204,
      "کلاهش": 3205,
      "عزیز": 3206,
      "چتر": 3207,
      "قطعه": 3208,
      "دوستا": 3209,
      "نزدیکی": 3210,
      "برید": 3211,
      "نشده": 3212,
      "انتظ": 3213,
      "یادش": 3214,
      "translation": 3215,
      "گاری": 3216,
      "##as": 3217,
      "ببریم": 3218,
      "نیستم": 3219,
      "تشنه": 3220,
      "بتوانند": 3221,
      "یکبار": 3222,
      "خواهرش": 3223,
      "صبحانه": 3224,
      "تکر": 3225,
      "بالن": 3226,
      "ابری": 3227,
      "گفتن": 3228,
      "قلاب": 3229,
      "مکانی": 3230,
      "##زنده": 3231,
      "ببینی": 3232,
      "دعا": 3233,
      "بفهم": 3234,
      "مگس": 3235,
      "سالاد": 3236,
      "ول": 3237,
      "وصل": 3238,
      "دستبند": 3239,
      "مدام": 3240,
      "سرباز": 3241,
      "جزی": 3242,
      "نیر": 3243,
      "روبان": 3244,
      "سرزمین": 3245,
      "زنج": 3246,
      "دقیقه": 3247,
      "ازمایش": 3248,
      "دلفین": 3249,
      "جزیره": 3250,
      "چکش": 3251,
      "کلی": 3252,
      "اووک": 3253,
      "صحنه": 3254,
      "نشن": 3255,
      "کیکی": 3256,
      "محت": 3257,
      "اذیت": 3258,
      "قار": 3259,
      "بدم": 3260,
      "ارزوی": 3261,
      "دورب": 3262,
      "گیج": 3263,
      "کلاغ": 3264,
      "خاطرات": 3265,
      "##اخته": 3266,
      "تکرار": 3267,
      "اوست": 3268,
      "انبار": 3269,
      "جویبار": 3270,
      "گند": 3271,
      "تشک": 3272,
      "رادی": 3273,
      "جذاب": 3274,
      "بنوش": 3275,
      "سرم": 3276,
      "مارمول": 3277,
      "بیایند": 3278,
      "دونم": 3279,
      "##وران": 3280,
      "جالبه": 3281,
      "اخم": 3282,
      "##اغ": 3283,
      "بیندازد": 3284,
      "صاحبش": 3285,
      "بشنود": 3286,
      "اسی": 3287,
      "بالاخره": 3288,
      "##لاس": 3289,
      "برده": 3290,
      "قبول": 3291,
      "سوزن": 3292,
      "##زمان": 3293,
      "##کد": 3294,
      "برداشتن": 3295,
      "مسخره": 3296,
      "##لوع": 3297,
      "طلوع": 3298,
      "پاهایش": 3299,
      "مانده": 3300,
      "پيد": 3301,
      "بای": 3302,
      "بیفتد": 3303,
      "وسی": 3304,
      "پیو": 3305,
      "مخصوص": 3306,
      "سقف": 3307,
      "امیلی": 3308,
      "to": 3309,
      "مثلث": 3310,
      "بروکلی": 3311,
      "زرا": 3312,
      "مرغابی": 3313,
      "فوتبال": 3314,
      "Here": 3315,
      "کرا": 3316,
      "مضح": 3317,
      "ایمنی": 3318,
      "همزمان": 3319,
      "بخریم": 3320,
      "وانمود": 3321,
      "سبزیجات": 3322,
      "##فشان": 3323,
      "اشپزی": 3324,
      "بزنی": 3325,
      "عصای": 3326,
      "بزنیم": 3327,
      "مستقل": 3328,
      "##سمان": 3329,
      "##وهایی": 3330,
      "کارشان": 3331,
      "بداخلاق": 3332,
      "##وگ": 3333,
      "دوربین": 3334,
      "سس": 3335,
      "دنباله": 3336,
      "تولید": 3337,
      "اسیاب": 3338,
      "رخت": 3339,
      "کتابخانه": 3340,
      "گیت": 3341,
      "كند": 3342,
      "بدن": 3343,
      "##چیند": 3344,
      "شرح": 3345,
      "پيدا": 3346,
      "##لمون": 3347,
      "دهان": 3348,
      "چاقو": 3349,
      "مارمولک": 3350,
      "عدد": 3351,
      "شکار": 3352,
      "ندارند": 3353,
      "ویل": 3354,
      "##ایشان": 3355,
      "دهید": 3356,
      "یادگیری": 3357,
      "برنداشت": 3358,
      "بتوانم": 3359,
      "اولین": 3360,
      "شوید": 3361,
      "چو": 3362,
      "بودی": 3363,
      "شنوند": 3364,
      "فلوت": 3365,
      "جلیقه": 3366,
      "گیری": 3367,
      "ابرها": 3368,
      "پرسروص": 3369,
      "مانند": 3370,
      "بچیند": 3371,
      "بادام": 3372,
      "پرست": 3373,
      "بوقلمون": 3374,
      "توله": 3375,
      "عینک": 3376,
      "درامد": 3377,
      "منق": 3378,
      "تقری": 3379,
      "الماس": 3380,
      "یع": 3381,
      "وز": 3382,
      "برات": 3383,
      "##سان": 3384,
      "تاسف": 3385,
      "##وس": 3386,
      "##راند": 3387,
      "اجرا": 3388,
      "هردو": 3389,
      "جفت": 3390,
      "دوری": 3391,
      "دیدم": 3392,
      "نباشد": 3393,
      "روستای": 3394,
      "بدیم": 3395,
      "مساف": 3396,
      "کنجکاوی": 3397,
      "زرافه": 3398,
      "##اتی": 3399,
      "ابزار": 3400,
      "دریای": 3401,
      "ترساند": 3402,
      "پاند": 3403,
      "##ینت": 3404,
      "شدت": 3405,
      "غریبه": 3406,
      "فواره": 3407,
      "##رگد": 3408,
      "بالگرد": 3409,
      "ببندد": 3410,
      "کرگد": 3411,
      "##یفی": 3412,
      "بخشی": 3413,
      "برداشته": 3414,
      "##arsi": 3415,
      "دوستانی": 3416,
      "تج": 3417,
      "لولو": 3418,
      "خریدند": 3419,
      "تقریبا": 3420,
      "افتابگرد": 3421,
      "طوطی": 3422,
      "##حالی": 3423,
      "ماکار": 3424,
      "عصا": 3425,
      "Farsi": 3426,
      "خب": 3427,
      "ریختند": 3428,
      "رخ": 3429,
      "لازم": 3430,
      "##سور": 3431,
      "نگرانی": 3432,
      "پسرک": 3433,
      "پوشاند": 3434,
      "سوراخی": 3435,
      "اتشفشان": 3436,
      "خيلي": 3437,
      "فرشته": 3438,
      "بگذرانند": 3439,
      "مز": 3440,
      "مشه": 3441,
      "##شویی": 3442,
      "شرکت": 3443,
      "گندم": 3444,
      "حقی": 3445,
      "##نگو": 3446,
      "##طه": 3447,
      "حرک": 3448,
      "شال": 3449,
      "برنگ": 3450,
      "بگذارید": 3451,
      "##اض": 3452,
      "خيلی": 3453,
      "##وات": 3454,
      "##باهی": 3455,
      "رسیده": 3456,
      "اشتباهی": 3457,
      "##انوس": 3458,
      "تنگ": 3459,
      "لرزید": 3460,
      "کرگدن": 3461,
      "چندتا": 3462,
      "زخ": 3463,
      "یوگ": 3464,
      "کچل": 3465,
      "ماکارونی": 3466,
      "اف": 3467,
      "بگیرید": 3468,
      "وفادار": 3469,
      "پوشه": 3470,
      "دردسر": 3471,
      "##اگتی": 3472,
      "کراوات": 3473,
      "بازیگ": 3474,
      "لیسید": 3475,
      "غرید": 3476,
      "کاکاي": 3477,
      "ریزه": 3478,
      "زنجیر": 3479,
      "تری": 3480,
      "چگ": 3481,
      "حفر": 3482,
      "اسپاگتی": 3483,
      "تلخ": 3484,
      "اتاقشان": 3485,
      "یعنی": 3486,
      "اي": 3487,
      "پرده": 3488,
      "بپرند": 3489,
      "قارچ": 3490,
      "کودک": 3491,
      "##شده": 3492,
      "چس": 3493,
      "انتظار": 3494,
      "چمد": 3495,
      "##وچ": 3496,
      "سیاره": 3497,
      "طبی": 3498,
      "نیستی": 3499,
      "پنگو": 3500,
      "##گشت": 3501,
      "تونل": 3502,
      "انتهای": 3503,
      "##نو": 3504,
      "دانند": 3505,
      "قدیم": 3506,
      "هوشمند": 3507,
      "دربی": 3508,
      "پیپ": 3509,
      "خشن": 3510,
      "جمجمه": 3511,
      "عجله": 3512,
      "براون": 3513,
      "تروم": 3514,
      "اقی": 3515,
      "مولی": 3516,
      "بستند": 3517,
      "پختن": 3518,
      "تاینی": 3519,
      "روزنامه": 3520,
      "زیتون": 3521,
      "##واع": 3522,
      "حقیقت": 3523,
      "خل": 3524,
      "انواع": 3525,
      "##بط": 3526,
      "گلابی": 3527,
      "ازمون": 3528,
      "گیلاس": 3529,
      "خلا": 3530,
      "##پت": 3531,
      "استیک": 3532,
      "پلنگ": 3533,
      "یون": 3534,
      "دلیل": 3535,
      "قصر": 3536,
      "شنی": 3537,
      "مرک": 3538,
      "بغلش": 3539,
      "چرخیدن": 3540,
      "##وزی": 3541,
      "نقطه": 3542,
      "نشدند": 3543,
      "كردند": 3544,
      "اموخته": 3545,
      "اقیانوس": 3546,
      "ارزان": 3547,
      "پیچید": 3548,
      "ضبط": 3549,
      "مالید": 3550,
      "ایستگاه": 3551,
      "الیس": 3552,
      "جار": 3553,
      "عادل": 3554,
      "رقاب": 3555,
      "قوه": 3556,
      "هفته": 3557,
      "میکنه": 3558,
      "مختلفی": 3559,
      "اووکادو": 3560,
      "تینا": 3561,
      "كن": 3562,
      "بایست": 3563,
      "فضای": 3564,
      "پنگوين": 3565,
      "برنج": 3566,
      "پراک": 3567,
      "موزه": 3568,
      "رسیدن": 3569,
      "ریسمان": 3570,
      "پهن": 3571,
      "جواه": 3572,
      "بشکه": 3573,
      "کارها": 3574,
      "تنق": 3575,
      "مدرن": 3576,
      "ترومپت": 3577,
      "ریشه": 3578,
      "رختخواب": 3579,
      "وزن": 3580,
      "برن": 3581,
      "##روی": 3582,
      "میزد": 3583,
      "پاپی": 3584,
      "برش": 3585,
      "توبی": 3586,
      "ضخ": 3587,
      "##انده": 3588,
      "##اسد": 3589,
      "بعدی": 3590,
      "دوقلوهایی": 3591,
      "بروی": 3592,
      "خوابیدن": 3593,
      "موافق": 3594,
      "بیش": 3595,
      "پیتر": 3596,
      "بترس": 3597,
      "همکاری": 3598,
      "فردی": 3599,
      "اصلی": 3600,
      "درحالی": 3601,
      "نشانه": 3602,
      "اشپزخونه": 3603,
      "ندیدند": 3604,
      "بارید": 3605,
      "خندد": 3606,
      "چوبد": 3607,
      "بکنیم": 3608,
      "افتابگردان": 3609,
      "متوا": 3610,
      "چشمک": 3611,
      "متواض": 3612,
      "دي": 3613,
      "راضی": 3614,
      "سینی": 3615,
      "##تن": 3616,
      "##تل": 3617,
      "داستانی": 3618,
      "گمشده": 3619,
      "انداختند": 3620,
      "مکث": 3621,
      "صدایش": 3622,
      "بازیگوش": 3623,
      "بازگشت": 3624,
      "شیطنت": 3625,
      "بفهمد": 3626,
      "ریل": 3627,
      "میومد": 3628,
      "دارن": 3629,
      "نس": 3630,
      "انگشتش": 3631,
      "سبک": 3632,
      "نادیده": 3633,
      "زوم": 3634,
      "تظ": 3635,
      "##ویل": 3636,
      "مشاهد": 3637,
      "شعله": 3638,
      "##صله": 3639,
      "مربع": 3640,
      "عادلانه": 3641,
      "مشاهده": 3642,
      "خواستن": 3643,
      "نکنید": 3644,
      "چوبدستی": 3645,
      "کبری": 3646,
      "خوشحالند": 3647,
      "پرداخت": 3648,
      "کردنش": 3649,
      "کارتون": 3650,
      "پاپ": 3651,
      "پیوست": 3652,
      "گارا": 3653,
      "رعد": 3654,
      "كوچ": 3655,
      "نشانی": 3656,
      "##فاصله": 3657,
      "بلافاصله": 3658,
      "یوگا": 3659,
      "مهارت": 3660,
      "نیفت": 3661,
      "گاراژ": 3662,
      "بدبو": 3663,
      "فرست": 3664,
      "اسکو": 3665,
      "ماسک": 3666,
      "شیطان": 3667,
      "##am": 3668,
      "اسانسور": 3669,
      "تمبر": 3670,
      "اغل": 3671,
      "هاشون": 3672,
      "دستی": 3673,
      "جرقه": 3674,
      "بنویسد": 3675,
      "باقی": 3676,
      "ماهیگ": 3677,
      "لوبیا": 3678,
      "شنیده": 3679,
      "شادمانه": 3680,
      "تجربه": 3681,
      "لنگ": 3682,
      "پاکت": 3683,
      "وسیله": 3684,
      "هتل": 3685,
      "بنو": 3686,
      "مسن": 3687,
      "پرستار": 3688,
      "گرمی": 3689,
      "بگذراند": 3690,
      "پنی": 3691,
      "دارو": 3692,
      "دیوانه": 3693,
      "نشین": 3694,
      "اجر": 3695,
      "ببرم": 3696,
      "##وصله": 3697,
      "شمردن": 3698,
      "وگر": 3699,
      "وگرنه": 3700,
      "چي": 3701,
      "موند": 3702,
      "خیز": 3703,
      "گیتار": 3704,
      "بهشون": 3705,
      "ناشناخته": 3706,
      "تنقلات": 3707,
      "خرو": 3708,
      "صاد": 3709,
      "گلی": 3710,
      "سنجاق": 3711,
      "دفن": 3712,
      "نیازی": 3713,
      "امتحانش": 3714,
      "پیانو": 3715,
      "میکنم": 3716,
      "کبریت": 3717,
      "کامپی": 3718,
      "تفری": 3719,
      "مرموز": 3720,
      "لجب": 3721,
      "دانش": 3722,
      "بیمارستان": 3723,
      "چگونه": 3724,
      "اسکوتر": 3725,
      "جون": 3726,
      "دانی": 3727,
      "زودتر": 3728,
      "لباسش": 3729,
      "بوسه": 3730,
      "تظاهر": 3731,
      "لجباز": 3732,
      "معد": 3733,
      "بارون": 3734,
      "خرگوشی": 3735,
      "مشهور": 3736,
      "رسند": 3737,
      "##اهایی": 3738,
      "اتوم": 3739,
      "فقیر": 3740,
      "قلم": 3741,
      "معبد": 3742,
      "موتورسی": 3743,
      "پشه": 3744,
      "کاکتو": 3745,
      "سل": 3746,
      "گچ": 3747,
      "##پزشک": 3748,
      "کر": 3749,
      "همون": 3750,
      "سوسک": 3751,
      "##شنبه": 3752,
      "موتورسیکلت": 3753,
      "خوبیه": 3754,
      "ماجراهای": 3755,
      "سرزمینی": 3756,
      "سوی": 3757,
      "##وتر": 3758,
      "داشتم": 3759,
      "بخواه": 3760,
      "بپره": 3761,
      "سپری": 3762,
      "پوشیدند": 3763,
      "ارایشگر": 3764,
      "بزودی": 3765,
      "##ارم": 3766,
      "برساند": 3767,
      "شور": 3768,
      "پود": 3769,
      "چر": 3770,
      "برگردند": 3771,
      "بي": 3772,
      "##انس": 3773,
      "وحشتناک": 3774,
      "محتاط": 3775,
      "##مم": 3776,
      "##رنگ": 3777,
      "هایم": 3778,
      "ابرهای": 3779,
      "سازند": 3780,
      "جواهرات": 3781,
      "کاکتوس": 3782,
      "زي": 3783,
      "ماجراجو": 3784,
      "شهرک": 3785,
      "کان": 3786,
      "##یجه": 3787,
      "بلور": 3788,
      "لک": 3789,
      "امواج": 3790,
      "ایند": 3791,
      "سرگیجه": 3792,
      "ظرفشویی": 3793,
      "##حث": 3794,
      "##ونم": 3795,
      "زانویش": 3796,
      "رادیو": 3797,
      "مندی": 3798,
      "یاداوری": 3799,
      "نشود": 3800,
      "نظ": 3801,
      "ناز": 3802,
      "نفر": 3803,
      "میکس": 3804,
      "حرکات": 3805,
      "حوصله": 3806,
      "##انشان": 3807,
      "خون": 3808,
      "مطال": 3809,
      "زانو": 3810,
      "ضر": 3811,
      "##طرب": 3812,
      "کامپیوتر": 3813,
      "زغال": 3814,
      "##بول": 3815,
      "دلت": 3816,
      "##ed": 3817,
      "##ومند": 3818,
      "بخوانند": 3819,
      "مضطرب": 3820,
      "چوبی": 3821,
      "تعطی": 3822,
      "زنبورها": 3823,
      "بخشنده": 3824,
      "متحد": 3825,
      "پرسروصدا": 3826,
      "خلاصه": 3827,
      "طر": 3828,
      "نمک": 3829,
      "گفتم": 3830,
      "انداز": 3831,
      "متش": 3832,
      "بیاد": 3833,
      "سرما": 3834,
      "منقارش": 3835,
      "اتومبیل": 3836,
      "چاه": 3837,
      "چکار": 3838,
      "کوب": 3839,
      "اصرار": 3840,
      "موفقی": 3841,
      "امبول": 3842,
      "شوکه": 3843,
      "تله": 3844,
      "بلندش": 3845,
      "گلف": 3846,
      "بدهید": 3847,
      "شرمنده": 3848,
      "زیباترین": 3849,
      "هلو": 3850,
      "##اج": 3851,
      "##زین": 3852,
      "پاداش": 3853,
      "##ad": 3854,
      "سردش": 3855,
      "خواد": 3856,
      "خواستیم": 3857,
      "لیزر": 3858,
      "همینطور": 3859,
      "تحویل": 3860,
      "متواضع": 3861,
      "نیزه": 3862,
      "##کنون": 3863,
      "صادق": 3864,
      "تي": 3865,
      "شادمانی": 3866,
      "مزاح": 3867,
      "تعطیلات": 3868,
      "بزرگه": 3869,
      "باهوشی": 3870,
      "میلی": 3871,
      "مجله": 3872,
      "ضخیم": 3873,
      "معن": 3874,
      "برنگشت": 3875,
      "##هر": 3876,
      "نیز": 3877,
      "متشکر": 3878,
      "جاز": 3879,
      "خرب": 3880,
      "شناخت": 3881,
      "پراکنده": 3882,
      "داکی": 3883,
      "خربزه": 3884,
      "محبت": 3885,
      "##اسی": 3886,
      "شلنگ": 3887,
      "امبولانس": 3888,
      "نمید": 3889,
      "اکنون": 3890,
      "برپا": 3891,
      "باغش": 3892,
      "نوشیدنی": 3893,
      "شلی": 3894,
      "نوکش": 3895,
      "اهمیتی": 3896,
      "عظیم": 3897,
      "پشمک": 3898,
      "طوری": 3899,
      "##پشت": 3900,
      "بام": 3901,
      "نکنند": 3902,
      "افراد": 3903,
      "اعداد": 3904,
      "چیزای": 3905,
      "پودر": 3906,
      "بحث": 3907,
      "##بود": 3908,
      "هایمان": 3909,
      "##جی": 3910,
      "تخیل": 3911,
      "چمدان": 3912,
      "چیدن": 3913,
      "بتونه": 3914,
      "سپر": 3915,
      "نوک": 3916,
      "قابلمه": 3917,
      "لبه": 3918,
      "بخیر": 3919,
      "نگفت": 3920,
      "باستانی": 3921,
      "افتادن": 3922,
      "بابت": 3923,
      "قرص": 3924,
      "دامپزشک": 3925,
      "باحال": 3926,
      "ابنب": 3927,
      "##هایشان": 3928,
      "نخور": 3929,
      "رساند": 3930,
      "فرمان": 3931,
      "میتوان": 3932,
      "سردرگ": 3933,
      "برسند": 3934,
      "عبرت": 3935,
      "زیباتر": 3936,
      "روغ": 3937,
      "شطر": 3938,
      "محل": 3939,
      "سینک": 3940,
      "بذر": 3941,
      "##پو": 3942,
      "تابه": 3943,
      "اهی": 3944,
      "ابنبات": 3945,
      "طب": 3946,
      "تاث": 3947,
      "سایر": 3948,
      "بفرو": 3949,
      "بشین": 3950,
      "سمی": 3951,
      "##وایی": 3952,
      "ریاضی": 3953,
      "شکارچی": 3954,
      "##امون": 3955,
      "##کیل": 3956,
      "تقل": 3957,
      "مودار": 3958,
      "##ژی": 3959,
      "خارش": 3960,
      "فاسد": 3961,
      "##nd": 3962,
      "شطرنج": 3963,
      "##ایک": 3964,
      "دوستانت": 3965,
      "دودکش": 3966,
      "متفاوتی": 3967,
      "هوای": 3968,
      "خش": 3969,
      "سمور": 3970,
      "گردو": 3971,
      "کوتاهی": 3972,
      "خلبان": 3973,
      "تفریح": 3974,
      "##ازهای": 3975,
      "سوزان": 3976,
      "نشستن": 3977,
      "##کوپ": 3978,
      "##تش": 3979,
      "خوابیدند": 3980,
      "پوشیدن": 3981,
      "بشیم": 3982,
      "دوستم": 3983,
      "خوشم": 3984,
      "##الیه": 3985,
      "اشکالی": 3986,
      "توسط": 3987,
      "کیم": 3988,
      "کاره": 3989,
      "##لیه": 3990,
      "ببری": 3991,
      "شوالیه": 3992,
      "ترسم": 3993,
      "دانستم": 3994,
      "نسبت": 3995,
      "چایی": 3996,
      "استی": 3997,
      "اسپایک": 3998,
      "ببینید": 3999,
      "محبوبش": 4000,
      "دروغ": 4001,
      "غریب": 4002,
      "هورا": 4003,
      "دامن": 4004,
      "نگهبان": 4005,
      "میدان": 4006,
      "لغزید": 4007,
      "میکسر": 4008,
      "طلا": 4009,
      "va": 4010,
      "خرا": 4011,
      "غذایش": 4012,
      "بخواهد": 4013,
      "اردو": 4014,
      "تکیه": 4015,
      "مطالعه": 4016,
      "مجمو": 4017,
      "طبیعت": 4018,
      "مزه": 4019,
      "متنفر": 4020,
      "بگردد": 4021,
      "بچرخد": 4022,
      "نرو": 4023,
      "هاي": 4024,
      "رنگش": 4025,
      "شیرجه": 4026,
      "بردی": 4027,
      "نخواهد": 4028,
      "نقاش": 4029,
      "میکروف": 4030,
      "##باری": 4031,
      "قص": 4032,
      "شلو": 4033,
      "ویدی": 4034,
      "چیر": 4035,
      "##گار": 4036,
      "##or": 4037,
      "##ستگی": 4038,
      "##ایند": 4039,
      "شکایت": 4040,
      "اخرین": 4041,
      "رمان": 4042,
      "کارخانه": 4043,
      "کابینت": 4044,
      "ترو": 4045,
      "راکت": 4046,
      "ببره": 4047,
      "کتابی": 4048,
      "شعر": 4049,
      "##کنه": 4050,
      "اسیبی": 4051,
      "قایقش": 4052,
      "چیرپی": 4053,
      "گرمش": 4054,
      "میکردند": 4055,
      "دستگ": 4056,
      "مضحک": 4057,
      "بتی": 4058,
      "مطی": 4059,
      "ترسناکی": 4060,
      "بدجنسی": 4061,
      "##سند": 4062,
      "##پوش": 4063,
      "دوستتان": 4064,
      "قان": 4065,
      "بازوی": 4066,
      "ناب": 4067,
      "##شو": 4068,
      "اسکلت": 4069,
      "غلتاند": 4070,
      "مصنو": 4071,
      "لنگر": 4072,
      "مجموعه": 4073,
      "مصنوعی": 4074,
      "نگذ": 4075,
      "روغن": 4076,
      "قوطی": 4077,
      "##ندگی": 4078,
      "دره": 4079,
      "شکمش": 4080,
      "بکشند": 4081,
      "بچین": 4082,
      "بپیوند": 4083,
      "رست": 4084,
      "لجن": 4085,
      "##یار": 4086,
      "داگی": 4087,
      "حمایت": 4088,
      "مخرو": 4089,
      "اپ": 4090,
      "اشی": 4091,
      "نع": 4092,
      "کاشت": 4093,
      "مستبد": 4094,
      "جابجا": 4095,
      "ليلي": 4096,
      "صرف": 4097,
      "راهش": 4098,
      "نواختن": 4099,
      "تراز": 4100,
      "جاش": 4101,
      "ریزی": 4102,
      "کاکايو": 4103,
      "چسبا": 4104,
      "##ونست": 4105,
      "کمتر": 4106,
      "بروید": 4107,
      "مسافرت": 4108,
      "اتفاقات": 4109,
      "##اتر": 4110,
      "دستگیره": 4111,
      "##زمه": 4112,
      "بخشید": 4113,
      "زمزمه": 4114,
      "درستش": 4115,
      "ویول": 4116,
      "باهات": 4117,
      "موفقیت": 4118,
      "دادم": 4119,
      "گروهی": 4120,
      "وا": 4121,
      "حیو": 4122,
      "مایک": 4123,
      "تانک": 4124,
      "رویای": 4125,
      "باشن": 4126,
      "باتری": 4127,
      "کوله": 4128,
      "##انورد": 4129,
      "وافل": 4130,
      "کرف": 4131,
      "پشتش": 4132,
      "تصویری": 4133,
      "تولدش": 4134,
      "بازیچه": 4135,
      "پریده": 4136,
      "اینقدر": 4137,
      "خرگوشه": 4138,
      "اژدهای": 4139,
      "تحت": 4140,
      "بیایی": 4141,
      "بازیم": 4142,
      "تونن": 4143,
      "بریزد": 4144,
      "شلیک": 4145,
      "بشی": 4146,
      "مبار": 4147,
      "##علاقه": 4148,
      "برکه": 4149,
      "زیبایش": 4150,
      "قوان": 4151,
      "بدبخت": 4152,
      "پسرها": 4153,
      "جوک": 4154,
      "جویدن": 4155,
      "نقره": 4156,
      "کاج": 4157,
      "##يدند": 4158,
      "بندر": 4159,
      "مقاو": 4160,
      "تدی": 4161,
      "اورند": 4162,
      "مهربانانه": 4163,
      "رستوران": 4164,
      "گذر": 4165,
      "نباشید": 4166,
      "موردعلاقه": 4167,
      "میر": 4168,
      "مشکی": 4169,
      "اضافی": 4170,
      "اغلب": 4171,
      "هشت": 4172,
      "هایتان": 4173,
      "بینکی": 4174,
      "امیدوارند": 4175,
      "حفظ": 4176,
      "لاغ": 4177,
      "خودمان": 4178,
      "گردش": 4179,
      "کاخ": 4180,
      "فراوان": 4181,
      "جوه": 4182,
      "چشید": 4183,
      "هاکی": 4184,
      "کوزه": 4185,
      "رنگارنگی": 4186,
      "تاثیر": 4187,
      "میشد": 4188,
      "سنگی": 4189,
      "بمانی": 4190,
      "تياتر": 4191,
      "بزرگترین": 4192,
      "یافتن": 4193,
      "ایگ": 4194,
      "امدن": 4195,
      "پاندا": 4196,
      "قوانین": 4197,
      "ساده": 4198,
      "خندان": 4199,
      "بکنند": 4200,
      "کرفس": 4201,
      "پونی": 4202,
      "##جر": 4203,
      "be": 4204,
      "جانی": 4205,
      "مى": 4206,
      "##ولی": 4207,
      "درستی": 4208,
      "باورش": 4209,
      "دخترش": 4210,
      "##افش": 4211,
      "ضرر": 4212,
      "کنارشان": 4213,
      "فلزی": 4214,
      "فند": 4215,
      "هرچ": 4216,
      "گشتن": 4217,
      "امیز": 4218,
      "درخشش": 4219,
      "ديگر": 4220,
      "##تم": 4221,
      "وسایلش": 4222,
      "اپرا": 4223,
      "خستگی": 4224,
      "##ریزه": 4225,
      "هرجا": 4226,
      "برگردیم": 4227,
      "تختخواب": 4228,
      "طرح": 4229,
      "خوری": 4230,
      "مدال": 4231,
      "بتوانی": 4232,
      "رقابتی": 4233,
      "بینم": 4234,
      "دلتنگ": 4235,
      "شکم": 4236,
      "بگذاری": 4237,
      "بفر": 4238,
      "##رژی": 4239,
      "مناسبی": 4240,
      "نیرومند": 4241,
      "قاضی": 4242,
      "##بازی": 4243,
      "ممکنه": 4244,
      "چیدند": 4245,
      "اوردن": 4246,
      "جهید": 4247,
      "شیک": 4248,
      "گوری": 4249,
      "شانسی": 4250,
      "##امت": 4251,
      "ابگیر": 4252,
      "چرخیدند": 4253,
      "شومینه": 4254,
      "چندان": 4255,
      "##سبال": 4256,
      "نده": 4257,
      "بخار": 4258,
      "سفارش": 4259,
      "بایستد": 4260,
      "##پور": 4261,
      "میکروس": 4262,
      "نشنید": 4263,
      "جارو": 4264,
      "##ou": 4265,
      "براي": 4266,
      "هرکد": 4267,
      "پیروی": 4268,
      "تفنگ": 4269,
      "کانگو": 4270,
      "میگو": 4271,
      "ایوان": 4272,
      "موها": 4273,
      "بنوازد": 4274,
      "##sh": 4275,
      "بیسبال": 4276,
      "فرودگاه": 4277,
      "چیزا": 4278,
      "مطیع": 4279,
      "تبر": 4280,
      "زنی": 4281,
      "##in": 4282,
      "گوریل": 4283,
      "اث": 4284,
      "##فین": 4285,
      "##id": 4286,
      "انی": 4287,
      "##کرد": 4288,
      "کتابش": 4289,
      "تونسته": 4290,
      "اضطر": 4291,
      "بشکند": 4292,
      "تد": 4293,
      "کاش": 4294,
      "میگه": 4295,
      "دوخت": 4296,
      "بازش": 4297,
      "اصط": 4298,
      "زندان": 4299,
      "زبر": 4300,
      "نوی": 4301,
      "نزن": 4302,
      "وکیل": 4303,
      "پین": 4304,
      "راند": 4305,
      "نداره": 4306,
      "روبرو": 4307,
      "توانایی": 4308,
      "دیوارها": 4309,
      "پیپین": 4310,
      "قانون": 4311,
      "خز": 4312,
      "بدزد": 4313,
      "بادبان": 4314,
      "بنوشد": 4315,
      "تاری": 4316,
      "بسکت": 4317,
      "میکروسکوپ": 4318,
      "فن": 4319,
      "کای": 4320,
      "گونه": 4321,
      "انجاست": 4322,
      "سنگریزه": 4323,
      "نوشتن": 4324,
      "تیغ": 4325,
      "نشینند": 4326,
      "اتاقی": 4327,
      "فریزر": 4328,
      "پاست": 4329,
      "خرط": 4330,
      "نگهداری": 4331,
      "طلایی": 4332,
      "جاهای": 4333,
      "دالی": 4334,
      "اینها": 4335,
      "الو": 4336,
      "دن": 4337,
      "خودتان": 4338,
      "نکنی": 4339,
      "پیری": 4340,
      "پلاستیک": 4341,
      "غل": 4342,
      "غلات": 4343,
      "دوقلوها": 4344,
      "خرم": 4345,
      "دوشون": 4346,
      "بخشم": 4347,
      "گردنش": 4348,
      "سرسبز": 4349,
      "پلیور": 4350,
      "فضا": 4351,
      "غذاها": 4352,
      "شف": 4353,
      "مافین": 4354,
      "مشکلات": 4355,
      "سور": 4356,
      "نرفت": 4357,
      "کتی": 4358,
      "سوسی": 4359,
      "سوفی": 4360,
      "وفل": 4361,
      "صلی": 4362,
      "باح": 4363,
      "سامی": 4364,
      "مقاومت": 4365,
      "یقه": 4366,
      "دوس": 4367,
      "کارل": 4368,
      "دستانش": 4369,
      "شنیدن": 4370,
      "تقویم": 4371,
      "بج": 4372,
      "ترب": 4373,
      "مرکز": 4374,
      "قصد": 4375,
      "##om": 4376,
      "اور": 4377,
      "برابر": 4378,
      "بلیت": 4379,
      "پافش": 4380,
      "چپ": 4381,
      "##سیگاری": 4382,
      "نیش": 4383,
      "عصبانیت": 4384,
      "پنکه": 4385,
      "بسکتبال": 4386,
      "##افت": 4387,
      "دوستانم": 4388,
      "هستن": 4389,
      "بندی": 4390,
      "مقدار": 4391,
      "روشنی": 4392,
      "سلول": 4393,
      "سردرگم": 4394,
      "جوهر": 4395,
      "لوس": 4396,
      "اسپیدی": 4397,
      "هوشیار": 4398,
      "حاض": 4399,
      "خزید": 4400,
      "لیزی": 4401,
      "کابل": 4402,
      "تعداد": 4403,
      "فره": 4404,
      "##لز": 4405,
      "ماندن": 4406,
      "پدال": 4407,
      "نابود": 4408,
      "دسر": 4409,
      "بشود": 4410,
      "متشکریم": 4411,
      "ون": 4412,
      "شدیم": 4413,
      "بمونه": 4414,
      "روزگار": 4415,
      "برداری": 4416,
      "گردباد": 4417,
      "اهو": 4418,
      "شستن": 4419,
      "خرطوم": 4420,
      "ماری": 4421,
      "شیطون": 4422,
      "بیاورند": 4423,
      "میرفت": 4424,
      "پستی": 4425,
      "مصمم": 4426,
      "اصطبل": 4427,
      "in": 4428,
      "هات": 4429,
      "شماره": 4430,
      "خوابیده": 4431,
      "بینداز": 4432,
      "هری": 4433,
      "##زاری": 4434,
      "صدمه": 4435,
      "تابلوی": 4436,
      "کلیسا": 4437,
      "بفرست": 4438,
      "نقلیه": 4439,
      "تنبیه": 4440,
      "پذیرفت": 4441,
      "بابای": 4442,
      "اخت": 4443,
      "بدنش": 4444,
      "زومی": 4445,
      "فرستاد": 4446,
      "سفری": 4447,
      "شامپو": 4448,
      "##and": 4449,
      "معدن": 4450,
      "مادرانشان": 4451,
      "باشک": 4452,
      "خدا": 4453,
      "طلسم": 4454,
      "کری": 4455,
      "##یزه": 4456,
      "دستور": 4457,
      "پیکر": 4458,
      "مزاحم": 4459,
      "##گون": 4460,
      "انسان": 4461,
      "مرط": 4462,
      "اشتی": 4463,
      "شادمان": 4464,
      "احتیاج": 4465,
      "گذرانده": 4466,
      "فکری": 4467,
      "##قیم": 4468,
      "مهمه": 4469,
      "میده": 4470,
      "لغزنده": 4471,
      "حک": 4472,
      "##ایز": 4473,
      "فروخت": 4474,
      "شراب": 4475,
      "معنای": 4476,
      "یك": 4477,
      "انرژی": 4478,
      "لوسیون": 4479,
      "نگهش": 4480,
      "سنجابی": 4481,
      "اومده": 4482,
      "صلیب": 4483,
      "موی": 4484,
      "ناشی": 4485,
      "جشنواره": 4486,
      "زانوی": 4487,
      "##oo": 4488,
      "بمانیم": 4489,
      "علی": 4490,
      "واح": 4491,
      "نگاهش": 4492,
      "##عیت": 4493,
      "مهربونی": 4494,
      "فندق": 4495,
      "فرص": 4496,
      "نوشیدن": 4497,
      "##ترم": 4498,
      "##ay": 4499,
      "##il": 4500,
      "##انگه": 4501,
      "میب": 4502,
      "عصبی": 4503,
      "کشو": 4504,
      "گیرم": 4505,
      "خدانگه": 4506,
      "چار": 4507,
      "دریانورد": 4508,
      "خدانگهدار": 4509,
      "##رک": 4510,
      "مترو": 4511,
      "بگذر": 4512,
      "بگذران": 4513,
      "چمنزار": 4514,
      "حاضر": 4515,
      "##ربا": 4516,
      "مامانم": 4517,
      "بردارند": 4518,
      "حیوون": 4519,
      "فرض": 4520,
      "اتاقت": 4521,
      "ذهن": 4522,
      "مکانیک": 4523,
      "برداریم": 4524,
      "ویولن": 4525,
      "فرهنگ": 4526,
      "##یذ": 4527,
      "##رغ": 4528,
      "پرهای": 4529,
      "لاغر": 4530,
      "##نکی": 4531,
      "بزرگسال": 4532,
      "ببرید": 4533,
      "عطر": 4534,
      "تیزی": 4535,
      "هرکدام": 4536,
      "جد": 4537,
      "تماس": 4538,
      "حموم": 4539,
      "دراوردند": 4540,
      "گریس": 4541,
      "كم": 4542,
      "واگ": 4543,
      "##رن": 4544,
      "##زدید": 4545,
      "بهار": 4546,
      "پیرزن": 4547,
      "معنی": 4548,
      "اژیر": 4549,
      "میخوام": 4550,
      "شغل": 4551,
      "صداهایی": 4552,
      "بپزد": 4553,
      "ترازو": 4554,
      "مخروط": 4555,
      "یخی": 4556,
      "نگرفت": 4557,
      "توپم": 4558,
      "لذیذ": 4559,
      "ازمایشگاه": 4560,
      "بترساند": 4561,
      "سق": 4562,
      "میخوای": 4563,
      "##کمت": 4564,
      "نازک": 4565,
      "واحه": 4566,
      "پندی": 4567,
      "##گي": 4568,
      "بهبود": 4569,
      "ماسا": 4570,
      "ارزشم": 4571,
      "نرمش": 4572,
      "مرطوب": 4573,
      "‫یک": 4574,
      "بیام": 4575,
      "بخونه": 4576,
      "##ard": 4577,
      "پخته": 4578,
      "رق": 4579,
      "##امپ": 4580,
      "اموزش": 4581,
      "لولا": 4582,
      "مسي": 4583,
      "زبرا": 4584,
      "and": 4585,
      "کوکو": 4586,
      "تهیه": 4587,
      "رشته": 4588,
      "ستون": 4589,
      "شترم": 4590,
      "پالت": 4591,
      "##اشون": 4592,
      "##تواند": 4593,
      "کسانی": 4594,
      "میتونیم": 4595,
      "میدم": 4596,
      "شرمندگی": 4597,
      "سیل": 4598,
      "اینجاست": 4599,
      "کایاک": 4600,
      "بارانی": 4601,
      "شادتر": 4602,
      "کاپ": 4603,
      "ماهیگیر": 4604,
      "سرزنده": 4605,
      "زیرسیگاری": 4606,
      "بپرم": 4607,
      "ملوان": 4608,
      "بسازم": 4609,
      "اهنربا": 4610,
      "اساس": 4611,
      "##ریق": 4612,
      "الگ": 4613,
      "کثیفی": 4614,
      "ba": 4615,
      "##لر": 4616,
      "شنبه": 4617,
      "دعو": 4618,
      "##يده": 4619,
      "زخمی": 4620,
      "شناس": 4621,
      "سمتش": 4622,
      "نداری": 4623,
      "اندازد": 4624,
      "نیفتاد": 4625,
      "بازویش": 4626,
      "اومدن": 4627,
      "یونجه": 4628,
      "بریدن": 4629,
      "سخ": 4630,
      "کندن": 4631,
      "ترسو": 4632,
      "ميا": 4633,
      "مچ": 4634,
      "##جایی": 4635,
      "اینطوری": 4636,
      "شماست": 4637,
      "ترسد": 4638,
      "بپیچ": 4639,
      "تاریخ": 4640,
      "ماساژ": 4641,
      "وازه": 4642,
      "##اعت": 4643,
      "اموز": 4644,
      "##ابد": 4645,
      "بنزین": 4646,
      "مدادر": 4647,
      "تونید": 4648,
      "فروتن": 4649,
      "بخورید": 4650,
      "قراره": 4651,
      "ایستادند": 4652,
      "پوستش": 4653,
      "کوبید": 4654,
      "بير": 4655,
      "دزدید": 4656,
      "زیگ": 4657,
      "خوانند": 4658,
      "گلوله": 4659,
      "میکنی": 4660,
      "منظم": 4661,
      "داشتیم": 4662,
      "مامور": 4663,
      "برگشته": 4664,
      "دانشگاه": 4665,
      "ویدیو": 4666,
      "عمو": 4667,
      "##ابه": 4668,
      "شجاعی": 4669,
      "پیتز": 4670,
      "همس": 4671,
      "هاست": 4672,
      "بدانند": 4673,
      "والدینشان": 4674,
      "ماجرای": 4675,
      "کانگورو": 4676,
      "تیک": 4677,
      "##ثق": 4678,
      "روید": 4679,
      "توپت": 4680,
      "اونم": 4681,
      "لغت": 4682,
      "عزیزانم": 4683,
      "اطاعت": 4684,
      "موجودات": 4685,
      "ورزشگاه": 4686,
      "پلاستیکی": 4687,
      "سوسیس": 4688,
      "##ونیم": 4689,
      "خرسی": 4690,
      "بکشیم": 4691,
      "دزدان": 4692,
      "جلسه": 4693,
      "خوند": 4694,
      "دوتا": 4695,
      "##پیچ": 4696,
      "دونستن": 4697,
      "بگردند": 4698,
      "دف": 4699,
      "بریز": 4700,
      "نشیم": 4701,
      "تعظیم": 4702,
      "میتونه": 4703,
      "بيرون": 4704,
      "هرب": 4705,
      "##کوت": 4706,
      "راب": 4707,
      "##اقل": 4708,
      "بدرخ": 4709,
      "سریعا": 4710,
      "الکس": 4711,
      "برگردوند": 4712,
      "بخوانیم": 4713,
      "روي": 4714,
      "##الب": 4715,
      "خواسته": 4716,
      "واژ": 4717,
      "معما": 4718,
      "حسود": 4719,
      "پاشیدن": 4720,
      "نعنا": 4721,
      "شترمرغ": 4722,
      "رع": 4723,
      "روبی": 4724,
      "ماش": 4725,
      "مخال": 4726,
      "دش": 4727,
      "تويه": 4728,
      "اینو": 4729,
      "دماس": 4730,
      "بیایم": 4731,
      "پاکیزه": 4732,
      "توالت": 4733,
      "احساسات": 4734,
      "کلاهی": 4735,
      "دادید": 4736,
      "پرونده": 4737,
      "پاشیدند": 4738,
      "مدادرنگی": 4739,
      "شپ": 4740,
      "##ارید": 4741,
      "##اید": 4742,
      "چطوره": 4743,
      "نداریم": 4744,
      "گذروند": 4745,
      "رعایت": 4746,
      "##هایی": 4747,
      "اوازهای": 4748,
      "ازار": 4749,
      "مودبانه": 4750,
      "کارهایی": 4751,
      "بپیوندد": 4752,
      "رسی": 4753,
      "استشم": 4754,
      "گرفتم": 4755,
      "اسپری": 4756,
      "شفاف": 4757,
      "استشمام": 4758,
      "جایش": 4759,
      "غبار": 4760,
      "##الود": 4761,
      "دهنش": 4762,
      "ارت": 4763,
      "میداد": 4764,
      "بشمارد": 4765,
      "گش": 4766,
      "چنگالش": 4767,
      "لاستیکی": 4768,
      "جوش": 4769,
      "دستگاه": 4770,
      "بگویند": 4771,
      "توییت": 4772,
      "بنشینند": 4773,
      "واژگون": 4774,
      "تب": 4775,
      "بازى": 4776,
      "الوچه": 4777,
      "نوع": 4778,
      "اصلاح": 4779,
      "کابوس": 4780,
      "جابه": 4781,
      "پناهگاه": 4782,
      "زار": 4783,
      "متر": 4784,
      "گردم": 4785,
      "نمي": 4786,
      "غذایشان": 4787,
      "مستقیم": 4788,
      "پزشک": 4789,
      "##يت": 4790,
      "نامش": 4791,
      "بدوه": 4792,
      "مدل": 4793,
      "جرثق": 4794,
      "ره": 4795,
      "##لح": 4796,
      "شهری": 4797,
      "##ینگ": 4798,
      "بدو": 4799,
      "جرثقیل": 4800,
      "##رده": 4801,
      "لباسی": 4802,
      "##دیگه": 4803,
      "##جو": 4804,
      "نشی": 4805,
      "براقی": 4806,
      "ملایمت": 4807,
      "روم": 4808,
      "اسمی": 4809,
      "تاک": 4810,
      "ملت": 4811,
      "ابرقه": 4812,
      "کدوی": 4813,
      "باهاشون": 4814,
      "بتونیم": 4815,
      "جرات": 4816,
      "عض": 4817,
      "وادار": 4818,
      "پاشی": 4819,
      "ژله": 4820,
      "برگه": 4821,
      "چارلی": 4822,
      "فول": 4823,
      "چال": 4824,
      "##زش": 4825,
      "##رفی": 4826,
      "خلاقانه": 4827,
      "فیفی": 4828,
      "صداها": 4829,
      "كمك": 4830,
      "کاه": 4831,
      "##اریم": 4832,
      "دیدی": 4833,
      "هرچی": 4834,
      "سالن": 4835,
      "معلمش": 4836,
      "وظ": 4837,
      "ترسی": 4838,
      "گردی": 4839,
      "گاوها": 4840,
      "بپوشه": 4841,
      "بکنی": 4842,
      "پستچی": 4843,
      "بکنم": 4844,
      "کنتر": 4845,
      "ایکس": 4846,
      "بینه": 4847,
      "گرمای": 4848,
      "امیزی": 4849,
      "چسبناک": 4850,
      "##يشه": 4851,
      "##حات": 4852,
      "##زنش": 4853,
      "بردارم": 4854,
      "گهواره": 4855,
      "نشیمن": 4856,
      "گویی": 4857,
      "##يک": 4858,
      "##جوری": 4859,
      "##ha": 4860,
      "خنداند": 4861,
      "ترسیدن": 4862,
      "میکردن": 4863,
      "نفسش": 4864,
      "سوالات": 4865,
      "یادت": 4866,
      "داشتی": 4867,
      "موزی": 4868,
      "شکو": 4869,
      "پیروزی": 4870,
      "اجیل": 4871,
      "ملخ": 4872,
      "لاله": 4873,
      "مقاب": 4874,
      "##يار": 4875,
      "##کتی": 4876,
      "براند": 4877,
      "بشوید": 4878,
      "حلز": 4879,
      "جهان": 4880,
      "ماشين": 4881,
      "یخت": 4882,
      "دادیم": 4883,
      "برگرداندند": 4884,
      "بگردیم": 4885,
      "درحالیکه": 4886,
      "سورپر": 4887,
      "رقاص": 4888,
      "دماسنج": 4889,
      "##im": 4890,
      "برداره": 4891,
      "کیت": 4892,
      "شمارش": 4893,
      "##یفه": 4894,
      "پهنا": 4895,
      "کنترل": 4896,
      "نشو": 4897,
      "زیرزم": 4898,
      "درخشیدن": 4899,
      "بوم": 4900,
      "بران": 4901,
      "سرزنش": 4902,
      "كوچك": 4903,
      "ماشینت": 4904,
      "تمیزش": 4905,
      "فریب": 4906,
      "راستگو": 4907,
      "##مین": 4908,
      "بات": 4909,
      "کورن": 4910,
      "استعداد": 4911,
      "دورتر": 4912,
      "فینی": 4913,
      "ببخشد": 4914,
      "سقوط": 4915,
      "بت": 4916,
      "وروم": 4917,
      "##صی": 4918,
      "بسيار": 4919,
      "شبکه": 4920,
      "صفحات": 4921,
      "شستند": 4922,
      "پهناور": 4923,
      "کشور": 4924,
      "غرق": 4925,
      "شمردند": 4926,
      "تگ": 4927,
      "شتاب": 4928,
      "محض": 4929,
      "دلس": 4930,
      "ردیف": 4931,
      "تونستن": 4932,
      "شلاق": 4933,
      "هي": 4934,
      "اینده": 4935,
      "ماشینی": 4936,
      "خردمندی": 4937,
      "شلوغ": 4938,
      "گذرنامه": 4939,
      "##رس": 4940,
      "دردناک": 4941,
      "اکسی": 4942,
      "##ایق": 4943,
      "مادرهایشان": 4944,
      "متنف": 4945,
      "شگفتی": 4946,
      "هدایت": 4947,
      "مقوایی": 4948,
      "صلح": 4949,
      "خوشایند": 4950,
      "کیست": 4951,
      "میدونست": 4952,
      "واگن": 4953,
      "##غاله": 4954,
      "خونش": 4955,
      "سرخورد": 4956,
      "نبات": 4957,
      "گنجینه": 4958,
      "هربار": 4959,
      "عاقل": 4960,
      "غوا": 4961,
      "##en": 4962,
      "جوید": 4963,
      "گرداند": 4964,
      "دمید": 4965,
      "نرفته": 4966,
      "بخنداند": 4967,
      "چيز": 4968,
      "میتوانم": 4969,
      "مقص": 4970,
      "دهکد": 4971,
      "ناخ": 4972,
      "قلاده": 4973,
      "غلتیدن": 4974,
      "دهکده": 4975,
      "باهم": 4976,
      "دوستانمان": 4977,
      "بهتره": 4978,
      "حي": 4979,
      "همدیگه": 4980,
      "بزغاله": 4981,
      "بخرم": 4982,
      "تندی": 4983,
      "چسبیده": 4984,
      "##ht": 4985,
      "مسیری": 4986,
      "##ناکه": 4987,
      "مانع": 4988,
      "بانی": 4989,
      "اوی": 4990,
      "برایم": 4991,
      "معرفی": 4992,
      "فرصت": 4993,
      "نح": 4994,
      "##شب": 4995,
      "دوش": 4996,
      "کندو": 4997,
      "نبوده": 4998,
      "پولش": 4999,
      "دزدی": 5000,
      "لامپ": 5001,
      "بدزدد": 5002,
      "دوسش": 5003,
      "بیپ": 5004,
      "انقدرها": 5005,
      "زنم": 5006,
      "دنیاست": 5007,
      "قدرتش": 5008,
      "غواصی": 5009,
      "##فیک": 5010,
      "برایتان": 5011,
      "اشعه": 5012,
      "زیست": 5013,
      "بکشم": 5014,
      "حکیم": 5015,
      "شق": 5016,
      "##واک": 5017,
      "اشغال": 5018,
      "تابل": 5019,
      "نماد": 5020,
      "اضطراب": 5021,
      "##مع": 5022,
      "##ek": 5023,
      "چهارشنبه": 5024,
      "دربیاورد": 5025,
      "ایگلو": 5026,
      "خنکی": 5027,
      "##برگ": 5028,
      "برسه": 5029,
      "بذاره": 5030,
      "اردوگاه": 5031,
      "اثر": 5032,
      "مسی": 5033,
      "منی": 5034,
      "کوچکتر": 5035,
      "پادشاهی": 5036,
      "بخوانم": 5037,
      "متحیر": 5038,
      "خراش": 5039,
      "طریق": 5040,
      "ني": 5041,
      "یکشنبه": 5042,
      "ازادی": 5043,
      "##لاح": 5044,
      "##رفه": 5045,
      "ریزد": 5046,
      "کاملی": 5047,
      "بفروشد": 5048,
      "جديد": 5049,
      "ابرقهرمان": 5050,
      "تفاو": 5051,
      "هنری": 5052,
      "کتش": 5053,
      "بشنوند": 5054,
      "نصف": 5055,
      "حلزون": 5056,
      "سروص": 5057,
      "والی": 5058,
      "##وییم": 5059,
      "پنهانی": 5060,
      "بپرسد": 5061,
      "عبو": 5062,
      "میخند": 5063,
      "کمکی": 5064,
      "نشیند": 5065,
      "رنج": 5066,
      "##ot": 5067,
      "زیرشیر": 5068,
      "جوانی": 5069,
      "عمویش": 5070,
      "##رهایشان": 5071,
      "گزار": 5072,
      "معروف": 5073,
      "همسرش": 5074,
      "طو": 5075,
      "##برد": 5076,
      "بازم": 5077,
      "پاي": 5078,
      "خوشگلی": 5079,
      "مبه": 5080,
      "کک": 5081,
      "##لى": 5082,
      "بافت": 5083,
      "بودیم": 5084,
      "روزشان": 5085,
      "##ونن": 5086,
      "شکلی": 5087,
      "ساختم": 5088,
      "کامیونش": 5089,
      "دلم": 5090,
      "كوچولو": 5091,
      "mi": 5092,
      "شش": 5093,
      "هاپی": 5094,
      "پیچیده": 5095,
      "خوشگذر": 5096,
      "زخم": 5097,
      "چسباند": 5098,
      "ياد": 5099,
      "پرپشت": 5100,
      "##ندهای": 5101,
      "ترمیم": 5102,
      "##فاع": 5103,
      "پاها": 5104,
      "نیمکتی": 5105,
      "پیراهنش": 5106,
      "ترافیک": 5107,
      "##ادهای": 5108,
      "جلوگیری": 5109,
      "دفعه": 5110,
      "بفه": 5111,
      "صفر": 5112,
      "مرو": 5113,
      "گوشی": 5114,
      "دستشویی": 5115,
      "لوبیای": 5116,
      "رویم": 5117,
      "##روسی": 5118,
      "واقع": 5119,
      "سنگینی": 5120,
      "روبنده": 5121,
      "ولوت": 5122,
      "لق": 5123,
      "بازیکن": 5124,
      "بیاره": 5125,
      "ابز": 5126,
      "بستن": 5127,
      "قطعا": 5128,
      "##توانی": 5129,
      "تخیلی": 5130,
      "تولدت": 5131,
      "گریان": 5132,
      "اکسیژ": 5133,
      "عروسی": 5134,
      "##فتگی": 5135,
      "هميشه": 5136,
      "ازت": 5137,
      "خرسش": 5138,
      "گذراندن": 5139,
      "بکشه": 5140,
      "ليلی": 5141,
      "حبس": 5142,
      "بخندد": 5143,
      "یونیف": 5144,
      "بايد": 5145,
      "اینجام": 5146,
      "طرفش": 5147,
      "چندین": 5148,
      "شیپور": 5149,
      "تربچه": 5150,
      "خروس": 5151,
      "هند": 5152,
      "انباری": 5153,
      "نمیتون": 5154,
      "جعلی": 5155,
      "زمستان": 5156,
      "حیوانی": 5157,
      "چشماش": 5158,
      "دوستاشون": 5159,
      "وض": 5160,
      "ویر": 5161,
      "##st": 5162,
      "##اهین": 5163,
      "ریز": 5164,
      "بپوشی": 5165,
      "ناشنوا": 5166,
      "خودخواهی": 5167,
      "مجاز": 5168,
      "##ورا": 5169,
      "##كر": 5170,
      "##باها": 5171,
      "گواهین": 5172,
      "زوزه": 5173,
      "گواهینامه": 5174,
      "سازه": 5175,
      "کیه": 5176,
      "##اع": 5177,
      "میتن": 5178,
      "رویایش": 5179,
      "همراهش": 5180,
      "شکستن": 5181,
      "پرسند": 5182,
      "پدربزرگش": 5183,
      "متنفرم": 5184,
      "تابلویی": 5185,
      "زنه": 5186,
      "امتی": 5187,
      "خاکستر": 5188,
      "##نمایی": 5189,
      "اشیا": 5190,
      "ریتم": 5191,
      "مطمينم": 5192,
      "نترسیده": 5193,
      "تزيینات": 5194,
      "شقایق": 5195,
      "خوندن": 5196,
      "سرک": 5197,
      "گلها": 5198,
      "مسواک": 5199,
      "گیره": 5200,
      "بزنید": 5201,
      "صندوقچه": 5202,
      "قامت": 5203,
      "مند": 5204,
      "میش": 5205,
      "یافته": 5206,
      "تشویقش": 5207,
      "نتی": 5208,
      "منجر": 5209,
      "پارو": 5210,
      "وقتش": 5211,
      "پینکی": 5212,
      "سورپرایز": 5213,
      "سبیل": 5214,
      "##نوی": 5215,
      "##لاتی": 5216,
      "سفرش": 5217,
      "ماهیگیری": 5218,
      "مبهوت": 5219,
      "##يي": 5220,
      "اندوه": 5221,
      "اغاز": 5222,
      "بخندند": 5223,
      "كنند": 5224,
      "وظیفه": 5225,
      "##يب": 5226,
      "رای": 5227,
      "برگرده": 5228,
      "لمسش": 5229,
      "بیماری": 5230,
      "فصل": 5231,
      "خورم": 5232,
      "اشفتگی": 5233,
      "ببینن": 5234,
      "نداشته": 5235,
      "بکنه": 5236,
      "بپریم": 5237,
      "بجود": 5238,
      "دمی": 5239,
      "سفت": 5240,
      "سلاح": 5241,
      "##قان": 5242,
      "بلد": 5243,
      "اونجاست": 5244,
      "قلقل": 5245,
      "کاغذها": 5246,
      "نیروی": 5247,
      "اشتیاق": 5248,
      "بگذرانیم": 5249,
      "سخن": 5250,
      "زیرشیروانی": 5251,
      "جام": 5252,
      "جویی": 5253,
      "خوشحالانه": 5254,
      "##عدادی": 5255,
      "نبرد": 5256,
      "لیسد": 5257,
      "هیچکس": 5258,
      "فروشی": 5259,
      "هدای": 5260,
      "تیلی": 5261,
      "##وانه": 5262,
      "دوستانتان": 5263,
      "ماشینم": 5264,
      "ترکید": 5265,
      "بخوابه": 5266,
      "رازالود": 5267,
      "اکسیژن": 5268,
      "خانواد": 5269,
      "تصاویری": 5270,
      "برانگی": 5271,
      "مگی": 5272,
      "گوی": 5273,
      "##ميم": 5274,
      "زندگي": 5275,
      "تابستان": 5276,
      "خروج": 5277,
      "نتیجه": 5278,
      "جز": 5279,
      "غلی": 5280,
      "تازی": 5281,
      "راهرو": 5282,
      "محله": 5283,
      "بپری": 5284,
      "##کوس": 5285,
      "ابریشم": 5286,
      "وزیدن": 5287,
      "تقلبی": 5288,
      "پالتوی": 5289,
      "##ته": 5290,
      "##ایل": 5291,
      "بدرفت": 5292,
      "جوابی": 5293,
      "جیمز": 5294,
      "درب": 5295,
      "##لاف": 5296,
      "چیزایی": 5297,
      "پیچی": 5298,
      "چرخش": 5299,
      "الیو": 5300,
      "نیمه": 5301,
      "ناشناس": 5302,
      "طوقه": 5303,
      "غلیظ": 5304,
      "خورشیدی": 5305,
      "خوشگذرانی": 5306,
      "پدید": 5307,
      "##وشون": 5308,
      "پارکی": 5309,
      "تصاد": 5310,
      "کاغذهای": 5311,
      "يه": 5312,
      "روبات": 5313,
      "توتو": 5314,
      "روزي": 5315,
      "افتند": 5316,
      "اونقدر": 5317,
      "مردمی": 5318,
      "بازگرد": 5319,
      "شکفت": 5320,
      "اخلاق": 5321,
      "لقمه": 5322,
      "##ایید": 5323,
      "کوچکشان": 5324,
      "کمکشان": 5325,
      "شکفته": 5326,
      "دیروز": 5327,
      "مبارزه": 5328,
      "رویداد": 5329,
      "مروارید": 5330,
      "زرنگ": 5331,
      "سرو": 5332,
      "##گين": 5333,
      "دیدار": 5334,
      "تره": 5335,
      "پسرش": 5336,
      "بمانم": 5337,
      "نوشیدند": 5338,
      "زیگزا": 5339,
      "##شمی": 5340,
      "غمگين": 5341,
      "خشم": 5342,
      "دنده": 5343,
      "اسکی": 5344,
      "توپشان": 5345,
      "بسازه": 5346,
      "لغز": 5347,
      "مضحکی": 5348,
      "شیل": 5349,
      "پي": 5350,
      "##ثه": 5351,
      "ریش": 5352,
      "عبوس": 5353,
      "پدیدار": 5354,
      "سندی": 5355,
      "##سانی": 5356,
      "خوشت": 5357,
      "امدید": 5358,
      "امشب": 5359,
      "بعداز": 5360,
      "دهقان": 5361,
      "نصی": 5362,
      "پافشار": 5363,
      "شپش": 5364,
      "یونیفرم": 5365,
      "ترانه": 5366,
      "جهش": 5367,
      "بدرفتاری": 5368,
      "ظهر": 5369,
      "فع": 5370,
      "وار": 5371,
      "چرمی": 5372,
      "پشمالویی": 5373,
      "امتیاز": 5374,
      "فوق": 5375,
      "##كس": 5376,
      "خودشون": 5377,
      "وفاد": 5378,
      "بخواهیم": 5379,
      "نصیحت": 5380,
      "تزی": 5381,
      "سازد": 5382,
      "بلو": 5383,
      "تصميم": 5384,
      "بپاش": 5385,
      "میگذ": 5386,
      "ماریا": 5387,
      "تفاوت": 5388,
      "بعدازظه": 5389,
      "ذوب": 5390,
      "##ir": 5391,
      "##ho": 5392,
      "بادبز": 5393,
      "بخوانی": 5394,
      "جانوران": 5395,
      "طبقه": 5396,
      "##ing": 5397,
      "دشوار": 5398,
      "اویخت": 5399,
      "میتنز": 5400,
      "شیلنگ": 5401,
      "رزی": 5402,
      "روپوش": 5403,
      "دوم": 5404,
      "##بوتی": 5405,
      "خردسال": 5406,
      "خروجی": 5407,
      "پیتزای": 5408,
      "##شند": 5409,
      "##پذیر": 5410,
      "روزش": 5411,
      "قلبی": 5412,
      "ریختن": 5413,
      "همراهی": 5414,
      "سازی": 5415,
      "ثروتمندی": 5416,
      "شخصی": 5417,
      "مقابل": 5418,
      "##ft": 5419,
      "بودنش": 5420,
      "توم": 5421,
      "فران": 5422,
      "##وهایش": 5423,
      "پختند": 5424,
      "حیوونات": 5425,
      "##يك": 5426,
      "امکان": 5427,
      "توانستم": 5428,
      "نداده": 5429,
      "اطلا": 5430,
      "مالش": 5431,
      "تارع": 5432,
      "لحظ": 5433,
      "گنجی": 5434,
      "شیطانی": 5435,
      "میکروفون": 5436,
      "جسی": 5437,
      "فورا": 5438,
      "##حم": 5439,
      "اسک": 5440,
      "اینبار": 5441,
      "##اندن": 5442,
      "پاشنه": 5443,
      "برسم": 5444,
      "هندوانه": 5445,
      "غرفه": 5446,
      "نتواند": 5447,
      "کانی": 5448,
      "اشفته": 5449,
      "برگی": 5450,
      "فرزند": 5451,
      "##تابه": 5452,
      "کلیدی": 5453,
      "قلبش": 5454,
      "یادداشتی": 5455,
      "##al": 5456,
      "سرت": 5457,
      "محک": 5458,
      "معکوس": 5459,
      "چشمانشان": 5460,
      "بچرخاند": 5461,
      "اوا": 5462,
      "نزدیکش": 5463,
      "حیواناتی": 5464,
      "ماجراجوی": 5465,
      "جرج": 5466,
      "تارعنک": 5467,
      "سکوت": 5468,
      "##واس": 5469,
      "##غر": 5470,
      "مارپیچ": 5471,
      "نکنیم": 5472,
      "قیمتی": 5473,
      "جلب": 5474,
      "زيبا": 5475,
      "ازشون": 5476,
      "رویش": 5477,
      "شکند": 5478,
      "منتقل": 5479,
      "ندادند": 5480,
      "تزیین": 5481,
      "حکمت": 5482,
      "خدمت": 5483,
      "بمانید": 5484,
      "ارزشمند": 5485,
      "بعدازظهر": 5486,
      "خف": 5487,
      "ظروف": 5488,
      "قاطر": 5489,
      "تواف": 5490,
      "خریده": 5491,
      "بگه": 5492,
      "##پیمایی": 5493,
      "چسبید": 5494,
      "برقصند": 5495,
      "فلز": 5496,
      "نمودند": 5497,
      "جلوتر": 5498,
      "مخالفت": 5499,
      "قالی": 5500,
      "برام": 5501,
      "انهاست": 5502,
      "دیدنش": 5503,
      "کلارا": 5504,
      "باله": 5505,
      "میکند": 5506,
      "گذشتند": 5507,
      "سويی": 5508,
      "انداختن": 5509,
      "منظور": 5510,
      "وانت": 5511,
      "مجازات": 5512,
      "خفن": 5513,
      "##ارند": 5514,
      "ماهیتابه": 5515,
      "راهپیمایی": 5516,
      "نقش": 5517,
      "شهرکی": 5518,
      "نورانی": 5519,
      "خاطره": 5520,
      "ارتفاع": 5521,
      "گشاد": 5522,
      "گرفتی": 5523,
      "بازو": 5524,
      "پیروز": 5525,
      "قلقلک": 5526,
      "تازیانه": 5527,
      "توافق": 5528,
      "##ادری": 5529,
      "داو": 5530,
      "مامانشان": 5531,
      "حری": 5532,
      "وو": 5533,
      "##گاهی": 5534,
      "گلهای": 5535,
      "خانمی": 5536,
      "رقابت": 5537,
      "بلوز": 5538,
      "خودروی": 5539,
      "حالم": 5540,
      "الت": 5541,
      "وقتي": 5542,
      "مواجه": 5543,
      "بشکن": 5544,
      "پند": 5545,
      "##el": 5546,
      "##انیم": 5547,
      "درسته": 5548,
      "مادرت": 5549,
      "بکشی": 5550,
      "یافتند": 5551,
      "برنمی": 5552,
      "ra": 5553,
      "قند": 5554,
      "پرپ": 5555,
      "دانید": 5556,
      "گلبرگ": 5557,
      "خوبم": 5558,
      "اردکی": 5559,
      "حمله": 5560,
      "انداخته": 5561,
      "##اهم": 5562,
      "بزرگشان": 5563,
      "تندتر": 5564,
      "تعادلش": 5565,
      "اسمیت": 5566,
      "دلسوزی": 5567,
      "هامون": 5568,
      "کجایی": 5569,
      "##طرف": 5570,
      "##خاش": 5571,
      "انب": 5572,
      "گفتی": 5573,
      "گریل": 5574,
      "بدتر": 5575,
      "اطمین": 5576,
      "بشور": 5577,
      "خاکی": 5578,
      "مرکب": 5579,
      "حاوی": 5580,
      "پچ": 5581,
      "##ویید": 5582,
      "##زهای": 5583,
      "دانا": 5584,
      "راهنمایی": 5585,
      "جادوی": 5586,
      "ترسند": 5587,
      "سالش": 5588,
      "چشمه": 5589,
      "ابدار": 5590,
      "مبارک": 5591,
      "کنان": 5592,
      "پوشند": 5593,
      "##يدن": 5594,
      "بتوانید": 5595,
      "كردن": 5596,
      "ارایشگاه": 5597,
      "هرچقدر": 5598,
      "##جم": 5599,
      "بازدید": 5600,
      "##وطه": 5601,
      "مجدد": 5602,
      "اطلاع": 5603,
      "حریص": 5604,
      "میپر": 5605,
      "شجاعانه": 5606,
      "بخوابم": 5607,
      "فرمانبرد": 5608,
      "میکروفن": 5609,
      "هاپ": 5610,
      "بدویم": 5611,
      "زیگزاگ": 5612,
      "سانی": 5613,
      "##یش": 5614,
      "##گانه": 5615,
      "##رگاه": 5616,
      "بندد": 5617,
      "نواختند": 5618,
      "مریض": 5619,
      "نگذاشت": 5620,
      "هرچیزی": 5621,
      "عق": 5622,
      "سوالی": 5623,
      "وقتشه": 5624,
      "##نکرد": 5625,
      "پرسيد": 5626,
      "سگشان": 5627,
      "انگشتان": 5628,
      "نفهم": 5629,
      "مربای": 5630,
      "##گری": 5631,
      "##it": 5632,
      "میره": 5633,
      "فراهم": 5634,
      "قدرد": 5635,
      "نکنه": 5636,
      "خیال": 5637,
      "نیازمند": 5638,
      "دماغ": 5639,
      "ناهارش": 5640,
      "شرمس": 5641,
      "روباهی": 5642,
      "ذهنشان": 5643,
      "##نکردنی": 5644,
      "رض": 5645,
      "عکسی": 5646,
      "مرداب": 5647,
      "باورنکردنی": 5648,
      "پال": 5649,
      "##سبی": 5650,
      "##ابت": 5651,
      "اونها": 5652,
      "اسمت": 5653,
      "انگشتانش": 5654,
      "بالشش": 5655,
      "بپرسیم": 5656,
      "بیاورم": 5657,
      "خزیدن": 5658,
      "تیکه": 5659,
      "التماس": 5660,
      "هام": 5661,
      "شکاف": 5662,
      "جایگ": 5663,
      "چاقوی": 5664,
      "دوقلوهای": 5665,
      "میگوی": 5666,
      "بندند": 5667,
      "قض": 5668,
      "خوشحالیم": 5669,
      "پاشیده": 5670,
      "تیرک": 5671,
      "بجنگ": 5672,
      "نعناع": 5673,
      "اع": 5674,
      "##يع": 5675,
      "بودید": 5676,
      "دختره": 5677,
      "متصل": 5678,
      "دسترس": 5679,
      "نیومد": 5680,
      "نوری": 5681,
      "ناامیدی": 5682,
      "بذاریم": 5683,
      "اطمینان": 5684,
      "رضایت": 5685,
      "نوه": 5686,
      "رابی": 5687,
      "درازی": 5688,
      "الع": 5689,
      "بگذارم": 5690,
      "بفرم": 5691,
      "مقصد": 5692,
      "خیل": 5693,
      "خلق": 5694,
      "معت": 5695,
      "##جع": 5696,
      "##میل": 5697,
      "بیسک": 5698,
      "موه": 5699,
      "دستشان": 5700,
      "شیرها": 5701,
      "درخشانش": 5702,
      "بوسند": 5703,
      "پوسید": 5704,
      "معلوم": 5705,
      "محکمی": 5706,
      "سینه": 5707,
      "توص": 5708,
      "امدی": 5709,
      "بپوشم": 5710,
      "باحاله": 5711,
      "##سون": 5712,
      "خوششون": 5713,
      "دارویی": 5714,
      "بلندق": 5715,
      "چرخد": 5716,
      "بچشد": 5717,
      "کریست": 5718,
      "سويیچ": 5719,
      "نقل": 5720,
      "نکردم": 5721,
      "تنهاست": 5722,
      "تندرو": 5723,
      "برجش": 5724,
      "قطارها": 5725,
      "احمقی": 5726,
      "##اصله": 5727,
      "اعتق": 5728,
      "اهنرب": 5729,
      "##يیس": 5730,
      "انبوه": 5731,
      "حروف": 5732,
      "فاصله": 5733,
      "##انا": 5734,
      "میتوانی": 5735,
      "اوازی": 5736,
      "دارای": 5737,
      "فلس": 5738,
      "بچس": 5739,
      "افرادی": 5740,
      "بیندازند": 5741,
      "ویران": 5742,
      "kard": 5743,
      "نون": 5744,
      "اورم": 5745,
      "مادرم": 5746,
      "##یکی": 5747,
      "طنابی": 5748,
      "سفرشان": 5749,
      "فضایی": 5750,
      "برانگیز": 5751,
      "بیان": 5752,
      "یاداور": 5753,
      "بخوابی": 5754,
      "شنیدم": 5755,
      "هردوشون": 5756,
      "زارا": 5757,
      "دیوید": 5758,
      "برگردم": 5759,
      "سخنرانی": 5760,
      "اعتقاد": 5761,
      "ke": 5762,
      "پالی": 5763,
      "##پس": 5764,
      "##le": 5765,
      "بیچ": 5766,
      "چهچه": 5767,
      "اوردی": 5768,
      "پوسته": 5769,
      "پاهایشان": 5770,
      "خاطراتش": 5771,
      "##un": 5772,
      "راجع": 5773,
      "درها": 5774,
      "ادبی": 5775,
      "ورود": 5776,
      "لحظات": 5777,
      "حض": 5778,
      "پارگی": 5779,
      "بخری": 5780,
      "نتوانسته": 5781,
      "دلیر": 5782,
      "افز": 5783,
      "حيوان": 5784,
      "قطعاتی": 5785,
      "فرمانبردار": 5786,
      "##اقت": 5787,
      "صداش": 5788,
      "بپوشاند": 5789,
      "عظ": 5790,
      "پایی": 5791,
      "یابد": 5792,
      "##یرد": 5793,
      "##رنگی": 5794,
      "هیزم": 5795,
      "بگو": 5796,
      "شیری": 5797,
      "ارزویی": 5798,
      "بالاترین": 5799,
      "مقوا": 5800,
      "العاده": 5801,
      "عوع": 5802,
      "نری": 5803,
      "رویاهای": 5804,
      "بهترين": 5805,
      "نشانش": 5806,
      "صورتشان": 5807,
      "بوسد": 5808,
      "کاکايوی": 5809,
      "پالتو": 5810,
      "توصیه": 5811,
      "اتی": 5812,
      "خصوص": 5813,
      "سیلی": 5814,
      "##چسبی": 5815,
      "توری": 5816,
      "پرینت": 5817,
      "عصایش": 5818,
      "خطوط": 5819,
      "سرعتش": 5820,
      "انگشتر": 5821,
      "اندازند": 5822,
      "شناسم": 5823,
      "بادبزن": 5824,
      "خامه": 5825,
      "کب": 5826,
      "کولر": 5827,
      "سگک": 5828,
      "حالشان": 5829,
      "کلنگ": 5830,
      "محد": 5831,
      "بخورن": 5832,
      "پرسروصد": 5833,
      "##باهات": 5834,
      "##ak": 5835,
      "##میزی": 5836,
      "چیکی": 5837,
      "سبدش": 5838,
      "پیوستند": 5839,
      "وضعیت": 5840,
      "جایگزین": 5841,
      "حضور": 5842,
      "##ينی": 5843,
      "رومیزی": 5844,
      "##تیام": 5845,
      "التیام": 5846,
      "رقصنده": 5847,
      "غرغر": 5848,
      "پتویش": 5849,
      "طعمش": 5850,
      "بوسیدند": 5851,
      "طبیعی": 5852,
      "بریزیم": 5853,
      "عضلات": 5854,
      "سروصدا": 5855,
      "was": 5856,
      "خلاقی": 5857,
      "ريیس": 5858,
      "قصه": 5859,
      "بودار": 5860,
      "نگیر": 5861,
      "بیاین": 5862,
      "دانیم": 5863,
      "اسپار": 5864,
      "ستار": 5865,
      "شیوه": 5866,
      "بلندترین": 5867,
      "بریدگی": 5868,
      "دکه": 5869,
      "نسیم": 5870,
      "میام": 5871,
      "##اندند": 5872,
      "ابش": 5873,
      "بخواهی": 5874,
      "قطره": 5875,
      "کچلی": 5876,
      "وزش": 5877,
      "غرب": 5878,
      "میشم": 5879,
      "خریدن": 5880,
      "نظرش": 5881,
      "هنر": 5882,
      "خوشبختی": 5883,
      "وسایلشان": 5884,
      "دندانه": 5885,
      "تنبلی": 5886,
      "ستارگان": 5887,
      "ارو": 5888,
      "جزر": 5889,
      "ماده": 5890,
      "##ab": 5891,
      "دهنده": 5892,
      "صدایشان": 5893,
      "##بورد": 5894,
      "مبلمان": 5895,
      "معدنی": 5896,
      "بيا": 5897,
      "خشکی": 5898,
      "شکوفا": 5899,
      "نشتی": 5900,
      "گام": 5901,
      "##انت": 5902,
      "ماموری": 5903,
      "باریک": 5904,
      "بگیرن": 5905,
      "برجی": 5906,
      "هدف": 5907,
      "سبدی": 5908,
      "لرزه": 5909,
      "بالشتک": 5910,
      "چرپی": 5911,
      "بپیچد": 5912,
      "زیرزمین": 5913,
      "سع": 5914,
      "پم": 5915,
      "بگویم": 5916,
      "فرق": 5917,
      "جولی": 5918,
      "گیگی": 5919,
      "سیاهی": 5920,
      "نظم": 5921,
      "بذرها": 5922,
      "ظری": 5923,
      "##ایم": 5924,
      "بردم": 5925,
      "گوگو": 5926,
      "پیپا": 5927,
      "بینمت": 5928,
      "پوشد": 5929,
      "سالمی": 5930,
      "شیء": 5931,
      "نادان": 5932,
      "بلیط": 5933,
      "غلتاندند": 5934,
      "کریستال": 5935,
      "بیچاره": 5936,
      "کشم": 5937,
      "راکی": 5938,
      "زدی": 5939,
      "بدمزه": 5940,
      "دیگرش": 5941,
      "بخره": 5942,
      "##خوری": 5943,
      "اومدند": 5944,
      "مخم": 5945,
      "ملایمی": 5946,
      "الودگی": 5947,
      "The": 5948,
      "رم": 5949,
      "##يل": 5950,
      "توماس": 5951,
      "اسلا": 5952,
      "سرفه": 5953,
      "ابلی": 5954,
      "جایشان": 5955,
      "بسازی": 5956,
      "زردرنگ": 5957,
      "برفک": 5958,
      "جهیدن": 5959,
      "نوشتند": 5960,
      "bu": 5961,
      "اعم": 5962,
      "مزار": 5963,
      "ویگ": 5964,
      "##es": 5965,
      "درنده": 5966,
      "اسوده": 5967,
      "نمیخواست": 5968,
      "غمگینم": 5969,
      "مربی": 5970,
      "زدنش": 5971,
      "موهایشان": 5972,
      "بیلبورد": 5973,
      "بچینم": 5974,
      "بفرستد": 5975,
      "خونشون": 5976,
      "بازیت": 5977,
      "ترف": 5978,
      "بپوشند": 5979,
      "تکمیل": 5980,
      "لاکپشت": 5981,
      "میدانست": 5982,
      "هرچند": 5983,
      "ماجراجویانه": 5984,
      "مزارع": 5985,
      "ساق": 5986,
      "سريع": 5987,
      "میاو": 5988,
      "دردی": 5989,
      "شلوارش": 5990,
      "اسکلی": 5991,
      "##ونش": 5992,
      "##ویت": 5993,
      "##ترش": 5994,
      "ارابه": 5995,
      "شکلاتی": 5996,
      "موشی": 5997,
      "عروسکت": 5998,
      "چشمش": 5999,
      "سردی": 6000,
      "مشترک": 6001,
      "ساکن": 6002,
      "بتونی": 6003,
      "نصب": 6004,
      "مترجم": 6005,
      "وفاداری": 6006,
      "زير": 6007,
      "##ده": 6008,
      "##انچه": 6009,
      "متنی": 6010,
      "بیاییم": 6011,
      "مادربزرگشان": 6012,
      "خطرناکی": 6013,
      "شیطونی": 6014,
      "بخوابند": 6015,
      "سپاسگزاری": 6016,
      "نرود": 6017,
      "شمشیرش": 6018,
      "ورق": 6019,
      "نمیدونست": 6020,
      "اسلاید": 6021,
      "th": 6022,
      "فكر": 6023,
      "##وال": 6024,
      "##داد": 6025,
      "اینا": 6026,
      "منص": 6027,
      "گویم": 6028,
      "##اوت": 6029,
      "دنبالشان": 6030,
      "مدادهای": 6031,
      "خطرناکه": 6032,
      "نمایشی": 6033,
      "عمق": 6034,
      "برقصه": 6035,
      "بنویسم": 6036,
      "میکنند": 6037,
      "فرمانرو": 6038,
      "بدرخشد": 6039,
      "بکار": 6040,
      "کارا": 6041,
      "کمر": 6042,
      "شاداب": 6043,
      "دونستم": 6044,
      "میگوید": 6045,
      "خانوادش": 6046,
      "کرمی": 6047,
      "##زیم": 6048,
      "میشن": 6049,
      "##قبال": 6050,
      "مدو": 6051,
      "درونش": 6052,
      "رسيد": 6053,
      "بادبادکش": 6054,
      "برقصم": 6055,
      "##وهایشان": 6056,
      "دربیاور": 6057,
      "ساقه": 6058,
      "دکان": 6059,
      "قالب": 6060,
      "درمان": 6061,
      "کهن": 6062,
      "نشوند": 6063,
      "نکردن": 6064,
      "پلک": 6065,
      "شمالی": 6066,
      "اهنگی": 6067,
      "پیشخ": 6068,
      "حساب": 6069,
      "برقصیم": 6070,
      "تستی": 6071,
      "تصادف": 6072,
      "هیک": 6073,
      "کالب": 6074,
      "دوستام": 6075,
      "گذرانی": 6076,
      "بدونه": 6077,
      "دانستیم": 6078,
      "اتاقم": 6079,
      "گوشش": 6080,
      "طبق": 6081,
      "فولادی": 6082,
      "باتلاق": 6083,
      "ابزارهای": 6084,
      "کالباس": 6085,
      "dar": 6086,
      "yek": 6087,
      "زشتی": 6088,
      "قادر": 6089,
      "##شیدند": 6090,
      "دويد": 6091,
      "##الو": 6092,
      "روزى": 6093,
      "پريد": 6094,
      "اینچ": 6095,
      "خوردنش": 6096,
      "مهمان": 6097,
      "سخته": 6098,
      "اهوی": 6099,
      "فهمیدن": 6100,
      "عموی": 6101,
      "عنکبوتی": 6102,
      "گذارم": 6103,
      "نوارچسب": 6104,
      "مایه": 6105,
      "زياد": 6106,
      "استیچ": 6107,
      "داوودی": 6108,
      "##نایی": 6109,
      "##ضه": 6110,
      "میذ": 6111,
      "جدیدم": 6112,
      "پرسیدن": 6113,
      "ناراحته": 6114,
      "پیان": 6115,
      "الگو": 6116,
      "جانور": 6117,
      "سردشان": 6118,
      "بمونی": 6119,
      "تهدید": 6120,
      "پافشاری": 6121,
      "اتیش": 6122,
      "زلز": 6123,
      "##وای": 6124,
      "میل": 6125,
      "##ختی": 6126,
      "سلامتی": 6127,
      "پاسپور": 6128,
      "نخواهم": 6129,
      "زلزله": 6130,
      "##سام": 6131,
      "##ذیری": 6132,
      "بارگ": 6133,
      "درختش": 6134,
      "احوال": 6135,
      "لوکس": 6136,
      "##اوضه": 6137,
      "معاوضه": 6138,
      "تصویرش": 6139,
      "##ايل": 6140,
      "رایانه": 6141,
      "Lil": 6142,
      "##سن": 6143,
      "##زینه": 6144,
      "بلنده": 6145,
      "قطارهای": 6146,
      "نخورده": 6147,
      "عظیمی": 6148,
      "اها": 6149,
      "ووف": 6150,
      "##كه": 6151,
      "بیاوری": 6152,
      "کارگر": 6153,
      "بابایشان": 6154,
      "برگردی": 6155,
      "تپانچه": 6156,
      "مقد": 6157,
      "خوشگذ": 6158,
      "طوفانی": 6159,
      "طلب": 6160,
      "درخشیدند": 6161,
      "خبره": 6162,
      "خزیدند": 6163,
      "ممو": 6164,
      "##is": 6165,
      "میرا": 6166,
      "بازیگاه": 6167,
      "پرج": 6168,
      "کمرش": 6169,
      "ببندند": 6170,
      "هواپیماهای": 6171,
      "ورودی": 6172,
      "##ash": 6173,
      "رانی": 6174,
      "عقاب": 6175,
      "كنم": 6176,
      "##پرسی": 6177,
      "کندوی": 6178,
      "ایه": 6179,
      "معم": 6180,
      "کاغذش": 6181,
      "گرسنگی": 6182,
      "سفیدی": 6183,
      "لیموها": 6184,
      "تارعنکبوت": 6185,
      "لز": 6186,
      "درحال": 6187,
      "بازیشان": 6188,
      "کاپی": 6189,
      "##کننده": 6190,
      "خوایم": 6191,
      "غریبی": 6192,
      "علامتی": 6193,
      "الگوی": 6194,
      "ربا": 6195,
      "کردین": 6196,
      "بخزد": 6197,
      "تمیزی": 6198,
      "میزش": 6199,
      "مخزن": 6200,
      "سوارش": 6201,
      "خیابون": 6202,
      "جلد": 6203,
      "لجنزار": 6204,
      "ناخوش": 6205,
      "احوالپرسی": 6206,
      "پان": 6207,
      "چجوری": 6208,
      "##av": 6209,
      "کمانی": 6210,
      "بدوم": 6211,
      "قدمی": 6212,
      "زردش": 6213,
      "شامل": 6214,
      "غلط": 6215,
      "عوعو": 6216,
      "حسی": 6217,
      "##ناس": 6218,
      "کواک": 6219,
      "لوک": 6220,
      "شرق": 6221,
      "پیرمردی": 6222,
      "ببندیم": 6223,
      "وزنه": 6224,
      "غلطی": 6225,
      "قدردانی": 6226,
      "##يو": 6227,
      "##هاي": 6228,
      "اتاقک": 6229,
      "تابستانی": 6230,
      "حالیکه": 6231,
      "ارزویش": 6232,
      "تونستند": 6233,
      "خراشید": 6234,
      "دعوای": 6235,
      "کاپیتان": 6236,
      "##یی": 6237,
      "مامانی": 6238,
      "خنديدند": 6239,
      "نقاب": 6240,
      "اقسام": 6241,
      "شکستی": 6242,
      "چرخاندند": 6243,
      "نخواهند": 6244,
      "سوزاند": 6245,
      "بیاوریم": 6246,
      "نشنیدند": 6247,
      "پاندای": 6248,
      "نشینی": 6249,
      "بشینه": 6250,
      "کاپشن": 6251,
      "ترد": 6252,
      "كنه": 6253,
      "وي": 6254,
      "##کل": 6255,
      "برچسبی": 6256,
      "##روقت": 6257,
      "نکردی": 6258,
      "چاقی": 6259,
      "لیموترش": 6260,
      "نتونستن": 6261,
      "نویسد": 6262,
      "شکفتن": 6263,
      "فرانک": 6264,
      "حيوانات": 6265,
      "##يز": 6266,
      "##جمد": 6267,
      "##ادوی": 6268,
      "نمیاد": 6269,
      "بیفته": 6270,
      "اتشی": 6271,
      "کشوی": 6272,
      "گردان": 6273,
      "گردوی": 6274,
      "بزنن": 6275,
      "بکوب": 6276,
      "برسانند": 6277,
      "بنشینم": 6278,
      "اختلاف": 6279,
      "سرخوردن": 6280,
      "محدودی": 6281,
      "خوشگذران": 6282,
      "صاع": 6283,
      "هروقت": 6284,
      "وید": 6285,
      "کدر": 6286,
      "##et": 6287,
      "##عکس": 6288,
      "پارك": 6289,
      "بگویی": 6290,
      "نکشید": 6291,
      "شکستند": 6292,
      "کوچیکی": 6293,
      "مضمون": 6294,
      "ديدند": 6295,
      "میکنن": 6296,
      "مزخ": 6297,
      "رهبر": 6298,
      "صاعقه": 6299,
      "سرهایشان": 6300,
      "نج": 6301,
      "چین": 6302,
      "اسن": 6303,
      "منجمد": 6304,
      "بلوی": 6305,
      "لبخ": 6306,
      "دستاش": 6307,
      "ریزند": 6308,
      "بسوز": 6309,
      "لیموی": 6310,
      "دریانوردی": 6311,
      "قضاوت": 6312,
      "مقدمه": 6313,
      "بون": 6314,
      "كار": 6315,
      "‎یک": 6316,
      "##فرو": 6317,
      "##سو": 6318,
      "##ارن": 6319,
      "کیفی": 6320,
      "##اطی": 6321,
      "اوردم": 6322,
      "فهمیده": 6323,
      "هردوی": 6324,
      "هوشمندی": 6325,
      "خرطومش": 6326,
      "دونی": 6327,
      "ازرده": 6328,
      "روزانه": 6329,
      "استقبال": 6330,
      "ببندی": 6331,
      "دونستند": 6332,
      "زبانش": 6333,
      "بخشش": 6334,
      "لاکی": 6335,
      "فراوانی": 6336,
      "افس": 6337,
      "چرتی": 6338,
      "بزرگسالان": 6339,
      "an": 6340,
      "حواس": 6341,
      "علو": 6342,
      "روت": 6343,
      "یکباری": 6344,
      "کناره": 6345,
      "ماكس": 6346,
      "نگر": 6347,
      "گذرد": 6348,
      "کارو": 6349,
      "بگي": 6350,
      "گذاشتم": 6351,
      "تابیدن": 6352,
      "متنوع": 6353,
      "دراوردن": 6354,
      "نمایشگاه": 6355,
      "اسکوترش": 6356,
      "ویگلی": 6357,
      "بارگیری": 6358,
      "چیده": 6359,
      "##يند": 6360,
      "##شيد": 6361,
      "درام": 6362,
      "منف": 6363,
      "بیاب": 6364,
      "محی": 6365,
      "تابان": 6366,
      "مطاب": 6367,
      "تندترین": 6368,
      "حسودی": 6369,
      "کفشش": 6370,
      "نخود": 6371,
      "برقرار": 6372,
      "بتونم": 6373,
      "مفیدی": 6374,
      "بنوشند": 6375,
      "استیکر": 6376,
      "ندهد": 6377,
      "چالش": 6378,
      "افزایش": 6379,
      "sa": 6380,
      "ذخ": 6381,
      "عین": 6382,
      "غش": 6383,
      "نات": 6384,
      "نبیند": 6385,
      "##نشین": 6386,
      "##li": 6387,
      "##رمانی": 6388,
      "کوچولوش": 6389,
      "گیریم": 6390,
      "قشنگش": 6391,
      "تیزش": 6392,
      "پوستی": 6393,
      "پرتقالی": 6394,
      "هيجان": 6395,
      "پرجنب": 6396,
      "علوفه": 6397,
      "عد": 6398,
      "##پل": 6399,
      "درشت": 6400,
      "دوستات": 6401,
      "##الات": 6402,
      "کندند": 6403,
      "افته": 6404,
      "حرفی": 6405,
      "شاگرد": 6406,
      "میتونست": 6407,
      "بیفتی": 6408,
      "فشردند": 6409,
      "براشون": 6410,
      "ايا": 6411,
      "نظاره": 6412,
      "محدودیت": 6413,
      "علاق": 6414,
      "مادری": 6415,
      "کپی": 6416,
      "کادو": 6417,
      "##کب": 6418,
      "اینطور": 6419,
      "زمين": 6420,
      "مراسم": 6421,
      "برنگرد": 6422,
      "بخواهند": 6423,
      "روزگاران": 6424,
      "ذخیره": 6425,
      "Tim": 6426,
      "شیم": 6427,
      "میتر": 6428,
      "##هاش": 6429,
      "شناخته": 6430,
      "خرگوشش": 6431,
      "عصر": 6432,
      "مرتکب": 6433,
      "زنان": 6434,
      "خرده": 6435,
      "دعوتنامه": 6436,
      "سیرک": 6437,
      "مسافران": 6438,
      "تقلید": 6439,
      "لوسي": 6440,
      "لبخندهای": 6441,
      "do": 6442,
      "نپر": 6443,
      "بازیه": 6444,
      "هاها": 6445,
      "##ریز": 6446,
      "ماپ": 6447,
      "بلغ": 6448,
      "نیستن": 6449,
      "لیمون": 6450,
      "دستکشش": 6451,
      "بچینند": 6452,
      "پرپشم": 6453,
      "محیط": 6454,
      "زنگی": 6455,
      "غاری": 6456,
      "مویی": 6457,
      "##زل": 6458,
      "خواننده": 6459,
      "یکسان": 6460,
      "توي": 6461,
      "پسرم": 6462,
      "##ازند": 6463,
      "ترم": 6464,
      "زیور": 6465,
      "متعد": 6466,
      "موندن": 6467,
      "خودداری": 6468,
      "نشک": 6469,
      "بهترینش": 6470,
      "تابی": 6471,
      "تونا": 6472,
      "هیچی": 6473,
      "قبلی": 6474,
      "ساندویچش": 6475,
      "گریست": 6476,
      "باحکمت": 6477,
      "##رکز": 6478,
      "حیر": 6479,
      "قاپ": 6480,
      "کندی": 6481,
      "سمتشان": 6482,
      "غیرم": 6483,
      "معمو": 6484,
      "فهمد": 6485,
      "رقصد": 6486,
      "تقاض": 6487,
      "پولک": 6488,
      "ادبانه": 6489,
      "وحشتناکی": 6490,
      "استیو": 6491,
      "پاستا": 6492,
      "بیندازیم": 6493,
      "معتمد": 6494,
      "##وو": 6495,
      "##چار": 6496,
      "باره": 6497,
      "##اینه": 6498,
      "بریدند": 6499,
      "ماژ": 6500,
      "بیگانه": 6501,
      "##گیل": 6502,
      "بگوییم": 6503,
      "نشوید": 6504,
      "تعلق": 6505,
      "جنگیدن": 6506,
      "باغی": 6507,
      "رودخونه": 6508,
      "جرعه": 6509,
      "ایگلوی": 6510,
      "بفهمه": 6511,
      "لیموناد": 6512,
      "سهم": 6513,
      "فا": 6514,
      "كل": 6515,
      "نپذیر": 6516,
      "هدر": 6517,
      "##وعی": 6518,
      "##عتی": 6519,
      "میای": 6520,
      "زدم": 6521,
      "بیگی": 6522,
      "ابرو": 6523,
      "بردارید": 6524,
      "هیولایی": 6525,
      "وسیع": 6526,
      "افسر": 6527,
      "فولاد": 6528,
      "پیانوی": 6529,
      "تعدادی": 6530,
      "قله": 6531,
      "مگر": 6532,
      "خوشحاله": 6533,
      "خواستی": 6534,
      "نبودن": 6535,
      "محو": 6536,
      "##کتش": 6537,
      "غیرمع": 6538,
      "چشمهایش": 6539,
      "بیشترین": 6540,
      "منتظرشان": 6541,
      "امتداد": 6542,
      "كرده": 6543,
      "شخصیت": 6544,
      "بنشینی": 6545,
      "بچینیم": 6546,
      "مسيول": 6547,
      "مسيولی": 6548,
      "شرمساری": 6549,
      "ابلیمو": 6550,
      "پیشخوان": 6551,
      "غیرمعمولی": 6552,
      "رگه": 6553,
      "ازرد": 6554,
      "##ارهایش": 6555,
      "ارغ": 6556,
      "نیستید": 6557,
      "عروسکم": 6558,
      "ملاح": 6559,
      "بکارد": 6560,
      "سطلش": 6561,
      "##مانده": 6562,
      "نوازنده": 6563,
      "ورزشی": 6564,
      "منقار": 6565,
      "اشیای": 6566,
      "ارزشمندی": 6567,
      "ریه": 6568,
      "غوطه": 6569,
      "نینا": 6570,
      "نزند": 6571,
      "##خیر": 6572,
      "بارد": 6573,
      "متنوعی": 6574,
      "تنف": 6575,
      "سرده": 6576,
      "جورج": 6577,
      "قدرتمندی": 6578,
      "زیورالات": 6579,
      "حیرت": 6580,
      "غیرمعم": 6581,
      "نپذیرفت": 6582,
      "ارغوانی": 6583,
      "ne": 6584,
      "گونی": 6585,
      "##رای": 6586,
      "##ig": 6587,
      "درش": 6588,
      "خودرو": 6589,
      "جدیدشون": 6590,
      "معاینه": 6591,
      "بندم": 6592,
      "هویجی": 6593,
      "طلای": 6594,
      "نادری": 6595,
      "تلخی": 6596,
      "چالاب": 6597,
      "مدوسا": 6598,
      "خیر": 6599,
      "فرم": 6600,
      "لیل": 6601,
      "مون": 6602,
      "نز": 6603,
      "هفت": 6604,
      "##اهنگ": 6605,
      "پرن": 6606,
      "دستت": 6607,
      "گوهر": 6608,
      "شوت": 6609,
      "نباشند": 6610,
      "قولش": 6611,
      "پیچیدند": 6612,
      "ندارید": 6613,
      "انگورها": 6614,
      "ايده": 6615,
      "دژ": 6616,
      "ریم": 6617,
      "##ah": 6618,
      "##re": 6619,
      "کنيم": 6620,
      "##ورن": 6621,
      "مهر": 6622,
      "باهوشانه": 6623,
      "شدیدتر": 6624,
      "متعادل": 6625,
      "بذاری": 6626,
      "لرزد": 6627,
      "کمربندش": 6628,
      "نفهمید": 6629,
      "##یبه": 6630,
      "##کا": 6631,
      "##ندا": 6632,
      "##ایندی": 6633,
      "برسیم": 6634,
      "##ریخت": 6635,
      "کوچه": 6636,
      "گرفتنش": 6637,
      "بگویید": 6638,
      "سرسخت": 6639,
      "هنوزم": 6640,
      "عجیبه": 6641,
      "یخبند": 6642,
      "کودکان": 6643,
      "لغزیدن": 6644,
      "هیکل": 6645,
      "ماژیک": 6646,
      "ملاحظه": 6647,
      "جراحی": 6648,
      "شویی": 6649,
      "شير": 6650,
      "##بران": 6651,
      "رالی": 6652,
      "اسرار": 6653,
      "##باسی": 6654,
      "اتاقتان": 6655,
      "برداشتم": 6656,
      "بادبانی": 6657,
      "مثبت": 6658,
      "خيلى": 6659,
      "بیلچه": 6660,
      "بنشینیم": 6661,
      "##ast": 6662,
      "بفهمند": 6663,
      "اجرای": 6664,
      "شناختند": 6665,
      "شکوفه": 6666,
      "پايين": 6667,
      "ببا": 6668,
      "سویی": 6669,
      "ناله": 6670,
      "راش": 6671,
      "دوت": 6672,
      "بزرگي": 6673,
      "پسره": 6674,
      "بدست": 6675,
      "پارکینگ": 6676,
      "خودمون": 6677,
      "نیلو": 6678,
      "شیروانی": 6679,
      "نشونش": 6680,
      "روستایی": 6681,
      "دریافتند": 6682,
      "پوشاندند": 6683,
      "پاسپورت": 6684,
      "غیرمعمول": 6685,
      "شبی": 6686,
      "برعکس": 6687,
      "پرین": 6688,
      "پرخاش": 6689,
      "##اسر": 6690,
      "بیب": 6691,
      "بغلت": 6692,
      "نخی": 6693,
      "##حالا": 6694,
      "سوخته": 6695,
      "سرتاسر": 6696,
      "میپرید": 6697,
      "خیلى": 6698,
      "فی": 6699,
      "هق": 6700,
      "کرو": 6701,
      "روزهایش": 6702,
      "##ورش": 6703,
      "نمیتونست": 6704,
      "بدب": 6705,
      "تمب": 6706,
      "جدیدت": 6707,
      "ارسال": 6708,
      "افتادم": 6709,
      "محبو": 6710,
      "##پیچی": 6711,
      "اصیل": 6712,
      "موهایت": 6713,
      "حاد": 6714,
      "دق": 6715,
      "صع": 6716,
      "طوی": 6717,
      "لجو": 6718,
      "##انست": 6719,
      "##انید": 6720,
      "راک": 6721,
      "برسی": 6722,
      "تمایل": 6723,
      "دورش": 6724,
      "جمله": 6725,
      "اسیبت": 6726,
      "ارزوها": 6727,
      "فیلمی": 6728,
      "دندانش": 6729,
      "نرس": 6730,
      "دوربینش": 6731,
      "نمیدونم": 6732,
      "زیرزمینی": 6733,
      "نيست": 6734,
      "اندوهگین": 6735,
      "مزخرف": 6736,
      "حادثه": 6737,
      "طویله": 6738,
      "هلی": 6739,
      "چشیدند": 6740,
      "ژاک": 6741,
      "##وندند": 6742,
      "میخواه": 6743,
      "پرسه": 6744,
      "ابیاری": 6745,
      "برگردانند": 6746,
      "زنبوری": 6747,
      "سطح": 6748,
      "عمرش": 6749,
      "تلفنش": 6750,
      "برقصی": 6751,
      "ماجرایی": 6752,
      "تاجش": 6753,
      "هايش": 6754,
      "موهاش": 6755,
      "خشمگین": 6756,
      "صعود": 6757,
      "kh": 6758,
      "##خود": 6759,
      "##ذار": 6760,
      "##ro": 6761,
      "انسانی": 6762,
      "رویایی": 6763,
      "گذران": 6764,
      "خواهرت": 6765,
      "ابیگیل": 6766,
      "بپزیم": 6767,
      "نمای": 6768,
      "پشمالوی": 6769,
      "غلتیدند": 6770,
      "تیپ": 6771,
      "ماموریت": 6772,
      "جس": 6773,
      "جیر": 6774,
      "عبی": 6775,
      "فه": 6776,
      "کناری": 6777,
      "ملال": 6778,
      "خوشبختم": 6779,
      "مخملی": 6780,
      "فرمانروا": 6781,
      "جبران": 6782,
      "پشمی": 6783,
      "تاحالا": 6784,
      "کشش": 6785,
      "نباشه": 6786,
      "تلاشش": 6787,
      "مرتبی": 6788,
      "بندرگاه": 6789,
      "معلمشان": 6790,
      "هواپیماها": 6791,
      "راستین": 6792,
      "موزیسین": 6793,
      "نگرفته": 6794,
      "فایده": 6795,
      "اکتش": 6796,
      "##وزد": 6797,
      "دونه": 6798,
      "شرور": 6799,
      "کارمند": 6800,
      "بازوهایش": 6801,
      "حیواناتش": 6802,
      "اومدی": 6803,
      "روشنش": 6804,
      "سیندی": 6805,
      "بمالد": 6806,
      "ماهي": 6807,
      "بشقابش": 6808,
      "نرده": 6809,
      "منحص": 6810,
      "ارزشش": 6811,
      "##asht": 6812,
      "گیتارش": 6813,
      "بریزند": 6814,
      "mik": 6815,
      "خفنه": 6816,
      "راشل": 6817,
      "جیلی": 6818,
      "خاله": 6819,
      "شونه": 6820,
      "هانا": 6821,
      "##يف": 6822,
      "##چوب": 6823,
      "دري": 6824,
      "داگ": 6825,
      "منط": 6826,
      "ترحم": 6827,
      "سرکش": 6828,
      "ترسیدم": 6829,
      "سریعی": 6830,
      "گردنی": 6831,
      "مخف": 6832,
      "انتها": 6833,
      "کدوم": 6834,
      "عمر": 6835,
      "شجاعتش": 6836,
      "مربعی": 6837,
      "براونی": 6838,
      "خصوصی": 6839,
      "نیلوفر": 6840,
      "ویلی": 6841,
      "##ردازی": 6842,
      "خوره": 6843,
      "##ارکت": 6844,
      "داغه": 6845,
      "داشتید": 6846,
      "دیدمش": 6847,
      "نمیتوان": 6848,
      "گرفتیم": 6849,
      "دستان": 6850,
      "دوستشون": 6851,
      "برداشتی": 6852,
      "سریال": 6853,
      "گمشو": 6854,
      "مالیدند": 6855,
      "نجاتش": 6856,
      "نرسید": 6857,
      "میرسید": 6858,
      "بگذرونه": 6859,
      "لجوج": 6860,
      "سین": 6861,
      "‫‪": 6862,
      "##مل": 6863,
      "##مام": 6864,
      "میزی": 6865,
      "همیش": 6866,
      "خوشبو": 6867,
      "تاخیر": 6868,
      "تویی": 6869,
      "مدوز": 6870,
      "مطمينی": 6871,
      "علفزار": 6872,
      "لرزان": 6873,
      "اضطراری": 6874,
      "میشود": 6875,
      "خلاقیت": 6876,
      "ظریفی": 6877,
      "یخبندان": 6878,
      "اکتشاف": 6879,
      "her": 6880,
      "طی": 6881,
      "ظاه": 6882,
      "##غلی": 6883,
      "##فشه": 6884,
      "##گویی": 6885,
      "##xt": 6886,
      "##رهایش": 6887,
      "لبش": 6888,
      "بخونیم": 6889,
      "شادشان": 6890,
      "خوابم": 6891,
      "نمانده": 6892,
      "نماید": 6893,
      "پشیمون": 6894,
      "سازم": 6895,
      "دیوارهای": 6896,
      "نیفتد": 6897,
      "کاشتند": 6898,
      "فضاپیم": 6899,
      "دعوایشان": 6900,
      "اسکیپ": 6901,
      "بنده": 6902,
      "گاوی": 6903,
      "بان": 6904,
      "سرج": 6905,
      "خوردم": 6906,
      "داستانش": 6907,
      "دردش": 6908,
      "وسایلت": 6909,
      "تکالی": 6910,
      "نفری": 6911,
      "چاپگر": 6912,
      "فرستاده": 6913,
      "پاستل": 6914,
      "ويژه": 6915,
      "معمولا": 6916,
      "همیشگی": 6917,
      "اى": 6918,
      "مانم": 6919,
      "##ازیم": 6920,
      "خودمه": 6921,
      "خوردنی": 6922,
      "جالباسی": 6923,
      "مهمتر": 6924,
      "شهرش": 6925,
      "سردم": 6926,
      "گذاریم": 6927,
      "کارهایش": 6928,
      "بفرمایید": 6929,
      "محبوبی": 6930,
      "فرف": 6931,
      "چاب": 6932,
      "راندند": 6933,
      "درنا": 6934,
      "پرپر": 6935,
      "مامانت": 6936,
      "پایه": 6937,
      "نزديک": 6938,
      "سریعتر": 6939,
      "چیزهایش": 6940,
      "معمول": 6941,
      "گمش": 6942,
      "انگیزش": 6943,
      "میدوید": 6944,
      "میتوانیم": 6945,
      "بپاشد": 6946,
      "Lily": 6947,
      "اک": 6948,
      "تنی": 6949,
      "هوف": 6950,
      "میشی": 6951,
      "پرم": 6952,
      "ماس": 6953,
      "رویاپ": 6954,
      "ترشی": 6955,
      "کارتی": 6956,
      "ببنده": 6957,
      "البال": 6958,
      "خوابشان": 6959,
      "قویش": 6960,
      "امیدواریم": 6961,
      "کلماتی": 6962,
      "تالار": 6963,
      "اویزون": 6964,
      "فنجون": 6965,
      "چرخو": 6966,
      "سردرگمی": 6967,
      "##hod": 6968,
      "بشکنند": 6969,
      "طمع": 6970,
      "پنک": 6971,
      "##فان": 6972,
      "رازی": 6973,
      "خوشتی": 6974,
      "روبال": 6975,
      "یکجا": 6976,
      "بلویی": 6977,
      "ممنوع": 6978,
      "خوریم": 6979,
      "ساختیم": 6980,
      "تنومند": 6981,
      "بشویند": 6982,
      "ناهارشان": 6983,
      "فکور": 6984,
      "مشهوری": 6985,
      "رویاپردازی": 6986,
      "جاری": 6987,
      "طع": 6988,
      "##جاب": 6989,
      "رویاهایش": 6990,
      "لباست": 6991,
      "گويد": 6992,
      "پیامی": 6993,
      "خوبش": 6994,
      "اهنی": 6995,
      "سوپر": 6996,
      "خوشگله": 6997,
      "سوختن": 6998,
      "قوس": 6999,
      "مخالف": 7000,
      "اهنربای": 7001,
      "مسيولیت": 7002,
      "سيب": 7003,
      "نخل": 7004,
      "درگیر": 7005,
      "هماهنگ": 7006,
      "کنین": 7007,
      "بازوهای": 7008,
      "بابلز": 7009,
      "جادوییه": 7010,
      "مغزها": 7011,
      "بداخلاقی": 7012,
      "دهانشان": 7013,
      "پیوستن": 7014,
      "زيادی": 7015,
      "دزدیده": 7016,
      "سعي": 7017,
      "of": 7018,
      "##ld": 7019,
      "پرشی": 7020,
      "زدنی": 7021,
      "##ازن": 7022,
      "ترجی": 7023,
      "بخونم": 7024,
      "حالتان": 7025,
      "مراقبش": 7026,
      "اداره": 7027,
      "الوده": 7028,
      "ترسوند": 7029,
      "بشوییم": 7030,
      "مجوز": 7031,
      "ببخشی": 7032,
      "بندازه": 7033,
      "شرط": 7034,
      "کمدش": 7035,
      "لرزش": 7036,
      "بگرده": 7037,
      "زويی": 7038,
      "مخروطی": 7039,
      "منفجر": 7040,
      "پنکیک": 7041,
      "خوشتیپ": 7042,
      "go": 7043,
      "it": 7044,
      "جف": 7045,
      "سیگ": 7046,
      "شسته": 7047,
      "##سازی": 7048,
      "##ik": 7049,
      "##ارو": 7050,
      "##لین": 7051,
      "کشی": 7052,
      "کتابدار": 7053,
      "گرده": 7054,
      "بنفشی": 7055,
      "نوشند": 7056,
      "نشنیده": 7057,
      "دماغش": 7058,
      "بیسکویت": 7059,
      "az": 7060,
      "زهر": 7061,
      "فیگ": 7062,
      "نت": 7063,
      "پیم": 7064,
      "##غم": 7065,
      "##جیر": 7066,
      "##ow": 7067,
      "یکم": 7068,
      "نبر": 7069,
      "کلاهت": 7070,
      "رقصند": 7071,
      "کثافت": 7072,
      "ببخش": 7073,
      "دندون": 7074,
      "استخون": 7075,
      "ببینمش": 7076,
      "خمیری": 7077,
      "فلفلی": 7078,
      "بشکنه": 7079,
      "همونطور": 7080,
      "باشکوه": 7081,
      "ترفند": 7082,
      "زيادي": 7083,
      "جیرجیر": 7084,
      "Tom": 7085,
      "جنب": 7086,
      "سن": 7087,
      "کج": 7088,
      "گست": 7089,
      "گازی": 7090,
      "##ضای": 7091,
      "##ستون": 7092,
      "خوان": 7093,
      "همشون": 7094,
      "اسف": 7095,
      "خواستش": 7096,
      "زیپی": 7097,
      "یادم": 7098,
      "مهربانش": 7099,
      "اطرافشان": 7100,
      "دلنشین": 7101,
      "دودی": 7102,
      "توجهی": 7103,
      "گوسفندها": 7104,
      "تاجی": 7105,
      "مایا": 7106,
      "براى": 7107,
      "چرخاندن": 7108,
      "پیوسته": 7109,
      "تقلب": 7110,
      "شغلش": 7111,
      "sh": 7112,
      "سره": 7113,
      "ضع": 7114,
      "واد": 7115,
      "پذیری": 7116,
      "گرون": 7117,
      "استادی": 7118,
      "سوتی": 7119,
      "کمکتان": 7120,
      "نیند": 7121,
      "توانستی": 7122,
      "مدی": 7123,
      "##گرفت": 7124,
      "بینیم": 7125,
      "تعجبش": 7126,
      "مطب": 7127,
      "عمیقا": 7128,
      "بشماریم": 7129,
      "تراکت": 7130,
      "بلینک": 7131,
      "سرمای": 7132,
      "بيشت": 7133,
      "جود": 7134,
      "##لدا": 7135,
      "##ضا": 7136,
      "درهم": 7137,
      "##خته": 7138,
      "منا": 7139,
      "##وره": 7140,
      "بیابد": 7141,
      "##باتی": 7142,
      "خودرای": 7143,
      "لورا": 7144,
      "نشاط": 7145,
      "گذاشتی": 7146,
      "مداو": 7147,
      "شادانه": 7148,
      "سپرش": 7149,
      "برگردانی": 7150,
      "ترسيده": 7151,
      "سبزش": 7152,
      "بسازید": 7153,
      "قشنگیه": 7154,
      "برمیگرد": 7155,
      "رسان": 7156,
      "صفاری": 7157,
      "لوبیاها": 7158,
      "سلری": 7159,
      "سوییچ": 7160,
      "ترجیح": 7161,
      "پپر": 7162,
      "یوز": 7163,
      "##يش": 7164,
      "پراند": 7165,
      "ببو": 7166,
      "اشتباهات": 7167,
      "کشیدم": 7168,
      "قایقرانی": 7169,
      "گرمشان": 7170,
      "خیسی": 7171,
      "##بده": 7172,
      "موجودی": 7173,
      "ببندم": 7174,
      "فلوتش": 7175,
      "منصف": 7176,
      "##پلنگ": 7177,
      "یوزپلنگ": 7178,
      "صید": 7179,
      "##راتی": 7180,
      "کمتری": 7181,
      "##یگان": 7182,
      "گوشتی": 7183,
      "شناسد": 7184,
      "##ایتان": 7185,
      "تلفنی": 7186,
      "تحمل": 7187,
      "جریان": 7188,
      "لرزیدند": 7189,
      "طبلش": 7190,
      "خودکارش": 7191,
      "بخواهید": 7192,
      "مزاحمت": 7193,
      "##ood": 7194,
      "شناسند": 7195,
      "نحوه": 7196,
      "bud": 7197,
      "لزج": 7198,
      "te": 7199,
      "ارم": 7200,
      "لا": 7201,
      "هوت": 7202,
      "چم": 7203,
      "##نای": 7204,
      "##ue": 7205,
      "##ll": 7206,
      "میهم": 7207,
      "میتواند": 7208,
      "دونده": 7209,
      "کمپ": 7210,
      "تمشک": 7211,
      "توانستید": 7212,
      "بالایی": 7213,
      "مسنی": 7214,
      "نداشتن": 7215,
      "میکسی": 7216,
      "زردی": 7217,
      "خرابش": 7218,
      "ببرن": 7219,
      "کلیدها": 7220,
      "بنویسی": 7221,
      "بشکنم": 7222,
      "فوتبالش": 7223,
      "دوختن": 7224,
      "پاستلی": 7225,
      "استادیوم": 7226,
      "جنا": 7227,
      "زاری": 7228,
      "پز": 7229,
      "##بع": 7230,
      "##سي": 7231,
      "میسی": 7232,
      "راور": 7233,
      "اتمام": 7234,
      "بخشد": 7235,
      "نشوی": 7236,
      "جوجو": 7237,
      "فقیری": 7238,
      "##امیز": 7239,
      "چشمانی": 7240,
      "میزنه": 7241,
      "مرغی": 7242,
      "زنبورهای": 7243,
      "مصرف": 7244,
      "باندپیچی": 7245,
      "انتظارش": 7246,
      "ترساندن": 7247,
      "پاهاش": 7248,
      "بگيرد": 7249,
      "st": 7250,
      "اکو": 7251,
      "جاس": 7252,
      "له": 7253,
      "نتون": 7254,
      "##رر": 7255,
      "##ذیرد": 7256,
      "##ثر": 7257,
      "میس": 7258,
      "اسبی": 7259,
      "موندند": 7260,
      "تعویق": 7261,
      "شوخ": 7262,
      "سرشار": 7263,
      "نماند": 7264,
      "جینا": 7265,
      "سنگینه": 7266,
      "پاشد": 7267,
      "بپرسید": 7268,
      "بنویسه": 7269,
      "محترم": 7270,
      "جاروب": 7271,
      "خشنی": 7272,
      "بدبختی": 7273,
      "عقبی": 7274,
      "ha": 7275,
      "ثابت": 7276,
      "خال": 7277,
      "##esh": 7278,
      "میگفت": 7279,
      "رایگان": 7280,
      "پرهایش": 7281,
      "دیدیم": 7282,
      "پروژه": 7283,
      "دویده": 7284,
      "نشانت": 7285,
      "پدرت": 7286,
      "تعمیرش": 7287,
      "سیبی": 7288,
      "ساحلی": 7289,
      "پردازی": 7290,
      "بخوابیم": 7291,
      "بزرگترها": 7292,
      "شعبده": 7293,
      "ضعیفی": 7294,
      "مرموزی": 7295,
      "پرداختند": 7296,
      "دروغین": 7297,
      "بتسی": 7298,
      "هيچ": 7299,
      "حواسش": 7300,
      "مناظر": 7301,
      "جودی": 7302,
      "خمی": 7303,
      "صافی": 7304,
      "پف": 7305,
      "خوانده": 7306,
      "بریده": 7307,
      "هاتون": 7308,
      "بزرگم": 7309,
      "گرمه": 7310,
      "گريه": 7311,
      "اسانی": 7312,
      "اسنوی": 7313,
      "دادنش": 7314,
      "کیکش": 7315,
      "سفرهای": 7316,
      "برجشان": 7317,
      "هواپیمایش": 7318,
      "لیوانش": 7319,
      "بمونم": 7320,
      "تهوع": 7321,
      "نمیدانست": 7322,
      "بیاموزد": 7323,
      "فعالی": 7324,
      "کهنسال": 7325,
      "اسنپ": 7326,
      "پرخاشگر": 7327,
      "جیرجیرک": 7328,
      "دچار": 7329,
      "رف": 7330,
      "صی": 7331,
      "نیمی": 7332,
      "نخواهی": 7333,
      "واز": 7334,
      "##كان": 7335,
      "خوشایندی": 7336,
      "##ونگی": 7337,
      "ایی": 7338,
      "کوچکترین": 7339,
      "##شانی": 7340,
      "زیگی": 7341,
      "تمرکز": 7342,
      "##زده": 7343,
      "نزديك": 7344,
      "چرخه": 7345,
      "دنیایی": 7346,
      "قطارش": 7347,
      "حفاری": 7348,
      "نفره": 7349,
      "فلش": 7350,
      "استخوانش": 7351,
      "نوازشش": 7352,
      "بتونن": 7353,
      "نیامده": 7354,
      "جذابی": 7355,
      "چترش": 7356,
      "خرما": 7357,
      "مچاله": 7358,
      "بکوبد": 7359,
      "واداشت": 7360,
      "Sp": 7361,
      "kon": 7362,
      "هلوی": 7363,
      "وینک": 7364,
      "چرم": 7365,
      "گي": 7366,
      "##غان": 7367,
      "##ck": 7368,
      "یکسانی": 7369,
      "بزار": 7370,
      "تاپ": 7371,
      "##رهایی": 7372,
      "بدر": 7373,
      "نیاورد": 7374,
      "تعط": 7375,
      "اندکی": 7376,
      "حرفه": 7377,
      "تابحال": 7378,
      "قایقی": 7379,
      "معام": 7380,
      "شهرشان": 7381,
      "تنظیم": 7382,
      "مالیدن": 7383,
      "کثی": 7384,
      "ساعتش": 7385,
      "جهیدند": 7386,
      "دامنش": 7387,
      "مصد": 7388,
      "چگونگی": 7389,
      "میزدند": 7390,
      "ضخیمی": 7391,
      "چسباندند": 7392,
      "چابک": 7393,
      "چرخوند": 7394,
      "زل": 7395,
      "کشه": 7396,
      "کسب": 7397,
      "##ونده": 7398,
      "بانوی": 7399,
      "منزل": 7400,
      "##روزی": 7401,
      "سوسن": 7402,
      "یهو": 7403,
      "درختچه": 7404,
      "مردد": 7405,
      "##اریوم": 7406,
      "نبودم": 7407,
      "غذاش": 7408,
      "چرخان": 7409,
      "مشاج": 7410,
      "تندر": 7411,
      "ایستد": 7412,
      "خشکش": 7413,
      "ممم": 7414,
      "شستش": 7415,
      "سربازهای": 7416,
      "بشینیم": 7417,
      "ترازوی": 7418,
      "نرفتند": 7419,
      "باتج": 7420,
      "کباب": 7421,
      "ناخوشایند": 7422,
      "پانسمان": 7423,
      "تنفس": 7424,
      "ارمغان": 7425,
      "اکواریوم": 7426,
      "Spot": 7427,
      "عال": 7428,
      "گپ": 7429,
      "##zi": 7430,
      "##eh": 7431,
      "##ــ": 7432,
      "باار": 7433,
      "دوستامون": 7434,
      "شدنش": 7435,
      "برگها": 7436,
      "هیپی": 7437,
      "رنگهای": 7438,
      "##خوانی": 7439,
      "درخشد": 7440,
      "بپزند": 7441,
      "برگردید": 7442,
      "ارزوهای": 7443,
      "خرچنگی": 7444,
      "بشنوی": 7445,
      "تایر": 7446,
      "نزنید": 7447,
      "معامله": 7448,
      "مشاجره": 7449,
      "باتجربه": 7450,
      "bo": 7451,
      "on": 7452,
      "بچرخه": 7453,
      "نچ": 7454,
      "نها": 7455,
      "باگی": 7456,
      "میلو": 7457,
      "##ویه": 7458,
      "گرفتش": 7459,
      "بدید": 7460,
      "بدین": 7461,
      "کردنه": 7462,
      "مونده": 7463,
      "بخیه": 7464,
      "پشمش": 7465,
      "قراری": 7466,
      "پناهی": 7467,
      "شکستم": 7468,
      "وسایلی": 7469,
      "ليلى": 7470,
      "پهنی": 7471,
      "نصای": 7472,
      "بدبویی": 7473,
      "راکون": 7474,
      "فرفری": 7475,
      "مداوم": 7476,
      "میهمانی": 7477,
      "فعالیت": 7478,
      "سیری": 7479,
      "خوانم": 7480,
      "##ابل": 7481,
      "بخر": 7482,
      "قدی": 7483,
      "نباشی": 7484,
      "گشتم": 7485,
      "کلاهخود": 7486,
      "منتظرش": 7487,
      "چندی": 7488,
      "ندیدم": 7489,
      "عروسکیش": 7490,
      "نترسد": 7491,
      "دفترش": 7492,
      "زیبایشان": 7493,
      "دستبندش": 7494,
      "ترومپتش": 7495,
      "نمیتونم": 7496,
      "معمای": 7497,
      "ویديو": 7498,
      "پرینتر": 7499,
      "فیگور": 7500,
      "ضعف": 7501,
      "text": 7502,
      "نصایح": 7503,
      "bar": 7504,
      "khe": 7505,
      "حجاب": 7506,
      "دلا": 7507,
      "فلو": 7508,
      "لج": 7509,
      "لنا": 7510,
      "##دي": 7511,
      "##قا": 7512,
      "امضا": 7513,
      "بزاره": 7514,
      "بزرگتری": 7515,
      "بدوی": 7516,
      "##باند": 7517,
      "ببين": 7518,
      "غمگینه": 7519,
      "##توری": 7520,
      "بزرگترش": 7521,
      "قیمتش": 7522,
      "جونز": 7523,
      "موزیک": 7524,
      "فعلا": 7525,
      "وووم": 7526,
      "اعماق": 7527,
      "میترسید": 7528,
      "دقتی": 7529,
      "مصدوم": 7530,
      "نشه": 7531,
      "##گى": 7532,
      "##ur": 7533,
      "باپ": 7534,
      "انکه": 7535,
      "خوراک": 7536,
      "اسون": 7537,
      "نامناس": 7538,
      "کارکن": 7539,
      "بخونی": 7540,
      "خوردی": 7541,
      "حیله": 7542,
      "لیس": 7543,
      "چوبش": 7544,
      "فهمند": 7545,
      "پنهانک": 7546,
      "پیچاند": 7547,
      "بلندقد": 7548,
      "روتختی": 7549,
      "سینما": 7550,
      "سوپرایز": 7551,
      "الات": 7552,
      "##جون": 7553,
      "انگاه": 7554,
      "اتو": 7555,
      "بالاست": 7556,
      "مطل": 7557,
      "بپیوندند": 7558,
      "پرسروصدایی": 7559,
      "پمپ": 7560,
      "فید": 7561,
      "##خور": 7562,
      "##ag": 7563,
      "بانو": 7564,
      "##ارف": 7565,
      "کنده": 7566,
      "صدادار": 7567,
      "خوبي": 7568,
      "بپذیر": 7569,
      "ادویه": 7570,
      "الف": 7571,
      "چشمکی": 7572,
      "اطرافی": 7573,
      "بپردازد": 7574,
      "نورهای": 7575,
      "مشتری": 7576,
      "فلک": 7577,
      "شستشو": 7578,
      "مایل": 7579,
      "میکنیم": 7580,
      "ولش": 7581,
      "محتوای": 7582,
      "##aye": 7583,
      "بگذرونن": 7584,
      "اعضای": 7585,
      "that": 7586,
      "متعددی": 7587,
      "فیدو": 7588,
      "##ut": 7589,
      "میخورد": 7590,
      "همسر": 7591,
      "پرورش": 7592,
      "نمیومد": 7593,
      "چیپس": 7594,
      "کارشون": 7595,
      "دیگرشان": 7596,
      "بخواد": 7597,
      "بپذیرد": 7598,
      "مامانشون": 7599,
      "پوشش": 7600,
      "سوپش": 7601,
      "مفتخ": 7602,
      "سازنده": 7603,
      "دایناسورها": 7604,
      "نتونستند": 7605,
      "طرحی": 7606,
      "کوبیدند": 7607,
      "سوفیا": 7608,
      "میبین": 7609,
      "مسيله": 7610,
      "اشیاء": 7611,
      "پوسیده": 7612,
      "انبوهی": 7613,
      "اسپارک": 7614,
      "you": 7615,
      "جلا": 7616,
      "غي": 7617,
      "مویش": 7618,
      "##اگاه": 7619,
      "##ستر": 7620,
      "روان": 7621,
      "هاى": 7622,
      "اینجوری": 7623,
      "##رافت": 7624,
      "سرپ": 7625,
      "شنای": 7626,
      "شیراب": 7627,
      "پوشانده": 7628,
      "جمعیت": 7629,
      "کثیفه": 7630,
      "برادرت": 7631,
      "شامپ": 7632,
      "ببخشند": 7633,
      "سطلی": 7634,
      "عملی": 7635,
      "گذراندم": 7636,
      "##عمل": 7637,
      "بمونیم": 7638,
      "جدیت": 7639,
      "گیجی": 7640,
      "متواضعی": 7641,
      "رساندن": 7642,
      "بگذرونیم": 7643,
      "بازوها": 7644,
      "he": 7645,
      "جسور": 7646,
      "##يون": 7647,
      "##A": 7648,
      "وقوع": 7649,
      "برگزاری": 7650,
      "نااگاه": 7651,
      "تشکیل": 7652,
      "تابش": 7653,
      "گردیم": 7654,
      "##بانند": 7655,
      "دلار": 7656,
      "دلشان": 7657,
      "شامش": 7658,
      "مخفیانه": 7659,
      "سوپرم": 7660,
      "مودبی": 7661,
      "گوسفندان": 7662,
      "بپرسند": 7663,
      "بنویسیم": 7664,
      "دیواری": 7665,
      "اووکادوی": 7666,
      "میزدن": 7667,
      "تمبرها": 7668,
      "سروصد": 7669,
      "میگذرو": 7670,
      "ارواح": 7671,
      "مفتخرم": 7672,
      "ch": 7673,
      "not": 7674,
      "شتر": 7675,
      "نخند": 7676,
      "کيک": 7677,
      "درهای": 7678,
      "منبع": 7679,
      "نمیشه": 7680,
      "کردنشان": 7681,
      "برگهای": 7682,
      "پایم": 7683,
      "ببيند": 7684,
      "درستکار": 7685,
      "حرفش": 7686,
      "موشکش": 7687,
      "فهمم": 7688,
      "دلپذیر": 7689,
      "مادربزرگت": 7690,
      "هدفش": 7691,
      "نانوایی": 7692,
      "مسیرش": 7693,
      "کودکی": 7694,
      "شپشک": 7695,
      "حياط": 7696,
      "دربیاورند": 7697,
      "افسرده": 7698,
      "غيرم": 7699,
      "سوپرمارکت": 7700,
      "shod": 7701,
      "سروی": 7702,
      "شك": 7703,
      "نانی": 7704,
      "پير": 7705,
      "##iz": 7706,
      "##چر": 7707,
      "##انتا": 7708,
      "درنی": 7709,
      "دوه": 7710,
      "برقی": 7711,
      "استلا": 7712,
      "نامرت": 7713,
      "بدانم": 7714,
      "موم": 7715,
      "بازسازی": 7716,
      "پایت": 7717,
      "خنديد": 7718,
      "کلر": 7719,
      "بابایی": 7720,
      "بهترینی": 7721,
      "ویترین": 7722,
      "خوامش": 7723,
      "مشغولی": 7724,
      "اموزد": 7725,
      "رنگارنگش": 7726,
      "میتونن": 7727,
      "برسانم": 7728,
      "زووم": 7729,
      "رادیوی": 7730,
      "کانگوروی": 7731,
      "##ent": 7732,
      "بیابان": 7733,
      "علاقش": 7734,
      "سرویس": 7735,
      "ذاشت": 7736,
      "رفی": 7737,
      "زور": 7738,
      "واض": 7739,
      "##ضاع": 7740,
      "##ذوب": 7741,
      "بااست": 7742,
      "اوضاع": 7743,
      "روى": 7744,
      "برطرف": 7745,
      "نگیرد": 7746,
      "شنيد": 7747,
      "سنگش": 7748,
      "غذاست": 7749,
      "شوک": 7750,
      "ترسناکه": 7751,
      "مشخص": 7752,
      "مجذوب": 7753,
      "هلش": 7754,
      "پنیری": 7755,
      "پاداشی": 7756,
      "فضانورد": 7757,
      "چسبی": 7758,
      "##ame": 7759,
      "چيزی": 7760,
      "کوبیدن": 7761,
      "خشخاش": 7762,
      "ديگران": 7763,
      "عضله": 7764,
      "چيزها": 7765,
      "نمیتونی": 7766,
      "هدایا": 7767,
      "بیسکویی": 7768,
      "کثیفش": 7769,
      "بين": 7770,
      "ثبت": 7771,
      "غنی": 7772,
      "غارش": 7773,
      "##جثه": 7774,
      "##بودی": 7775,
      "بهاری": 7776,
      "رایت": 7777,
      "داور": 7778,
      "##غله": 7779,
      "قدرها": 7780,
      "برادران": 7781,
      "جریحه": 7782,
      "کوهی": 7783,
      "اذیتش": 7784,
      "براتون": 7785,
      "کریس": 7786,
      "دستورال": 7787,
      "میبینه": 7788,
      "دزدیدن": 7789,
      "نحو": 7790,
      "اسفنج": 7791,
      "تقص": 7792,
      "زح": 7793,
      "طرز": 7794,
      "‎ب": 7795,
      "##دوز": 7796,
      "##ie": 7797,
      "##uz": 7798,
      "##فتی": 7799,
      "بیارم": 7800,
      "بنفشه": 7801,
      "بدش": 7802,
      "تشخی": 7803,
      "بخوای": 7804,
      "بستر": 7805,
      "پنبه": 7806,
      "زنگوله": 7807,
      "مدادش": 7808,
      "والدینتان": 7809,
      "موداری": 7810,
      "برگردانیم": 7811,
      "درخشنده": 7812,
      "بازیگوشی": 7813,
      "نروند": 7814,
      "میدهد": 7815,
      "کروات": 7816,
      "منطقه": 7817,
      "تشخیص": 7818,
      "تجه": 7819,
      "دشت": 7820,
      "ولي": 7821,
      "پلا": 7822,
      "##نتظره": 7823,
      "رولی": 7824,
      "##ینو": 7825,
      "بازیی": 7826,
      "دوستتون": 7827,
      "##ابرا": 7828,
      "عصایی": 7829,
      "نواری": 7830,
      "سیخ": 7831,
      "خردمندانه": 7832,
      "اژدهاها": 7833,
      "فضول": 7834,
      "رازش": 7835,
      "جريت": 7836,
      "داینو": 7837,
      "بشمارند": 7838,
      "كنيم": 7839,
      "اجرها": 7840,
      "ضرری": 7841,
      "کاهو": 7842,
      "ناخدا": 7843,
      "میخندیدند": 7844,
      "مطابقت": 7845,
      "دستورالعمل": 7846,
      "تقصیر": 7847,
      "wit": 7848,
      "تارا": 7849,
      "تنش": 7850,
      "زه": 7851,
      "سیک": 7852,
      "میفته": 7853,
      "بهبودی": 7854,
      "دوشی": 7855,
      "توفان": 7856,
      "اسکوت": 7857,
      "اینجایی": 7858,
      "سوم": 7859,
      "گرفتار": 7860,
      "گذره": 7861,
      "موجب": 7862,
      "موتوری": 7863,
      "ابي": 7864,
      "کارن": 7865,
      "کلو": 7866,
      "شیرش": 7867,
      "باغبان": 7868,
      "گردانم": 7869,
      "حریر": 7870,
      "خوابی": 7871,
      "دیواره": 7872,
      "پیشش": 7873,
      "اوازش": 7874,
      "برگرداندن": 7875,
      "صاحبان": 7876,
      "##ايق": 7877,
      "هووف": 7878,
      "چهارچوب": 7879,
      "انگورهای": 7880,
      "میخواد": 7881,
      "هلوها": 7882,
      "چسباندن": 7883,
      "بخشیدن": 7884,
      "مقصر": 7885,
      "بونسی": 7886,
      "تقاضا": 7887,
      "منحصربه": 7888,
      "غيرمنتظره": 7889,
      "Ben": 7890,
      "She": 7891,
      "Sam": 7892,
      "she": 7893,
      "طاقت": 7894,
      "فیلی": 7895,
      "نفت": 7896,
      "##گذ": 7897,
      "روبه": 7898,
      "دراور": 7899,
      "##ورم": 7900,
      "رسیدیم": 7901,
      "نکردید": 7902,
      "ترسش": 7903,
      "ترسانده": 7904,
      "حیاطش": 7905,
      "قفسی": 7906,
      "دلداری": 7907,
      "شیفته": 7908,
      "رسانم": 7909,
      "بخوانید": 7910,
      "مسافر": 7911,
      "حیوونا": 7912,
      "بدرخشان": 7913,
      "هدایای": 7914,
      "اویختند": 7915,
      "بشوریم": 7916,
      "بفرما": 7917,
      "نرساند": 7918,
      "مدوزا": 7919,
      "with": 7920,
      "سیکلت": 7921,
      "جزي": 7922,
      "حلی": 7923,
      "عادت": 7924,
      "فلاش": 7925,
      "قايل": 7926,
      "ملی": 7927,
      "مباهات": 7928,
      "نپ": 7929,
      "نشت": 7930,
      "##بلی": 7931,
      "##كرد": 7932,
      "بالی": 7933,
      "بازیاش": 7934,
      "##الا": 7935,
      "پره": 7936,
      "پرمو": 7937,
      "نامی": 7938,
      "گرفتید": 7939,
      "##انداز": 7940,
      "فکرش": 7941,
      "یادگاری": 7942,
      "نزده": 7943,
      "فرس": 7944,
      "لباسشویی": 7945,
      "خورشيد": 7946,
      "طرفشان": 7947,
      "قفلی": 7948,
      "بشویم": 7949,
      "جیجی": 7950,
      "دودو": 7951,
      "مدرنی": 7952,
      "چاقویی": 7953,
      "##are": 7954,
      "عرق": 7955,
      "موقعیت": 7956,
      "جهت": 7957,
      "بیفتند": 7958,
      "ابزارها": 7959,
      "##ould": 7960,
      "میبرد": 7961,
      "گویا": 7962,
      "جسیکا": 7963,
      "بلندقامت": 7964,
      "##ریختگی": 7965,
      "طعمی": 7966,
      "خمیازه": 7967,
      "زحمت": 7968,
      "تجهیز": 7969,
      "On": 7970,
      "##افته": 7971,
      "##فد": 7972,
      "##دو": 7973,
      "##گونه": 7974,
      "درم": 7975,
      "دوره": 7976,
      "دوسر": 7977,
      "کوبد": 7978,
      "##راف": 7979,
      "لبخندش": 7980,
      "احساسی": 7981,
      "خواهری": 7982,
      "پیله": 7983,
      "پیشانی": 7984,
      "شمارم": 7985,
      "لیوانی": 7986,
      "متعفن": 7987,
      "کفشدوز": 7988,
      "مشتاقانه": 7989,
      "ماجرایش": 7990,
      "بالشتش": 7991,
      "برنداشتند": 7992,
      "پوشاندن": 7993,
      "چيست": 7994,
      "نروید": 7995,
      "الگوهای": 7996,
      "نياز": 7997,
      "میخندیدن": 7998,
      "البالو": 7999,
      "بيشتر": 8000,
      "رفیق": 8001,
      "بیسکوییت": 8002,
      "شرب": 8003,
      "فانت": 8004,
      "##لاب": 8005,
      "##تام": 8006,
      "توپچه": 8007,
      "بگم": 8008,
      "کیلا": 8009,
      "شکوه": 8010,
      "جنگیدند": 8011,
      "ریواس": 8012,
      "اله": 8013,
      "الارم": 8014,
      "چیزهایشان": 8015,
      "چرخی": 8016,
      "جوابش": 8017,
      "ميوه": 8018,
      "پاشش": 8019,
      "تصاویرش": 8020,
      "بچینی": 8021,
      "سازمان": 8022,
      "بمونن": 8023,
      "بفهمیم": 8024,
      "وارونه": 8025,
      "بسوزاند": 8026,
      "میخواهم": 8027,
      "مخفیگ": 8028,
      "کارکنان": 8029,
      "نامرتب": 8030,
      "فرسوده": 8031,
      "فانتزی": 8032,
      "du": 8033,
      "kho": 8034,
      "رژ": 8035,
      "عبر": 8036,
      "##pp": 8037,
      "##‏‏": 8038,
      "یکباره": 8039,
      "گفتگو": 8040,
      "##استی": 8041,
      "ماتی": 8042,
      "چیپ": 8043,
      "داروی": 8044,
      "پایشان": 8045,
      "اراست": 8046,
      "قرمزت": 8047,
      "بگیرتش": 8048,
      "برگردونش": 8049,
      "شناسی": 8050,
      "مشابه": 8051,
      "درسش": 8052,
      "مرتبش": 8053,
      "برادرند": 8054,
      "پیچیدن": 8055,
      "حمامش": 8056,
      "بشنوه": 8057,
      "ظاهرش": 8058,
      "بکنید": 8059,
      "راستش": 8060,
      "اينکه": 8061,
      "بذارید": 8062,
      "جلوه": 8063,
      "غلتاندن": 8064,
      "فرصتی": 8065,
      "بدوزد": 8066,
      "نحیف": 8067,
      "اسکیت": 8068,
      "اسکوی": 8069,
      "عبرتی": 8070,
      "Yek": 8071,
      "جکی": 8072,
      "خن": 8073,
      "دیک": 8074,
      "رهایش": 8075,
      "گاه": 8076,
      "یابی": 8077,
      "##گانی": 8078,
      "##كن": 8079,
      "راندن": 8080,
      "رفتاری": 8081,
      "رویید": 8082,
      "نمیکرد": 8083,
      "دانایی": 8084,
      "نیستیم": 8085,
      "محلی": 8086,
      "شادش": 8087,
      "شهد": 8088,
      "ساختمون": 8089,
      "نوارهای": 8090,
      "رقصش": 8091,
      "سوتک": 8092,
      "لیموهای": 8093,
      "نردبانی": 8094,
      "بریزی": 8095,
      "بشمارم": 8096,
      "مایع": 8097,
      "روحیه": 8098,
      "دربیاره": 8099,
      "مقابله": 8100,
      "بازگرداند": 8101,
      "قاپید": 8102,
      "توییتی": 8103,
      "منصفانه": 8104,
      "لجبازی": 8105,
      "##ديگر": 8106,
      "واضح": 8107,
      "تجهیزات": 8108,
      "ماتیلدا": 8109,
      "did": 8110,
      "ذره": 8111,
      "شویند": 8112,
      "كان": 8113,
      "پلاس": 8114,
      "##az": 8115,
      "##ver": 8116,
      "تورش": 8117,
      "مامی": 8118,
      "##انیه": 8119,
      "ناراحتم": 8120,
      "خرسند": 8121,
      "الجثه": 8122,
      "صداي": 8123,
      "برگردون": 8124,
      "لطف": 8125,
      "##یریت": 8126,
      "مرغزار": 8127,
      "نهایتا": 8128,
      "بشوند": 8129,
      "انگیزه": 8130,
      "##خورده": 8131,
      "مجد": 8132,
      "برادرها": 8133,
      "بهمریختگی": 8134,
      "کبوترها": 8135,
      "تیتی": 8136,
      "موزها": 8137,
      "نترسیدند": 8138,
      "بترسانند": 8139,
      "نازکی": 8140,
      "میرسه": 8141,
      "زبرای": 8142,
      "بجنگد": 8143,
      "اعلام": 8144,
      "پوسیدن": 8145,
      "goft": 8146,
      "باارزش": 8147,
      "as": 8148,
      "بشید": 8149,
      "رب": 8150,
      "فين": 8151,
      "قايق": 8152,
      "پام": 8153,
      "پتی": 8154,
      "##ch": 8155,
      "##امتی": 8156,
      "##هاشون": 8157,
      "##اهایت": 8158,
      "##رمند": 8159,
      "نگاهشان": 8160,
      "هرروز": 8161,
      "سرعتی": 8162,
      "زندگى": 8163,
      "نهر": 8164,
      "کله": 8165,
      "تشكر": 8166,
      "کنارت": 8167,
      "گیاهی": 8168,
      "فروت": 8169,
      "##بلند": 8170,
      "سوراخش": 8171,
      "پرتگاه": 8172,
      "خاراند": 8173,
      "بخوابید": 8174,
      "هیولاها": 8175,
      "نوزادش": 8176,
      "پدری": 8177,
      "زیپر": 8178,
      "بچسب": 8179,
      "اندیشید": 8180,
      "غافلگیرانه": 8181,
      "شکنند": 8182,
      "موزهای": 8183,
      "میرسد": 8184,
      "##ide": 8185,
      "نویسم": 8186,
      "عقربه": 8187,
      "بچسباند": 8188,
      "اعمال": 8189,
      "فهمی": 8190,
      "کفشدوزک": 8191,
      "تكان": 8192,
      "شار": 8193,
      "ضرب": 8194,
      "عسلی": 8195,
      "فاض": 8196,
      "میرم": 8197,
      "بازیگر": 8198,
      "خوشامد": 8199,
      "ابزاری": 8200,
      "کارم": 8201,
      "خودتون": 8202,
      "خرج": 8203,
      "مهربونه": 8204,
      "کلویی": 8205,
      "تعارف": 8206,
      "حیوانش": 8207,
      "نقاط": 8208,
      "شادترین": 8209,
      "غیرمم": 8210,
      "گردانند": 8211,
      "بگذرد": 8212,
      "برگردونه": 8213,
      "##ومندی": 8214,
      "ظرفی": 8215,
      "کفشاش": 8216,
      "سفیدش": 8217,
      "قاشقش": 8218,
      "بنفشش": 8219,
      "کوچیکش": 8220,
      "ديدن": 8221,
      "مخصوصی": 8222,
      "حرکتی": 8223,
      "پذیرفتند": 8224,
      "شربت": 8225,
      "ro": 8226,
      "بجه": 8227,
      "زنش": 8228,
      "زاغ": 8229,
      "غصه": 8230,
      "هزینه": 8231,
      "پزش": 8232,
      "کبوت": 8233,
      "انطور": 8234,
      "خوندند": 8235,
      "درپوش": 8236,
      "هموار": 8237,
      "پرقدر": 8238,
      "اسا": 8239,
      "استعدادی": 8240,
      "##روب": 8241,
      "سگم": 8242,
      "متم": 8243,
      "سرحال": 8244,
      "کارای": 8245,
      "نزدشان": 8246,
      "بپرسی": 8247,
      "##فاظ": 8248,
      "مردمش": 8249,
      "سرشون": 8250,
      "مادربزرگم": 8251,
      "بپوشیم": 8252,
      "گذراندیم": 8253,
      "##تافت": 8254,
      "جورابش": 8255,
      "بنویسند": 8256,
      "فشردن": 8257,
      "لاغری": 8258,
      "سخاو": 8259,
      "مخفیگاه": 8260,
      "مجددا": 8261,
      "فاضلاب": 8262,
      "Sue": 8263,
      "ham": 8264,
      "par": 8265,
      "تنده": 8266,
      "تغذ": 8267,
      "حفاظ": 8268,
      "خنگ": 8269,
      "خبری": 8270,
      "رن": 8271,
      "شتافت": 8272,
      "طوق": 8273,
      "لری": 8274,
      "کپ": 8275,
      "کاد": 8276,
      "کات": 8277,
      "گن": 8278,
      "##کاس": 8279,
      "بازه": 8280,
      "پرجه": 8281,
      "ایس": 8282,
      "نامید": 8283,
      "لوپ": 8284,
      "محوطه": 8285,
      "اشتباها": 8286,
      "سختش": 8287,
      "نشدن": 8288,
      "قهرمانی": 8289,
      "پستخانه": 8290,
      "سبکی": 8291,
      "لغزش": 8292,
      "بخوریمش": 8293,
      "نوبتش": 8294,
      "ماجرایشان": 8295,
      "سازمانده": 8296,
      "بترسد": 8297,
      "شلوارهای": 8298,
      "فرستادند": 8299,
      "اموزند": 8300,
      "اسپارکی": 8301,
      "سخاوتمند": 8302,
      "pro": 8303,
      "دینو": 8304,
      "ري": 8305,
      "زبانی": 8306,
      "سکو": 8307,
      "نخوری": 8308,
      "وزد": 8309,
      "واک": 8310,
      "##نمی": 8311,
      "##ناطی": 8312,
      "##ey": 8313,
      "اوازه": 8314,
      "خواید": 8315,
      "اییم": 8316,
      "ترق": 8317,
      "لبریز": 8318,
      "مرج": 8319,
      "لیا": 8320,
      "متوازن": 8321,
      "متاسفند": 8322,
      "بوس": 8323,
      "##her": 8324,
      "جادوگری": 8325,
      "نوازشی": 8326,
      "پوستر": 8327,
      "بریزم": 8328,
      "راحتش": 8329,
      "پولیش": 8330,
      "چمدانش": 8331,
      "bazi": 8332,
      "کارگران": 8333,
      "ناتوان": 8334,
      "هلیکوپ": 8335,
      "نمیتوانست": 8336,
      "ظاهرا": 8337,
      "سرپناه": 8338,
      "جزيی": 8339,
      "تغذیه": 8340,
      "بتاب": 8341,
      "تارهای": 8342,
      "ثانیه": 8343,
      "لینا": 8344,
      "نود": 8345,
      "یمن": 8346,
      "##لش": 8347,
      "پرسر": 8348,
      "بزرگت": 8349,
      "رفتی": 8350,
      "پسرهای": 8351,
      "بنابرا": 8352,
      "مردمان": 8353,
      "بلندتری": 8354,
      "##نجد": 8355,
      "بابات": 8356,
      "بینید": 8357,
      "خوابند": 8358,
      "اخمو": 8359,
      "نمونه": 8360,
      "مغناطی": 8361,
      "مارش": 8362,
      "مارها": 8363,
      "پرندگانی": 8364,
      "بکشید": 8365,
      "بندش": 8366,
      "میمونی": 8367,
      "بنویسید": 8368,
      "باندپیچ": 8369,
      "کلیک": 8370,
      "کراواتش": 8371,
      "تفریحی": 8372,
      "گردوها": 8373,
      "اختیار": 8374,
      "بنابراين": 8375,
      "fr": 8376,
      "بھ": 8377,
      "ریب": 8378,
      "سیمی": 8379,
      "علا": 8380,
      "نخو": 8381,
      "هزار": 8382,
      "چاک": 8383,
      "##عادی": 8384,
      "##كي": 8385,
      "##ندر": 8386,
      "می‏": 8387,
      "دويدند": 8388,
      "برانند": 8389,
      "پرمش": 8390,
      "کندتر": 8391,
      "تامین": 8392,
      "کمکشون": 8393,
      "بیست": 8394,
      "زمستانی": 8395,
      "زمستون": 8396,
      "فراری": 8397,
      "شمارد": 8398,
      "تابد": 8399,
      "وقتى": 8400,
      "کلاهم": 8401,
      "خطی": 8402,
      "بخشیدند": 8403,
      "بشنوم": 8404,
      "بشقابی": 8405,
      "دستمالی": 8406,
      "خمره": 8407,
      "موقعی": 8408,
      "فراز": 8409,
      "تزيینی": 8410,
      "کامپیوترش": 8411,
      "بشینم": 8412,
      "##org": 8413,
      "دشمن": 8414,
      "پايان": 8415,
      "ابزارهایش": 8416,
      "تارعنکبوتی": 8417,
      "شرمسار": 8418,
      "لیلي": 8419,
      "فضاپیما": 8420,
      "نامناسب": 8421,
      "اراسته": 8422,
      "پرمشغله": 8423,
      "##ينش": 8424,
      "##غاتی": 8425,
      "##سالی": 8426,
      "بیاری": 8427,
      "زیاده": 8428,
      "تميز": 8429,
      "نشاند": 8430,
      "##کیبا": 8431,
      "غیرعادی": 8432,
      "ساختی": 8433,
      "مالد": 8434,
      "ایستند": 8435,
      "دیوارش": 8436,
      "پیچد": 8437,
      "پولدار": 8438,
      "پاشند": 8439,
      "بندازیم": 8440,
      "قفسش": 8441,
      "بریزه": 8442,
      "نیکی": 8443,
      "امانت": 8444,
      "تایید": 8445,
      "پاندی": 8446,
      "بفروشند": 8447,
      "said": 8448,
      "نهايت": 8449,
      "دوشیزه": 8450,
      "غیرممکن": 8451,
      "سازماندهی": 8452,
      "dasht": 8453,
      "سانتا": 8454,
      "طویل": 8455,
      "كش": 8456,
      "مجا": 8457,
      "نخواست": 8458,
      "کریم": 8459,
      "##سیر": 8460,
      "##گل": 8461,
      "##كت": 8462,
      "##ستاد": 8463,
      "میگیر": 8464,
      "روحی": 8465,
      "اشکار": 8466,
      "بدوز": 8467,
      "صداقت": 8468,
      "یادشان": 8469,
      "پیوند": 8470,
      "قرمزم": 8471,
      "شکافته": 8472,
      "##قیق": 8473,
      "مدیریت": 8474,
      "نما": 8475,
      "نباشیم": 8476,
      "بشوم": 8477,
      "بشویید": 8478,
      "پذیرش": 8479,
      "خارشی": 8480,
      "بچر": 8481,
      "سربر": 8482,
      "حرکاتی": 8483,
      "معناست": 8484,
      "معنایی": 8485,
      "ناشیانه": 8486,
      "ازردگی": 8487,
      "دريا": 8488,
      "حفاظت": 8489,
      "هلیکوپتر": 8490,
      "حقه": 8491,
      "شغلی": 8492,
      "##هی": 8493,
      "##oon": 8494,
      "##ھا": 8495,
      "دوستند": 8496,
      "برت": 8497,
      "استرس": 8498,
      "پیدات": 8499,
      "دارا": 8500,
      "سرن": 8501,
      "نکش": 8502,
      "دریچه": 8503,
      "چشمای": 8504,
      "قشنگن": 8505,
      "مرغاب": 8506,
      "بشویی": 8507,
      "روشنایی": 8508,
      "اصابت": 8509,
      "نکنم": 8510,
      "خارپشت": 8511,
      "اشتباهش": 8512,
      "مایوس": 8513,
      "چسبانند": 8514,
      "پراکند": 8515,
      "پاپک": 8516,
      "نخورید": 8517,
      "میتوانست": 8518,
      "بپیوندم": 8519,
      "چشیده": 8520,
      "دلسوز": 8521,
      "رایان": 8522,
      "پاییز": 8523,
      "نزنی": 8524,
      "ژاکت": 8525,
      "گسترش": 8526,
      "تراکتور": 8527,
      "چماق": 8528,
      "boz": 8529,
      "بااستعداد": 8530,
      "re": 8531,
      "بفش": 8532,
      "ترات": 8533,
      "سلی": 8534,
      "شکیبا": 8535,
      "غده": 8536,
      "نذ": 8537,
      "##فوس": 8538,
      "##ce": 8539,
      "##um": 8540,
      "##yli": 8541,
      "میارم": 8542,
      "خونگی": 8543,
      "روفوس": 8544,
      "دیدش": 8545,
      "مادران": 8546,
      "##سیس": 8547,
      "توانا": 8548,
      "توانيم": 8549,
      "##باید": 8550,
      "کوچولویش": 8551,
      "تمامی": 8552,
      "##افیه": 8553,
      "سرگرد": 8554,
      "مسل": 8555,
      "ادمه": 8556,
      "پیرش": 8557,
      "فروغ": 8558,
      "اقامت": 8559,
      "رودی": 8560,
      "زردرنگی": 8561,
      "بوزینه": 8562,
      "مجل": 8563,
      "طنابش": 8564,
      "##اصل": 8565,
      "میدونم": 8566,
      "مشکلش": 8567,
      "درخواستی": 8568,
      "اولیه": 8569,
      "بچرخم": 8570,
      "جذب": 8571,
      "نخواهید": 8572,
      "چشیدن": 8573,
      "فنس": 8574,
      "بگذرانید": 8575,
      "اموزان": 8576,
      "تبریک": 8577,
      "میخندید": 8578,
      "ابشار": 8579,
      "جاک": 8580,
      "دیم": 8581,
      "رحم": 8582,
      "مفر": 8583,
      "پلو": 8584,
      "یاب": 8585,
      "یاری": 8586,
      "##وتی": 8587,
      "##شنی": 8588,
      "##ia": 8589,
      "میری": 8590,
      "انطرف": 8591,
      "خوشحالش": 8592,
      "##ازنه": 8593,
      "نمیخو": 8594,
      "بیگ": 8595,
      "##بیت": 8596,
      "اشنایی": 8597,
      "موازنه": 8598,
      "خرند": 8599,
      "ناراضی": 8600,
      "##شمند": 8601,
      "بالم": 8602,
      "نکته": 8603,
      "الای": 8604,
      "پشتکار": 8605,
      "ترسیم": 8606,
      "رقصی": 8607,
      "مالک": 8608,
      "کلیدش": 8609,
      "انگیزتر": 8610,
      "واقعیت": 8611,
      "مدادها": 8612,
      "غریدن": 8613,
      "ناهم": 8614,
      "ایستادن": 8615,
      "پتوها": 8616,
      "کلیسای": 8617,
      "بنوشم": 8618,
      "کارتونی": 8619,
      "برنگشتند": 8620,
      "زانویت": 8621,
      "دلاور": 8622,
      "پرجهش": 8623,
      "بچرخند": 8624,
      "شفا": 8625,
      "قاق": 8626,
      "لم": 8627,
      "چکه": 8628,
      "##زنی": 8629,
      "##ودگی": 8630,
      "برخ": 8631,
      "پرها": 8632,
      "ترام": 8633,
      "##اندازی": 8634,
      "هرکس": 8635,
      "احتم": 8636,
      "دارش": 8637,
      "کارخونه": 8638,
      "##وازی": 8639,
      "الب": 8640,
      "قطرات": 8641,
      "شبانه": 8642,
      "میزها": 8643,
      "براقش": 8644,
      "گیاهش": 8645,
      "برفان": 8646,
      "لیمویی": 8647,
      "ارایشی": 8648,
      "پازلش": 8649,
      "تستش": 8650,
      "ادامسی": 8651,
      "قولی": 8652,
      "وزنش": 8653,
      "جاروی": 8654,
      "بنوازم": 8655,
      "کاشتن": 8656,
      "نویسند": 8657,
      "رقاصه": 8658,
      "غلیظی": 8659,
      "خیلي": 8660,
      "چهچهه": 8661,
      "They": 8662,
      "شيرين": 8663,
      "سیگاری": 8664,
      "khosh": 8665,
      "prov": 8666,
      "پاپکورن": 8667,
      "تلا": 8668,
      "مکار": 8669,
      "‎به": 8670,
      "##رق": 8671,
      "##سرت": 8672,
      "##کند": 8673,
      "##ly": 8674,
      "باندی": 8675,
      "خوانی": 8676,
      "بازیشون": 8677,
      "ازارد": 8678,
      "اینم": 8679,
      "منش": 8680,
      "##اتون": 8681,
      "متک": 8682,
      "دستفرو": 8683,
      "تمامش": 8684,
      "دانستن": 8685,
      "جوون": 8686,
      "الودی": 8687,
      "##کنند": 8688,
      "اومدم": 8689,
      "چراغی": 8690,
      "اژدهایی": 8691,
      "برسونه": 8692,
      "راستی": 8693,
      "بپرس": 8694,
      "شلوارک": 8695,
      "بلینکی": 8696,
      "##کردن": 8697,
      "بفرستیم": 8698,
      "نگرفتند": 8699,
      "مطابق": 8700,
      "صیقل": 8701,
      "مغناطیس": 8702,
      "day": 8703,
      "so": 8704,
      "حاصل": 8705,
      "گیل": 8706,
      "‫م": 8707,
      "مینا": 8708,
      "انرا": 8709,
      "##لیلی": 8710,
      "اسودگی": 8711,
      "کوش": 8712,
      "منقل": 8713,
      "رفتم": 8714,
      "رفتارش": 8715,
      "پسش": 8716,
      "ترکی": 8717,
      "سگه": 8718,
      "خودک": 8719,
      "پیامد": 8720,
      "نشانشان": 8721,
      "راهشان": 8722,
      "ادکل": 8723,
      "خوابد": 8724,
      "جایگاه": 8725,
      "نوعی": 8726,
      "پنچر": 8727,
      "فشارش": 8728,
      "ندارن": 8729,
      "دراورده": 8730,
      "اعتمادی": 8731,
      "شلغم": 8732,
      "##ang": 8733,
      "بشماری": 8734,
      "تراشید": 8735,
      "انعکاس": 8736,
      "اذین": 8737,
      "افرین": 8738,
      "مخصوصش": 8739,
      "هوشمندانه": 8740,
      "چرخند": 8741,
      "شلواری": 8742,
      "نگذارد": 8743,
      "پيش": 8744,
      "جولیا": 8745,
      "منصرف": 8746,
      "بکاریم": 8747,
      "اهالی": 8748,
      "نجوا": 8749,
      "بونس": 8750,
      "ببارد": 8751,
      "جاسوس": 8752,
      "اسکوییکی": 8753,
      "الایام": 8754,
      "He": 8755,
      "bood": 8756,
      "بنگ": 8757,
      "تز": 8758,
      "جاهایی": 8759,
      "خزد": 8760,
      "ران": 8761,
      "زز": 8762,
      "غولی": 8763,
      "قوری": 8764,
      "هنی": 8765,
      "پسته": 8766,
      "گزید": 8767,
      "##مر": 8768,
      "##رایی": 8769,
      "##­ها": 8770,
      "گفتید": 8771,
      "درختا": 8772,
      "بلان": 8773,
      "##اندگی": 8774,
      "متقا": 8775,
      "دستهایش": 8776,
      "خریم": 8777,
      "نزدند": 8778,
      "رنگای": 8779,
      "زیرک": 8780,
      "شايد": 8781,
      "عصبان": 8782,
      "جادویش": 8783,
      "معلق": 8784,
      "شناگر": 8785,
      "سالخورده": 8786,
      "جالبش": 8787,
      "نرمه": 8788,
      "مغزهای": 8789,
      "دلخور": 8790,
      "خطرات": 8791,
      "کدوهای": 8792,
      "عموش": 8793,
      "شرای": 8794,
      "نوشد": 8795,
      "نوزادی": 8796,
      "جادويی": 8797,
      "دندانپزشک": 8798,
      "بذارم": 8799,
      "بترسان": 8800,
      "نشناخت": 8801,
      "بنوشی": 8802,
      "چيزي": 8803,
      "الگویی": 8804,
      "تبلی": 8805,
      "وفادارش": 8806,
      "ارومی": 8807,
      "تهدیدی": 8808,
      "پرنور": 8809,
      "نمایان": 8810,
      "ادکلن": 8811,
      "متقاعد": 8812,
      "زاگ": 8813,
      "پات": 8814,
      "##اك": 8815,
      "##ووم": 8816,
      "##تیم": 8817,
      "##زگی": 8818,
      "##پای": 8819,
      "##for": 8820,
      "##ژامه": 8821,
      "##ردی": 8822,
      "باخت": 8823,
      "میپ": 8824,
      "مینی": 8825,
      "بوداده": 8826,
      "دوستمان": 8827,
      "برامد": 8828,
      "##راندند": 8829,
      "ماکت": 8830,
      "##لاسی": 8831,
      "بدانی": 8832,
      "افتادی": 8833,
      "احساسش": 8834,
      "شنوه": 8835,
      "بالاش": 8836,
      "پیژامه": 8837,
      "دوران": 8838,
      "زمینه": 8839,
      "مرح": 8840,
      "دنبالم": 8841,
      "جنگی": 8842,
      "تاباند": 8843,
      "نظرت": 8844,
      "##شنری": 8845,
      "اوردید": 8846,
      "ارزانی": 8847,
      "مغرو": 8848,
      "بشوی": 8849,
      "انتق": 8850,
      "صبرانه": 8851,
      "ساعتی": 8852,
      "میدی": 8853,
      "بچینه": 8854,
      "جوانا": 8855,
      "احتیاطی": 8856,
      "بشماره": 8857,
      "تراش": 8858,
      "کلاسش": 8859,
      "بشکنی": 8860,
      "بیاورید": 8861,
      "بازیگری": 8862,
      "خشنود": 8863,
      "طبع": 8864,
      "ویدیوی": 8865,
      "کاشف": 8866,
      "فنر": 8867,
      "خرمایی": 8868,
      "##ili": 8869,
      "##لرزید": 8870,
      "گشود": 8871,
      "بدرود": 8872,
      "تعطیل": 8873,
      "شامپوی": 8874,
      "عملیات": 8875,
      "دیکشنری": 8876,
      "سرنخ": 8877,
      "bozorg": 8878,
      "roo": 8879,
      "بویی": 8880,
      "جشنی": 8881,
      "سار": 8882,
      "فاک": 8883,
      "قامتی": 8884,
      "كتاب": 8885,
      "مگه": 8886,
      "مباد": 8887,
      "گار": 8888,
      "‎‎": 8889,
      "##ستونی": 8890,
      "یکروز": 8891,
      "درمانده": 8892,
      "هالی": 8893,
      "اینور": 8894,
      "##ورت": 8895,
      "نمیشد": 8896,
      "بیس": 8897,
      "بیاریم": 8898,
      "اسبش": 8899,
      "دارین": 8900,
      "دخترها": 8901,
      "سمندر": 8902,
      "ماشینشان": 8903,
      "شکافت": 8904,
      "زدنشان": 8905,
      "صبوری": 8906,
      "سالي": 8907,
      "کنجکاوند": 8908,
      "خدمه": 8909,
      "مارتا": 8910,
      "نشدی": 8911,
      "چسبوند": 8912,
      "پدرم": 8913,
      "تحقیق": 8914,
      "جلویش": 8915,
      "فراگی": 8916,
      "بیلش": 8917,
      "مغزش": 8918,
      "فشرده": 8919,
      "هشدارهای": 8920,
      "مرمت": 8921,
      "ویولنش": 8922,
      "تدری": 8923,
      "بخشمت": 8924,
      "سورپ": 8925,
      "بسکتبالش": 8926,
      "تصادفی": 8927,
      "میذاشت": 8928,
      "چینند": 8929,
      "فرمایید": 8930,
      "روبالشتی": 8931,
      "kheyli": 8932,
      "درماندگی": 8933,
      "دستفروش": 8934,
      "فاکسی": 8935,
      "for": 8936,
      "تبری": 8937,
      "ظرافت": 8938,
      "عبار": 8939,
      "غژ": 8940,
      "ووش": 8941,
      "کال": 8942,
      "کارد": 8943,
      "کادوی": 8944,
      "##فون": 8945,
      "اوج": 8946,
      "انه": 8947,
      "درگیری": 8948,
      "روزه": 8949,
      "بیبی": 8950,
      "بیکی": 8951,
      "بدانیم": 8952,
      "موکت": 8953,
      "شونده": 8954,
      "شیرهای": 8955,
      "وقتشان": 8956,
      "گیرید": 8957,
      "تونستم": 8958,
      "موهایم": 8959,
      "ملحفه": 8960,
      "پوستشان": 8961,
      "بچرخیم": 8962,
      "بچرخانند": 8963,
      "برگردانید": 8964,
      "سوختگی": 8965,
      "ولگرد": 8966,
      "هرکدوم": 8967,
      "فنری": 8968,
      "اخترا": 8969,
      "ارتبا": 8970,
      "دندانهایش": 8971,
      "ظریفش": 8972,
      "بلغزند": 8973,
      "گذرانیم": 8974,
      "نتای": 8975,
      "ریبون": 8976,
      "تبلیغاتی": 8977,
      "up": 8978,
      "حکم": 8979,
      "زرنگی": 8980,
      "‫‫": 8981,
      "##يق": 8982,
      "##گير": 8983,
      "##se": 8984,
      "##عات": 8985,
      "##ادگی": 8986,
      "برباید": 8987,
      "خوشمان": 8988,
      "کوشید": 8989,
      "بلع": 8990,
      "متون": 8991,
      "بلندص": 8992,
      "نزدش": 8993,
      "رنگها": 8994,
      "پروا": 8995,
      "گله": 8996,
      "غذاهایی": 8997,
      "قدبلند": 8998,
      "افتابي": 8999,
      "تشوی": 9000,
      "تشنگی": 9001,
      "معرو": 9002,
      "حرکتش": 9003,
      "نگرانم": 9004,
      "شیرینش": 9005,
      "اخبار": 9006,
      "خوردنشان": 9007,
      "زنن": 9008,
      "مورال": 9009,
      "انگیزترین": 9010,
      "بلاک": 9011,
      "رسانده": 9012,
      "نانوا": 9013,
      "بویش": 9014,
      "ترکیب": 9015,
      "شعری": 9016,
      "سازیم": 9017,
      "طلس": 9018,
      "رویاها": 9019,
      "مطالب": 9020,
      "##پولین": 9021,
      "بفروشم": 9022,
      "کاشته": 9023,
      "هرچیز": 9024,
      "وضع": 9025,
      "محترمانه": 9026,
      "نتایج": 9027,
      "خارد": 9028,
      "ضی": 9029,
      "ضای": 9030,
      "نانش": 9031,
      "وس": 9032,
      "##ومی": 9033,
      "##ساز": 9034,
      "##ul": 9035,
      "##انرژی": 9036,
      "خونم": 9037,
      "توتی": 9038,
      "کنش": 9039,
      "رفتنش": 9040,
      "بخاری": 9041,
      "خرسه": 9042,
      "نبودی": 9043,
      "گلش": 9044,
      "بارش": 9045,
      "##اطه": 9046,
      "شکمم": 9047,
      "ریچ": 9048,
      "بگذرانی": 9049,
      "نکردیم": 9050,
      "برگردانم": 9051,
      "خیالی": 9052,
      "پنهانش": 9053,
      "میکشید": 9054,
      "برادرهایی": 9055,
      "نخش": 9056,
      "##ane": 9057,
      "سوتش": 9058,
      "ناهارت": 9059,
      "نخواهیم": 9060,
      "خلوت": 9061,
      "كنار": 9062,
      "مطیعی": 9063,
      "تختخوابش": 9064,
      "جلبک": 9065,
      "الهام": 9066,
      "بازهم": 9067,
      "ترامپولین": 9068,
      "گارسون": 9069,
      "تشویقت": 9070,
      "can": 9071,
      "اپر": 9072,
      "كام": 9073,
      "مول": 9074,
      "يا": 9075,
      "##رح": 9076,
      "##کیک": 9077,
      "##ght": 9078,
      "باق": 9079,
      "میند": 9080,
      "بهتون": 9081,
      "درنمی": 9082,
      "##زیر": 9083,
      "همين": 9084,
      "روزا": 9085,
      "پرفرو": 9086,
      "ایزی": 9087,
      "کمرنگ": 9088,
      "بدیه": 9089,
      "کردنی": 9090,
      "احاطه": 9091,
      "اونور": 9092,
      "دستو": 9093,
      "شکمت": 9094,
      "خواهمش": 9095,
      "خواندنش": 9096,
      "نتوانستم": 9097,
      "اخرش": 9098,
      "ریختی": 9099,
      "صحرایی": 9100,
      "پیشرفت": 9101,
      "اوازت": 9102,
      "بشو": 9103,
      "گرسنم": 9104,
      "داغی": 9105,
      "حبابی": 9106,
      "عقبش": 9107,
      "گذارید": 9108,
      "راستگویی": 9109,
      "عملکرد": 9110,
      "دوقلوی": 9111,
      "سوزاندن": 9112,
      "پناهگاهی": 9113,
      "ابریشمی": 9114,
      "اووکاد": 9115,
      "كني": 9116,
      "بازگشتند": 9117,
      "صرفا": 9118,
      "چيزهاي": 9119,
      "بازیکنان": 9120,
      "کبودی": 9121,
      "ویدي": 9122,
      "پرنس": 9123,
      "دراورند": 9124,
      "فروتنی": 9125,
      "مجازی": 9126,
      "متکبر": 9127,
      "تزریق": 9128,
      "ضیافت": 9129,
      "مونه": 9130,
      "وندی": 9131,
      "‫در": 9132,
      "##يیز": 9133,
      "##جزه": 9134,
      "##ye": 9135,
      "می­": 9136,
      "اوف": 9137,
      "دات": 9138,
      "##روباتی": 9139,
      "روییده": 9140,
      "سگچه": 9141,
      "ابپ": 9142,
      "بخرن": 9143,
      "کلوچ": 9144,
      "پروازش": 9145,
      "اندرو": 9146,
      "حرفای": 9147,
      "کتابخونه": 9148,
      "گردونه": 9149,
      "معجزه": 9150,
      "قویه": 9151,
      "میزن": 9152,
      "ماربل": 9153,
      "##ناك": 9154,
      "بخشندگی": 9155,
      "مکعبش": 9156,
      "اينكه": 9157,
      "پیکری": 9158,
      "تستر": 9159,
      "پرچمی": 9160,
      "کمربندی": 9161,
      "روبروی": 9162,
      "بترسی": 9163,
      "رساندند": 9164,
      "بخاراند": 9165,
      "پالتویش": 9166,
      "منظورت": 9167,
      "اطلاعات": 9168,
      "بکارند": 9169,
      "##ave": 9170,
      "عددی": 9171,
      "برنگردد": 9172,
      "نشکست": 9173,
      "تمبرهای": 9174,
      "اکروباتی": 9175,
      "کمپینگ": 9176,
      "مرجانی": 9177,
      "Mia": 9178,
      "mom": 9179,
      "pl": 9180,
      "تاد": 9181,
      "سي": 9182,
      "في": 9183,
      "لایت": 9184,
      "نلی": 9185,
      "هار": 9186,
      "هارو": 9187,
      "‎و": 9188,
      "##بست": 9189,
      "##دود": 9190,
      "##قد": 9191,
      "##ked": 9192,
      "میاره": 9193,
      "رازه": 9194,
      "روانداز": 9195,
      "دوچرخ": 9196,
      "برامون": 9197,
      "اینگونه": 9198,
      "کور": 9199,
      "پسند": 9200,
      "##ویض": 9201,
      "ترند": 9202,
      "##ارهایی": 9203,
      "امدم": 9204,
      "بگیم": 9205,
      "تعویض": 9206,
      "بارکی": 9207,
      "اتاقمان": 9208,
      "کیفت": 9209,
      "غذایت": 9210,
      "بهترینت": 9211,
      "جنگند": 9212,
      "مساوی": 9213,
      "بپزه": 9214,
      "لطیف": 9215,
      "ارزون": 9216,
      "ترسيد": 9217,
      "چشمهای": 9218,
      "کنجکاوانه": 9219,
      "بمال": 9220,
      "قسم": 9221,
      "##ايی": 9222,
      "جورابی": 9223,
      "مواظبت": 9224,
      "پتوهای": 9225,
      "they": 9226,
      "ناشنوایی": 9227,
      "شلوارها": 9228,
      "پدربزرگشان": 9229,
      "مایکی": 9230,
      "لوبیاهای": 9231,
      "روزهایشان": 9232,
      "تیراندازی": 9233,
      "سوزنی": 9234,
      "میگشت": 9235,
      "ولای": 9236,
      "نیرومندی": 9237,
      "ویلن": 9238,
      "پهناوری": 9239,
      "میرقص": 9240,
      "دلتنگت": 9241,
      "بشوره": 9242,
      "mikard": 9243,
      "سرجایش": 9244,
      "تندرست": 9245,
      "بخرید": 9246,
      "اختراع": 9247,
      "دستورات": 9248,
      "اگاه": 9249,
      "مقی": 9250,
      "نره": 9251,
      "چاره": 9252,
      "گا": 9253,
      "##ساله": 9254,
      "##ol": 9255,
      "##امین": 9256,
      "امنه": 9257,
      "##ونک": 9258,
      "ایام": 9259,
      "رفتیم": 9260,
      "کوچکم": 9261,
      "بدجوری": 9262,
      "مواق": 9263,
      "صدفش": 9264,
      "جویدند": 9265,
      "مسدود": 9266,
      "باغشان": 9267,
      "مهمش": 9268,
      "کاپر": 9269,
      "هنرش": 9270,
      "چندت": 9271,
      "ماربازی": 9272,
      "فردای": 9273,
      "شدیدا": 9274,
      "ایمان": 9275,
      "ردپا": 9276,
      "حسابی": 9277,
      "بپوشید": 9278,
      "پاشنده": 9279,
      "کیفم": 9280,
      "میدو": 9281,
      "##ara": 9282,
      "##ازده": 9283,
      "ادمای": 9284,
      "لرزاند": 9285,
      "چنان": 9286,
      "احترامی": 9287,
      "چهارتا": 9288,
      "قدرتمندش": 9289,
      "حقوق": 9290,
      "بنشینید": 9291,
      "مرمر": 9292,
      "عزیزترین": 9293,
      "بنوشیم": 9294,
      "ندهند": 9295,
      "نپرید": 9296,
      "عمرشان": 9297,
      "مطلع": 9298,
      "میگذروندن": 9299,
      "پرقدرت": 9300,
      "بکی": 9301,
      "خسیس": 9302,
      "دینا": 9303,
      "دفاع": 9304,
      "سبو": 9305,
      "ننه": 9306,
      "چرو": 9307,
      "کالی": 9308,
      "##سيم": 9309,
      "##قق": 9310,
      "##خوش": 9311,
      "##پاک": 9312,
      "##گند": 9313,
      "##iv": 9314,
      "باحالی": 9315,
      "اویزه": 9316,
      "املی": 9317,
      "برادری": 9318,
      "پررو": 9319,
      "سوي": 9320,
      "چیند": 9321,
      "زندانی": 9322,
      "دستانشان": 9323,
      "دهن": 9324,
      "بازرگ": 9325,
      "کلیده": 9326,
      "ناگهانی": 9327,
      "چیزیه": 9328,
      "محص": 9329,
      "کشيد": 9330,
      "گرمایی": 9331,
      "تعجبشان": 9332,
      "اطرافت": 9333,
      "تختم": 9334,
      "تقسيم": 9335,
      "قدرتی": 9336,
      "زنیم": 9337,
      "براقه": 9338,
      "بمب": 9339,
      "پریان": 9340,
      "مدادپاک": 9341,
      "چسبیدند": 9342,
      "مسیرهای": 9343,
      "بینیش": 9344,
      "راحته": 9345,
      "هردوت": 9346,
      "غازها": 9347,
      "چوچ": 9348,
      "درامده": 9349,
      "افق": 9350,
      "بنوازند": 9351,
      "بشینی": 9352,
      "هايشان": 9353,
      "نگذار": 9354,
      "بیاموز": 9355,
      "وظای": 9356,
      "اسرارامیز": 9357,
      "جسارت": 9358,
      "happ": 9359,
      "بجهد": 9360,
      "شرایط": 9361,
      "اکروباتیک": 9362,
      "me": 9363,
      "بغلی": 9364,
      "شری": 9365,
      "شیه": 9366,
      "فلی": 9367,
      "وفا": 9368,
      "واسه": 9369,
      "کافیه": 9370,
      "‬‫": 9371,
      "##اژ": 9372,
      "##واری": 9373,
      "##ax": 9374,
      "##ic": 9375,
      "میانه": 9376,
      "همش": 9377,
      "اینکار": 9378,
      "استعد": 9379,
      "##راك": 9380,
      "نامیدند": 9381,
      "اتشین": 9382,
      "بازوهایشان": 9383,
      "گوساله": 9384,
      "##وبات": 9385,
      "قرمزشان": 9386,
      "بابام": 9387,
      "جویده": 9388,
      "نورا": 9389,
      "سیبش": 9390,
      "تختی": 9391,
      "رقصان": 9392,
      "کامیونت": 9393,
      "واردی": 9394,
      "تعمیرکار": 9395,
      "خیسش": 9396,
      "شکستیم": 9397,
      "زنگش": 9398,
      "مفتخرند": 9399,
      "باورشان": 9400,
      "پتویی": 9401,
      "تیا": 9402,
      "بذارن": 9403,
      "گردنبندی": 9404,
      "بایسته": 9405,
      "مثلثی": 9406,
      "میومدن": 9407,
      "لنگان": 9408,
      "نظمی": 9409,
      "اردوجون": 9410,
      "میرود": 9411,
      "ندهید": 9412,
      "نزنند": 9413,
      "##ome": 9414,
      "لذیذی": 9415,
      "رقم": 9416,
      "##ime": 9417,
      "##itt": 9418,
      "تقاضای": 9419,
      "کریسمس": 9420,
      "پلوور": 9421,
      "بلانکت": 9422,
      "طلسمی": 9423,
      "شیهه": 9424,
      "big": 9425,
      "his": 9426,
      "were": 9427,
      "بوش": 9428,
      "طال": 9429,
      "طاو": 9430,
      "عی": 9431,
      "غلاف": 9432,
      "لویی": 9433,
      "وانی": 9434,
      "یاخت": 9435,
      "##دای": 9436,
      "##سنگ": 9437,
      "##ov": 9438,
      "ان­ها": 9439,
      "##ریزی": 9440,
      "مادرها": 9441,
      "نمیتوانی": 9442,
      "تواني": 9443,
      "دانشمند": 9444,
      "نااش": 9445,
      "دویدنش": 9446,
      "تعمی": 9447,
      "بالشتی": 9448,
      "قدری": 9449,
      "قديم": 9450,
      "مرجان": 9451,
      "مسايل": 9452,
      "کشیدی": 9453,
      "قایقم": 9454,
      "برگردانده": 9455,
      "لطیفه": 9456,
      "ارزوهایشان": 9457,
      "هنرمند": 9458,
      "بشوری": 9459,
      "گرسن": 9460,
      "بقيه": 9461,
      "تونستی": 9462,
      "تولدی": 9463,
      "تکلی": 9464,
      "گذرونده": 9465,
      "سیاهش": 9466,
      "حبوبات": 9467,
      "خریدم": 9468,
      "نفسشان": 9469,
      "فنجانش": 9470,
      "اينجا": 9471,
      "گرانقیم": 9472,
      "##سمانی": 9473,
      "دوردستی": 9474,
      "غافلگیرکننده": 9475,
      "شاهدختی": 9476,
      "افکار": 9477,
      "ازمونی": 9478,
      "موتورسیکلتش": 9479,
      "حرکاتش": 9480,
      "مایکل": 9481,
      "بدزده": 9482,
      "سورپرای": 9483,
      "باریکلا": 9484,
      "عدم": 9485,
      "بلغزد": 9486,
      "ماسکش": 9487,
      "مرحله": 9488,
      "خاردار": 9489,
      "قسمتی": 9490,
      "مقیاس": 9491,
      "چروک": 9492,
      "had": 9493,
      "man": 9494,
      "ادر": 9495,
      "هان": 9496,
      "وج": 9497,
      "‫ب": 9498,
      "##نتی": 9499,
      "##فل": 9500,
      "##tun": 9501,
      "##چین": 9502,
      "##gh": 9503,
      "باو": 9504,
      "میگی": 9505,
      "رالف": 9506,
      "خواین": 9507,
      "دوستون": 9508,
      "پرکار": 9509,
      "اسلی": 9510,
      "##گیز": 9511,
      "درخته": 9512,
      "##یکورن": 9513,
      "نهار": 9514,
      "درستشان": 9515,
      "خانە": 9516,
      "سریعه": 9517,
      "حشراتی": 9518,
      "ادما": 9519,
      "حرارت": 9520,
      "خوابه": 9521,
      "ارامشان": 9522,
      "تنور": 9523,
      "چشمهایشان": 9524,
      "منتهی": 9525,
      "بیندازی": 9526,
      "##ناع": 9527,
      "یخچ": 9528,
      "گیاهانش": 9529,
      "میدهم": 9530,
      "انگشتانشان": 9531,
      "نشونت": 9532,
      "خریداری": 9533,
      "شلپ": 9534,
      "بادکنکی": 9535,
      "بخورمش": 9536,
      "شانسش": 9537,
      "لیزری": 9538,
      "میخواستن": 9539,
      "بیفتم": 9540,
      "موضوعات": 9541,
      "نخوردند": 9542,
      "ورقه": 9543,
      "سوزش": 9544,
      "ارزویت": 9545,
      "خلاف": 9546,
      "بياي": 9547,
      "دلتنگی": 9548,
      "سرخوردنی": 9549,
      "بجنگند": 9550,
      "but": 9551,
      "ترموم": 9552,
      "متعدد": 9553,
      "نشکند": 9554,
      "كلاه": 9555,
      "ادمهای": 9556,
      "play": 9557,
      "time": 9558,
      "تشت": 9559,
      "زشته": 9560,
      "شاهی": 9561,
      "قاش": 9562,
      "كنی": 9563,
      "نل": 9564,
      "وخ": 9565,
      "وسو": 9566,
      "##یرگ": 9567,
      "##‬‫": 9568,
      "##پایی": 9569,
      "##ted": 9570,
      "باک": 9571,
      "میدید": 9572,
      "خوکی": 9573,
      "پرسی": 9574,
      "گرین": 9575,
      "هرکسی": 9576,
      "توانستیم": 9577,
      "کیپ": 9578,
      "شمارند": 9579,
      "##اطع": 9580,
      "جويی": 9581,
      "بغلشان": 9582,
      "نگهبانی": 9583,
      "گردنه": 9584,
      "##نشون": 9585,
      "##وما": 9586,
      "جاها": 9587,
      "جاسیگاری": 9588,
      "مرتبه": 9589,
      "صورتت": 9590,
      "##چرخید": 9591,
      "پیشبند": 9592,
      "##سیمه": 9593,
      "درونی": 9594,
      "کرمک": 9595,
      "خارها": 9596,
      "شکلش": 9597,
      "سراسیمه": 9598,
      "خاصه": 9599,
      "ببینیمش": 9600,
      "هاشو": 9601,
      "مجبورم": 9602,
      "رباتش": 9603,
      "حسادتش": 9604,
      "مریضی": 9605,
      "تجم": 9606,
      "افتابگردون": 9607,
      "خلاص": 9608,
      "ديگه": 9609,
      "چيزهای": 9610,
      "بخواهم": 9611,
      "کانال": 9612,
      "تاثیرگ": 9613,
      "نگذشت": 9614,
      "بپیوندی": 9615,
      "خوشتان": 9616,
      "خفنی": 9617,
      "نتونه": 9618,
      "جزيیات": 9619,
      "ارتباط": 9620,
      "املیا": 9621,
      "بید": 9622,
      "بخت": 9623,
      "جين": 9624,
      "خس": 9625,
      "زره": 9626,
      "شید": 9627,
      "نای": 9628,
      "ناف": 9629,
      "هرا": 9630,
      "پژ": 9631,
      "ژینا": 9632,
      "‎ان": 9633,
      "##هنده": 9634,
      "میگرفت": 9635,
      "##اما": 9636,
      "همسان": 9637,
      "پرانرژی": 9638,
      "بزاریم": 9639,
      "##ونند": 9640,
      "##ازید": 9641,
      "بدنی": 9642,
      "دیگرانی": 9643,
      "شنوم": 9644,
      "شمعی": 9645,
      "ندادی": 9646,
      "زیرش": 9647,
      "اشتراك": 9648,
      "مسافت": 9649,
      "کشاند": 9650,
      "السا": 9651,
      "گرمم": 9652,
      "بخوردش": 9653,
      "امتناع": 9654,
      "بیندازم": 9655,
      "عالیی": 9656,
      "صندوقی": 9657,
      "پریشان": 9658,
      "بذرهای": 9659,
      "پیشنهادی": 9660,
      "##پرنده": 9661,
      "صابونی": 9662,
      "جداگانه": 9663,
      "گلدون": 9664,
      "سراغش": 9665,
      "سربازان": 9666,
      "قدیمیه": 9667,
      "بيند": 9668,
      "محتاطانه": 9669,
      "بفروشه": 9670,
      "ریاضیات": 9671,
      "ویدیویی": 9672,
      "اشیانه": 9673,
      "میکروسکوپش": 9674,
      "پلیورش": 9675,
      "فروختند": 9676,
      "##ill": 9677,
      "بچسبد": 9678,
      "دندانهای": 9679,
      "لاشه": 9680,
      "rooz": 9681,
      "معروفی": 9682,
      "وسوسه": 9683,
      "am": 9684,
      "شامی": 9685,
      "نن": 9686,
      "##كم": 9687,
      "میشیم": 9688,
      "میریم": 9689,
      "انس": 9690,
      "##فتد": 9691,
      "بازیها": 9692,
      "توشه": 9693,
      "##راز": 9694,
      "کمکتون": 9695,
      "ترسه": 9696,
      "بنوازی": 9697,
      "موثر": 9698,
      "دستب": 9699,
      "خودنمایی": 9700,
      "بالاي": 9701,
      "ارنج": 9702,
      "غذاشون": 9703,
      "اندازی": 9704,
      "سلامت": 9705,
      "تونند": 9706,
      "لباسم": 9707,
      "عصبانیه": 9708,
[...]
